{
  "version": "1.0",
  "truncation": null,
  "padding": {
    "strategy": {
      "Fixed": 25
    },
    "direction": "Right",
    "pad_to_multiple_of": null,
    "pad_id": 0,
    "pad_type_id": 0,
    "pad_token": "[PAD]"
  },
  "added_tokens": [
    {
      "id": 0,
      "content": "[CLS]",
      "single_word": false,
      "lstrip": false,
      "rstrip": false,
      "normalized": false,
      "special": true
    },
    {
      "id": 1,
      "content": "[SEP]",
      "single_word": false,
      "lstrip": false,
      "rstrip": false,
      "normalized": false,
      "special": true
    },
    {
      "id": 2,
      "content": "[MASK]",
      "single_word": false,
      "lstrip": false,
      "rstrip": false,
      "normalized": false,
      "special": true
    },
    {
      "id": 3,
      "content": "[PAD]",
      "single_word": false,
      "lstrip": false,
      "rstrip": false,
      "normalized": false,
      "special": true
    }
  ],
  "normalizer": null,
  "pre_tokenizer": {
    "type": "Whitespace"
  },
  "post_processor": {
    "type": "TemplateProcessing",
    "single": [
      {
        "SpecialToken": {
          "id": "[CLS]",
          "type_id": 0
        }
      },
      {
        "Sequence": {
          "id": "A",
          "type_id": 0
        }
      },
      {
        "SpecialToken": {
          "id": "[SEP]",
          "type_id": 0
        }
      }
    ],
    "pair": [
      {
        "SpecialToken": {
          "id": "[CLS]",
          "type_id": 0
        }
      },
      {
        "Sequence": {
          "id": "A",
          "type_id": 0
        }
      },
      {
        "SpecialToken": {
          "id": "[SEP]",
          "type_id": 0
        }
      },
      {
        "Sequence": {
          "id": "B",
          "type_id": 1
        }
      },
      {
        "SpecialToken": {
          "id": "[SEP]",
          "type_id": 1
        }
      }
    ],
    "special_tokens": {
      "[CLS]": {
        "id": "[CLS]",
        "ids": [
          0
        ],
        "tokens": [
          "[CLS]"
        ]
      },
      "[SEP]": {
        "id": "[SEP]",
        "ids": [
          1
        ],
        "tokens": [
          "[SEP]"
        ]
      }
    }
  },
  "decoder": null,
  "model": {
    "type": "BPE",
    "dropout": null,
    "unk_token": null,
    "continuing_subword_prefix": null,
    "end_of_word_suffix": null,
    "fuse_unk": false,
    "vocab": {
      "[UNK]": 0,
      "[CLS]": 1,
      "[SEP]": 2,
      "[PAD]": 3,
      "[MASK]": 4,
      "&": 5,
      "'": 6,
      "(": 7,
      ")": 8,
      "-": 9,
      ".": 10,
      "/": 11,
      "0": 12,
      "1": 13,
      "2": 14,
      "3": 15,
      "4": 16,
      "5": 17,
      "6": 18,
      "7": 19,
      "8": 20,
      "9": 21,
      "A": 22,
      "B": 23,
      "C": 24,
      "D": 25,
      "E": 26,
      "F": 27,
      "G": 28,
      "H": 29,
      "I": 30,
      "J": 31,
      "K": 32,
      "L": 33,
      "M": 34,
      "N": 35,
      "O": 36,
      "P": 37,
      "Q": 38,
      "R": 39,
      "S": 40,
      "T": 41,
      "U": 42,
      "V": 43,
      "W": 44,
      "X": 45,
      "Y": 46,
      "Z": 47,
      "a": 48,
      "b": 49,
      "c": 50,
      "d": 51,
      "e": 52,
      "f": 53,
      "g": 54,
      "h": 55,
      "i": 56,
      "k": 57,
      "l": 58,
      "m": 59,
      "n": 60,
      "o": 61,
      "p": 62,
      "q": 63,
      "r": 64,
      "s": 65,
      "t": 66,
      "u": 67,
      "v": 68,
      "w": 69,
      "x": 70,
      "y": 71,
      "z": 72,
      "in": 73,
      "Co": 74,
      "60": 75,
      "ll": 76,
      "SA": 77,
      "ok": 78,
      "nt": 79,
      "unt": 80,
      "Count": 81,
      "llin": 82,
      "USA": 83,
      "Cook": 84,
      "Illin": 85,
      "is": 86,
      "ois": 87,
      "County": 88,
      "Illinois": 89,
      "ing": 90,
      "te": 91,
      "om": 92,
      "ni": 93,
      "Uni": 94,
      "King": 95,
      "dom": 96,
      "ted": 97,
      "United": 98,
      "Kingdom": 99,
      "ST": 100,
      "EN": 101,
      "ON": 102,
      "TH": 103,
      "AV": 104,
      "UE": 105,
      "AVEN": 106,
      "RO": 107,
      "AVENUE": 108,
      "RE": 109,
      "ic": 110,
      "ag": 111,
      "OR": 112,
      "Ch": 113,
      "icag": 114,
      "Chicag": 115,
      "Chicago": 116,
      "OU": 117,
      "606": 118,
      "ER": 119,
      "AD": 120,
      "ET": 121,
      "LE": 122,
      "STRE": 123,
      "ROAD": 124,
      "IN": 125,
      "LA": 126,
      "STREET": 127,
      "AR": 128,
      "OUTH": 129,
      "EST": 130,
      "SOUTH": 131,
      "NE": 132,
      "RI": 133,
      "ORTH": 134,
      "DON": 135,
      "604": 136,
      "CH": 137,
      "WEST": 138,
      "EL": 139,
      "10": 140,
      "NORTH": 141,
      "LON": 142,
      "AM": 143,
      "LONDON": 144,
      "TON": 145,
      "600": 146,
      "AL": 147,
      "11": 148,
      "SE": 149,
      "AN": 150,
      "VE": 151,
      "12": 152,
      "ING": 153,
      "14": 154,
      "15": 155,
      "IL": 156,
      "16": 157,
      "13": 158,
      "GH": 159,
      "Pa": 160,
      "17": 161,
      "DRI": 162,
      "WA": 163,
      "19": 164,
      "20": 165,
      "DRIVE": 166,
      "UR": 167,
      "OL": 168,
      "OD": 169,
      "LANE": 170,
      "18": 171,
      "rk": 172,
      "6063": 173,
      "Park": 174,
      "LO": 175,
      "CE": 176,
      "SH": 177,
      "RA": 178,
      "25": 179,
      "an": 180,
      "CK": 181,
      "FOR": 182,
      "EA": 183,
      "23": 184,
      "LEY": 185,
      "GE": 186,
      "ND": 187,
      "FORD": 188,
      "WO": 189,
      "OUR": 190,
      "6064": 191,
      "ED": 192,
      "22": 193,
      "es": 194,
      "ARD": 195,
      "HAM": 196,
      "30": 197,
      "WOOD": 198,
      "SW": 199,
      "AT": 200,
      "24": 201,
      "ro": 202,
      "CO": 203,
      "DE": 204,
      "BUR": 205,
      "PLA": 206,
      "28": 207,
      "FI": 208,
      "ELD": 209,
      "29": 210,
      "26": 211,
      "HI": 212,
      "on": 213,
      "53": 214,
      "FIELD": 215,
      "ENT": 216,
      "PLACE": 217,
      "HA": 218,
      "ESTER": 219,
      "EAST": 220,
      "ILL": 221,
      "or": 222,
      "TW": 223,
      "WAY": 224,
      "COUR": 225,
      "ES": 226,
      "MA": 227,
      "COURT": 228,
      "ton": 229,
      "BRI": 230,
      "21": 231,
      "RD": 232,
      "ve": 233,
      "ARK": 234,
      "27": 235,
      "6065": 236,
      "80": 237,
      "40": 238,
      "DA": 239,
      "IR": 240,
      "43": 241,
      "50": 242,
      "STON": 243,
      "IS": 244,
      "DGE": 245,
      "ELL": 246,
      "od": 247,
      "CA": 248,
      "ood": 249,
      "wood": 250,
      "CLO": 251,
      "KE": 252,
      "70": 253,
      "LAND": 254,
      "BR": 255,
      "CLOSE": 256,
      "ie": 257,
      "INGTON": 258,
      "45": 259,
      "33": 260,
      "PARK": 261,
      "le": 262,
      "HIGH": 263,
      "AB": 264,
      "VER": 265,
      "SS": 266,
      "ME": 267,
      "HAR": 268,
      "6046": 269,
      "He": 270,
      "NW": 271,
      "NEW": 272,
      "rl": 273,
      "ig": 274,
      "ht": 275,
      "Heig": 276,
      "hts": 277,
      "Heights": 278,
      "TER": 279,
      "LS": 280,
      "UN": 281,
      "PTON": 282,
      "6000": 283,
      "38": 284,
      "BO": 285,
      "IT": 286,
      "56": 287,
      "PE": 288,
      "RY": 289,
      "ak": 290,
      "PR": 291,
      "BE": 292,
      "LL": 293,
      "6047": 294,
      "BY": 295,
      "BA": 296,
      "LIN": 297,
      "GRE": 298,
      "55": 299,
      "44": 300,
      "id": 301,
      "PO": 302,
      "MON": 303,
      "ill": 304,
      "39": 305,
      "6006": 306,
      "th": 307,
      "um": 308,
      "Oak": 309,
      "ORT": 310,
      "CESTER": 311,
      "CR": 312,
      "HILL": 313,
      "34": 314,
      "37": 315,
      "36": 316,
      "GU": 317,
      "GL": 318,
      "BRIDGE": 319,
      "est": 320,
      "DER": 321,
      "35": 322,
      "EH": 323,
      "ge": 324,
      "WY": 325,
      "la": 326,
      "SL": 327,
      "HU": 328,
      "90": 329,
      "PA": 330,
      "46": 331,
      "HE": 332,
      "DEN": 333,
      "and": 334,
      "LY": 335,
      "BURY": 336,
      "ur": 337,
      "CRO": 338,
      "OW": 339,
      "CRE": 340,
      "6060": 341,
      "ROU": 342,
      "PORT": 343,
      "ch": 344,
      "LOW": 345,
      "BER": 346,
      "OX": 347,
      "LEI": 348,
      "6040": 349,
      "31": 350,
      "IE": 351,
      "48": 352,
      "ENS": 353,
      "CENT": 354,
      "CHESTER": 355,
      "MAR": 356,
      "32": 357,
      "ATE": 358,
      "605": 359,
      "FF": 360,
      "WI": 361,
      "MO": 362,
      "MAN": 363,
      "49": 364,
      "ROUGH": 365,
      "WAL": 366,
      "BN": 367,
      "47": 368,
      "CAST": 369,
      "59": 370,
      "GREEN": 371,
      "ROA": 372,
      "UP": 373,
      "YNE": 374,
      "ION": 375,
      "ver": 376,
      "et": 377,
      "COL": 378,
      "SK": 379,
      "SO": 380,
      "TT": 381,
      "RAOD": 382,
      "6080": 383,
      "GB": 384,
      "THE": 385,
      "ID": 386,
      "ington": 387,
      "CT": 388,
      "NN": 389,
      "CV": 390,
      "52": 391,
      "OLD": 392,
      "41": 393,
      "BRO": 394,
      "TWP": 395,
      "CL": 396,
      "OCK": 397,
      "KT": 398,
      "Gro": 399,
      "Grove": 400,
      "RU": 401,
      "57": 402,
      "KING": 403,
      "idge": 404,
      "42": 405,
      "DN": 406,
      "CF": 407,
      "Sch": 408,
      "La": 409,
      "GATE": 410,
      "AK": 411,
      "WELL": 412,
      "SON": 413,
      "ans": 414,
      "El": 415,
      "CAM": 416,
      "INE": 417,
      "LES": 418,
      "6007": 419,
      "TE": 420,
      "IA": 421,
      "BOROUGH": 422,
      "60617": 423,
      "58": 424,
      "MER": 425,
      "HP": 426,
      "TS": 427,
      "Nor": 428,
      "ALL": 429,
      "AMPTON": 430,
      "60629": 431,
      "60628": 432,
      "RH": 433,
      "GRO": 434,
      "WIN": 435,
      "GR": 436,
      "OAK": 437,
      "ros": 438,
      "Ho": 439,
      "aum": 440,
      "bur": 441,
      "Schaum": 442,
      "burg": 443,
      "Schaumburg": 444,
      "6010": 445,
      "Arl": 446,
      "Arlington": 447,
      "EDS": 448,
      "GARD": 449,
      "For": 450,
      "iew": 451,
      "LEEDS": 452,
      "lo": 453,
      "EC": 454,
      "view": 455,
      "RM": 456,
      "6019": 457,
      "BURGH": 458,
      "BU": 459,
      "BOUR": 460,
      "ROW": 461,
      "Forest": 462,
      "DY": 463,
      "CHUR": 464,
      "BH": 465,
      "60620": 466,
      "CHURCH": 467,
      "UB": 468,
      "BAN": 469,
      "WORTH": 470,
      "tes": 471,
      "51": 472,
      "Orl": 473,
      "Orland": 474,
      "HO": 475,
      "Be": 476,
      "WS": 477,
      "120": 478,
      "Gle": 479,
      "Glen": 480,
      "CM": 481,
      "CRES": 482,
      "54": 483,
      "MOUTH": 484,
      "GROVE": 485,
      "ILTON": 486,
      "THAM": 487,
      "IFF": 488,
      "LEICESTER": 489,
      "60634": 490,
      "LN": 491,
      "EDIN": 492,
      "ASH": 493,
      "el": 494,
      "EDINBURGH": 495,
      "PP": 496,
      "ENHAM": 497,
      "NU": 498,
      "VARD": 499,
      "6016": 500,
      "re": 501,
      "IDE": 502,
      "ar": 503,
      "NS": 504,
      "FA": 505,
      "Hill": 506,
      "Hills": 507,
      "60619": 508,
      "STONE": 509,
      "BOU": 510,
      "North": 511,
      "WAR": 512,
      "60618": 513,
      "MK": 514,
      "mwood": 515,
      "tin": 516,
      "Pala": 517,
      "tine": 518,
      "Palatine": 519,
      "SG": 520,
      "60638": 521,
      "wn": 522,
      "ff": 523,
      "END": 524,
      "60477": 525,
      "QU": 526,
      "TA": 527,
      "DALE": 528,
      "60411": 529,
      "rook": 530,
      "LEVARD": 531,
      "BOULEVARD": 532,
      "st": 533,
      "GAN": 534,
      "CRESCENT": 535,
      "CASTLE": 536,
      "pe": 537,
      "Pros": 538,
      "ct": 539,
      "pect": 540,
      "Prospect": 541,
      "66": 542,
      "UPON": 543,
      "6020": 544,
      "6070": 545,
      "STOCK": 546,
      "60632": 547,
      "ley": 548,
      "il": 549,
      "TR": 550,
      "GARDENS": 551,
      "STE": 552,
      "WE": 553,
      "Sk": 554,
      "okie": 555,
      "Skokie": 556,
      "CARD": 557,
      "PL": 558,
      "BOURNE": 559,
      "MONT": 560,
      "Lawn": 561,
      "60453": 562,
      "ATION": 563,
      "Ma": 564,
      "ORN": 565,
      "Pla": 566,
      "Des": 567,
      "ines": 568,
      "Plaines": 569,
      "CAR": 570,
      "CLE": 571,
      "ice": 572,
      "ORE": 573,
      "60639": 574,
      "AU": 575,
      "60643": 576,
      "yn": 577,
      "ALE": 578,
      "ELM": 579,
      "CLA": 580,
      "SP": 581,
      "MB": 582,
      "Ridge": 583,
      "6030": 584,
      "AY": 585,
      "Ev": 586,
      "anston": 587,
      "Evanston": 588,
      "60647": 589,
      "CARDIFF": 590,
      "60004": 591,
      "Tin": 592,
      "Tinley": 593,
      "AW": 594,
      "NOR": 595,
      "TFORD": 596,
      "OK": 597,
      "6009": 598,
      "Vill": 599,
      "age": 600,
      "Village": 601,
      "100": 602,
      "WHI": 603,
      "6015": 604,
      "3RD": 605,
      "THER": 606,
      "60402": 607,
      "60641": 608,
      "UL": 609,
      "CIR": 610,
      "Glenview": 611,
      "607": 612,
      "Est": 613,
      "ates": 614,
      "man": 615,
      "Hoff": 616,
      "Estates": 617,
      "Hoffman": 618,
      "77": 619,
      "COM": 620,
      "KEN": 621,
      "NT": 622,
      "St": 623,
      "60630": 624,
      "60623": 625,
      "RIDGE": 626,
      "IEW": 627,
      "SIDE": 628,
      "STR": 629,
      "VIEW": 630,
      "PER": 631,
      "ran": 632,
      "65": 633,
      "los": 634,
      "Ri": 635,
      "River": 636,
      "CON": 637,
      "AGE": 638,
      "RAL": 639,
      "60056": 640,
      "HARROW": 641,
      "89": 642,
      "79": 643,
      "LI": 644,
      "OUGH": 645,
      "WIL": 646,
      "WD": 647,
      "YDON": 648,
      "Mo": 649,
      "Mount": 650,
      "RACE": 651,
      "60804": 652,
      "Cice": 653,
      "Cicero": 654,
      "MILTON": 655,
      "BI": 656,
      "DI": 657,
      "6013": 658,
      "DU": 659,
      "60609": 660,
      "CAL": 661,
      "64": 662,
      "60062": 663,
      "67": 664,
      "ABER": 665,
      "WOL": 666,
      "60651": 667,
      "CB": 668,
      "HD": 669,
      "CROYDON": 670,
      "60608": 671,
      "SEA": 672,
      "VIL": 673,
      "Ca": 674,
      "lum": 675,
      "Calum": 676,
      "Calumet": 677,
      "WR": 678,
      "it": 679,
      "AND": 680,
      "Ber": 681,
      "wyn": 682,
      "Berwyn": 683,
      "PRE": 684,
      "60067": 685,
      "3A": 686,
      "1ST": 687,
      "FAR": 688,
      "60016": 689,
      "60462": 690,
      "BAR": 691,
      "Stre": 692,
      "amwood": 693,
      "Streamwood": 694,
      "60625": 695,
      "STREE": 696,
      "WN": 697,
      "68": 698,
      "60193": 699,
      "VENT": 700,
      "NEWCASTLE": 701,
      "1N": 702,
      "PLE": 703,
      "HAMPTON": 704,
      "YNES": 705,
      "69": 706,
      "GBR": 707,
      "COR": 708,
      "MEAD": 709,
      "INGHAM": 710,
      "60107": 711,
      "CAMBRIDGE": 712,
      "NER": 713,
      "60652": 714,
      "60007": 715,
      "KEYNES": 716,
      "HOL": 717,
      "GO": 718,
      "STATION": 719,
      "COVENT": 720,
      "WC": 721,
      "SOUTHAMPTON": 722,
      "CHAM": 723,
      "COVENTRY": 724,
      "RAY": 725,
      "78": 726,
      "60025": 727,
      "60068": 728,
      "Elk": 729,
      "76": 730,
      "PH": 731,
      "BLA": 732,
      "DR": 733,
      "SU": 734,
      "ICK": 735,
      "2A": 736,
      "HOU": 737,
      "brook": 738,
      "Northbrook": 739,
      "SFIELD": 740,
      "5TH": 741,
      "60120": 742,
      "ol": 743,
      "WF": 744,
      "NP": 745,
      "MEL": 746,
      "COLN": 747,
      "CAN": 748,
      "60614": 749,
      "60636": 750,
      "LINCOLN": 751,
      "SHAM": 752,
      "STER": 753,
      "MIT": 754,
      "1B": 755,
      "LU": 756,
      "MOND": 757,
      "DEEN": 758,
      "TERRACE": 759,
      "1J": 760,
      "HEA": 761,
      "ETER": 762,
      "BRIGH": 763,
      "TYNE": 764,
      "BEL": 765,
      "ABERDEEN": 766,
      "SY": 767,
      "So": 768,
      "uth": 769,
      "South": 770,
      "DS": 771,
      "608": 772,
      "ter": 773,
      "Palos": 774,
      "ester": 775,
      "Bur": 776,
      "CHI": 777,
      "MILL": 778,
      "NORTHAMPTON": 779,
      "63": 780,
      "DG": 781,
      "62": 782,
      "SW1": 783,
      "lu": 784,
      "WICK": 785,
      "ity": 786,
      "87": 787,
      "LEIGH": 788,
      "VI": 789,
      "City": 790,
      "EP": 791,
      "60409": 792,
      "HAY": 793,
      "COTT": 794,
      "82": 795,
      "NG": 796,
      "60707": 797,
      "MOR": 798,
      "CASTER": 799,
      "TRE": 800,
      "SEY": 801,
      "1A": 802,
      "HEAD": 803,
      "CIRCLE": 804,
      "WARR": 805,
      "CHA": 806,
      "HL": 807,
      "4A": 808,
      "mo": 809,
      "ALBAN": 810,
      "BROOK": 811,
      "ld": 812,
      "ield": 813,
      "ERN": 814,
      "NA": 815,
      "PETER": 816,
      "RICH": 817,
      "88": 818,
      "HN": 819,
      "PRESTON": 820,
      "MORE": 821,
      "OM": 822,
      "ad": 823,
      "DERBY": 824,
      "WATER": 825,
      "Har": 826,
      "110": 827,
      "MAL": 828,
      "60525": 829,
      "Ro": 830,
      "KIL": 831,
      "60622": 832,
      "60655": 833,
      "VILLE": 834,
      "CU": 835,
      "4TH": 836,
      "2J": 837,
      "WV": 838,
      "60076": 839,
      "6017": 840,
      "ridge": 841,
      "ROSE": 842,
      "60657": 843,
      "Bar": 844,
      "72": 845,
      "EC1": 846,
      "60090": 847,
      "BLACK": 848,
      "STOCKPORT": 849,
      "BRIGHTON": 850,
      "8J": 851,
      "SHI": 852,
      "CTOR": 853,
      "Wh": 854,
      "eel": 855,
      "Wheel": 856,
      "Wheeling": 857,
      "OP": 858,
      "60631": 859,
      "HY": 860,
      "ide": 861,
      "ette": 862,
      "MARK": 863,
      "DAR": 864,
      "CW": 865,
      "7J": 866,
      "60646": 867,
      "BED": 868,
      "75": 869,
      "60426": 870,
      "86": 871,
      "60438": 872,
      "SLOUGH": 873,
      "CR0": 874,
      "3J": 875,
      "SPR": 876,
      "PU": 877,
      "130": 878,
      "60644": 879,
      "ITY": 880,
      "SCH": 881,
      "OLE": 882,
      "SHE": 883,
      "Lans": 884,
      "Lansing": 885,
      "THAMES": 886,
      "PB": 887,
      "LAR": 888,
      "4J": 889,
      "60201": 890,
      "60827": 891,
      "Nil": 892,
      "Niles": 893,
      "SE1": 894,
      "60714": 895,
      "HUR": 896,
      "61": 897,
      "TING": 898,
      "1Q": 899,
      "HER": 900,
      "MAPLE": 901,
      "2N": 902,
      "60169": 903,
      "CENTRAL": 904,
      "3B": 905,
      "HG": 906,
      "OXFORD": 907,
      "ERS": 908,
      "BROAD": 909,
      "FT": 910,
      "140": 911,
      "60637": 912,
      "60074": 913,
      "COMBE": 914,
      "160": 915,
      "Wil": 916,
      "mette": 917,
      "Wilmette": 918,
      "60091": 919,
      "DONCASTER": 920,
      "LONG": 921,
      "RED": 922,
      "HEATH": 923,
      "BROM": 924,
      "en": 925,
      "Gran": 926,
      "Grange": 927,
      "HALL": 928,
      "STAN": 929,
      "60649": 930,
      "2Q": 931,
      "FR": 932,
      "field": 933,
      "HAL": 934,
      "60459": 935,
      "FAIR": 936,
      "5J": 937,
      "PEN": 938,
      "ban": 939,
      "Burban": 940,
      "Burbank": 941,
      "MIN": 942,
      "107": 943,
      "CRA": 944,
      "ow": 945,
      "SFORD": 946,
      "GLOU": 947,
      "QUE": 948,
      "OWN": 949,
      "WOLVER": 950,
      "73": 951,
      "NEY": 952,
      "GLOUCESTER": 953,
      "THOR": 954,
      "8A": 955,
      "60473": 956,
      "9J": 957,
      "WARRINGTON": 958,
      "60467": 959,
      "SAND": 960,
      "Hom": 961,
      "LING": 962,
      "9A": 963,
      "TY": 964,
      "60621": 965,
      "WASH": 966,
      "60018": 967,
      "WOLVERHAMPTON": 968,
      "lland": 969,
      "Holland": 970,
      "60005": 971,
      "DO": 972,
      "ROM": 973,
      "150": 974,
      "109": 975,
      "SHER": 976,
      "FY": 977,
      "MI": 978,
      "FORE": 979,
      "ALD": 980,
      "60624": 981,
      "ML": 982,
      "MAIN": 983,
      "6A": 984,
      "DD": 985,
      "5A": 986,
      "BEDFORD": 987,
      "RICHMOND": 988,
      "VEN": 989,
      "BURN": 990,
      "Mor": 991,
      "Morton": 992,
      "60053": 993,
      "Cr": 994,
      "Crest": 995,
      "NY": 996,
      "60452": 997,
      "vey": 998,
      "Harvey": 999,
      "MARKET": 1000,
      "60612": 1001,
      "HULL": 1002,
      "7A": 1003,
      "GLEN": 1004,
      "108": 1005,
      "SPRING": 1006,
      "LAKE": 1007,
      "IAN": 1008,
      "JO": 1009,
      "WOR": 1010,
      "ry": 1011,
      "Country": 1012,
      "2B": 1013,
      "HUD": 1014,
      "60645": 1015,
      "EC1V": 1016,
      "60302": 1017,
      "6J": 1018,
      "60445": 1019,
      "60466": 1020,
      "85": 1021,
      "60640": 1022,
      "3L": 1023,
      "106": 1024,
      "3Q": 1025,
      "POOL": 1026,
      "83": 1027,
      "9Q": 1028,
      "STEAD": 1029,
      "LIS": 1030,
      "2H": 1031,
      "FER": 1032,
      "LANDS": 1033,
      "RS": 1034,
      "Dol": 1035,
      "Dolton": 1036,
      "60443": 1037,
      "TREE": 1038,
      "60419": 1039,
      "2E": 1040,
      "MID": 1041,
      "CHER": 1042,
      "TQ": 1043,
      "CHE": 1044,
      "74": 1045,
      "ROY": 1046,
      "THORN": 1047,
      "7B": 1048,
      "MAY": 1049,
      "INT": 1050,
      "60659": 1051,
      "99": 1052,
      "ENCE": 1053,
      "WARE": 1054,
      "4Q": 1055,
      "5B": 1056,
      "PAR": 1057,
      "LEA": 1058,
      "ELT": 1059,
      "HURST": 1060,
      "KY": 1061,
      "60202": 1062,
      "PETERBOROUGH": 1063,
      "60439": 1064,
      "MBLEY": 1065,
      "60656": 1066,
      "Me": 1067,
      "side": 1068,
      "DERSFIELD": 1069,
      "HUDDERSFIELD": 1070,
      "WEMBLEY": 1071,
      "BRENT": 1072,
      "HX": 1073,
      "CLS": 1074,
      "ISON": 1075,
      "gin": 1076,
      "Elgin": 1077,
      "CLSE": 1078,
      "NW10": 1079,
      "3D": 1080,
      "60010": 1081,
      "KED": 1082,
      "60616": 1083,
      "EU": 1084,
      "CROSS": 1085,
      "97": 1086,
      "ETT": 1087,
      "60706": 1088,
      "5Q": 1089,
      "FOREST": 1090,
      "DAG": 1091,
      "BRA": 1092,
      "8Q": 1093,
      "SALL": 1094,
      "NEWPORT": 1095,
      "MP": 1096,
      "RIE": 1097,
      "6Q": 1098,
      "WINCHESTER": 1099,
      "60093": 1100,
      "4P": 1101,
      "60803": 1102,
      "60194": 1103,
      "GLE": 1104,
      "60805": 1105,
      "Ever": 1106,
      "gre": 1107,
      "Evergre": 1108,
      "Evergreen": 1109,
      "7Q": 1110,
      "DAGENHAM": 1111,
      "DUN": 1112,
      "60154": 1113,
      "West": 1114,
      "chester": 1115,
      "Westchester": 1116,
      "WATFORD": 1117,
      "BATH": 1118,
      "60430": 1119,
      "GA": 1120,
      "AVN": 1121,
      "1L": 1122,
      "HR": 1123,
      "KINGS": 1124,
      "ETON": 1125,
      "TF": 1126,
      "96": 1127,
      "EG": 1128,
      "ART": 1129,
      "STA": 1130,
      "0J": 1131,
      "BOURNEMOUTH": 1132,
      "MAC": 1133,
      "105": 1134,
      "WESTERN": 1135,
      "170": 1136,
      "ewood": 1137,
      "Homewood": 1138,
      "98": 1139,
      "WHIT": 1140,
      "ROMFORD": 1141,
      "NSLOW": 1142,
      "HOUNSLOW": 1143,
      "GREAT": 1144,
      "NES": 1145,
      "GRAN": 1146,
      "4B": 1147,
      "6B": 1148,
      "SPA": 1149,
      "WALSALL": 1150,
      "BIR": 1151,
      "ttes": 1152,
      "Mattes": 1153,
      "Matteson": 1154,
      "ALBANS": 1155,
      "BRE": 1156,
      "60613": 1157,
      "BERT": 1158,
      "emo": 1159,
      "emont": 1160,
      "lling": 1161,
      "adow": 1162,
      "Rolling": 1163,
      "Meadow": 1164,
      "Meadows": 1165,
      "60513": 1166,
      "Brook": 1167,
      "Sp": 1168,
      "ring": 1169,
      "Spring": 1170,
      "Springs": 1171,
      "Brookfield": 1172,
      "VICTOR": 1173,
      "116": 1174,
      "EY": 1175,
      "ILD": 1176,
      "9L": 1177,
      "CI": 1178,
      "COLCHESTER": 1179,
      "HOR": 1180,
      "SWORTH": 1181,
      "200": 1182,
      "AVE": 1183,
      "SW19": 1184,
      "CHELM": 1185,
      "EE": 1186,
      "2L": 1187,
      "SUN": 1188,
      "CHELMSFORD": 1189,
      "GN": 1190,
      "OT": 1191,
      "HAYES": 1192,
      "CLAR": 1193,
      "CROFT": 1194,
      "TRA": 1195,
      "Elmwood": 1196,
      "MEADOW": 1197,
      "NUT": 1198,
      "LAW": 1199,
      "2D": 1200,
      "HUN": 1201,
      "60077": 1202,
      "BEA": 1203,
      "ARDS": 1204,
      "8B": 1205,
      "GAR": 1206,
      "PRIN": 1207,
      "60153": 1208,
      "ywood": 1209,
      "Maywood": 1210,
      "84": 1211,
      "PON": 1212,
      "60478": 1213,
      "VICTORIA": 1214,
      "BAY": 1215,
      "NR": 1216,
      "EX": 1217,
      "UX": 1218,
      "CITY": 1219,
      "117": 1220,
      "60131": 1221,
      "2ND": 1222,
      "FLE": 1223,
      "TLE": 1224,
      "60008": 1225,
      "MS": 1226,
      "8P": 1227,
      "LAN": 1228,
      "180": 1229,
      "KIR": 1230,
      "93": 1231,
      "HAW": 1232,
      "Fran": 1233,
      "kl": 1234,
      "Frankl": 1235,
      "Franklin": 1236,
      "OVER": 1237,
      "BANK": 1238,
      "MOOR": 1239,
      "Clu": 1240,
      "Club": 1241,
      "4L": 1242,
      "5D": 1243,
      "VALE": 1244,
      "2P": 1245,
      "NI": 1246,
      "WORCESTER": 1247,
      "MIDD": 1248,
      "WIGAN": 1249,
      "ian": 1250,
      "MERE": 1251,
      "TRIN": 1252,
      "GUILD": 1253,
      "QUA": 1254,
      "7D": 1255,
      "ADE": 1256,
      "am": 1257,
      "ham": 1258,
      "60626": 1259,
      "95": 1260,
      "MIL": 1261,
      "AVER": 1262,
      "PLY": 1263,
      "CHELT": 1264,
      "CHELTENHAM": 1265,
      "WYN": 1266,
      "111": 1267,
      "119": 1268,
      "PRI": 1269,
      "Al": 1270,
      "ip": 1271,
      "sip": 1272,
      "Alsip": 1273,
      "4D": 1274,
      "WYCOMBE": 1275,
      "60164": 1276,
      "PLYMOUTH": 1277,
      "104": 1278,
      "1D": 1279,
      "RICK": 1280,
      "ick": 1281,
      "PRA": 1282,
      "GUILDFORD": 1283,
      "UM": 1284,
      "60104": 1285,
      "llwood": 1286,
      "Bellwood": 1287,
      "BROMLEY": 1288,
      "FLEET": 1289,
      "EB": 1290,
      "Lemont": 1291,
      "MARSH": 1292,
      "230": 1293,
      "ASHLAND": 1294,
      "STED": 1295,
      "KINGSTON": 1296,
      "2R": 1297,
      "6D": 1298,
      "SAINT": 1299,
      "COT": 1300,
      "ADD": 1301,
      "EDG": 1302,
      "ERI": 1303,
      "DOR": 1304,
      "1R": 1305,
      "112": 1306,
      "Mel": 1307,
      "60160": 1308,
      "rose": 1309,
      "Melrose": 1310,
      "FRAN": 1311,
      "FK": 1312,
      "OUNT": 1313,
      "9B": 1314,
      "YN": 1315,
      "IV": 1316,
      "WALK": 1317,
      "PIN": 1318,
      "71": 1319,
      "JOHN": 1320,
      "8D": 1321,
      "TU": 1322,
      "60406": 1323,
      "5L": 1324,
      "NW3": 1325,
      "CHAR": 1326,
      "GRD": 1327,
      "60615": 1328,
      "7L": 1329,
      "SW6": 1330,
      "QUARE": 1331,
      "SQUARE": 1332,
      "7P": 1333,
      "60463": 1334,
      "KIRK": 1335,
      "WAKE": 1336,
      "NW6": 1337,
      "0Q": 1338,
      "60546": 1339,
      "REHAM": 1340,
      "RIST": 1341,
      "113": 1342,
      "Riverside": 1343,
      "60304": 1344,
      "WINDS": 1345,
      "GER": 1346,
      "FARN": 1347,
      "tt": 1348,
      "tle": 1349,
      "Bartle": 1350,
      "Bartlett": 1351,
      "NW2": 1352,
      "TRAIL": 1353,
      "3R": 1354,
      "118": 1355,
      "6L": 1356,
      "BECK": 1357,
      "Blu": 1358,
      "Is": 1359,
      "land": 1360,
      "Blue": 1361,
      "Island": 1362,
      "7TH": 1363,
      "WINDSOR": 1364,
      "0L": 1365,
      "9D": 1366,
      "EW": 1367,
      "CHRIST": 1368,
      "115": 1369,
      "WIR": 1370,
      "VERN": 1371,
      "TCH": 1372,
      "NDALE": 1373,
      "POOLE": 1374,
      "103": 1375,
      "WIRRAL": 1376,
      "WAKEFIELD": 1377,
      "DING": 1378,
      "WASHINGTON": 1379,
      "1P": 1380,
      "SIL": 1381,
      "MITCHAM": 1382,
      "101": 1383,
      "8L": 1384,
      "OLDHAM": 1385,
      "LER": 1386,
      "300": 1387,
      "Bridge": 1388,
      "Bridgeview": 1389,
      "EDGWARE": 1390,
      "60653": 1391,
      "OS": 1392,
      "BUCK": 1393,
      "60429": 1394,
      "9P": 1395,
      "Ha": 1396,
      "zel": 1397,
      "Hazel": 1398,
      "BISH": 1399,
      "60455": 1400,
      "128": 1401,
      "501": 1402,
      "NW1": 1403,
      "PK": 1404,
      "125": 1405,
      "SW11": 1406,
      "60103": 1407,
      "60465": 1408,
      "LOCK": 1409,
      "94": 1410,
      "558": 1411,
      "HJ": 1412,
      "IM": 1413,
      "AYLES": 1414,
      "SQ": 1415,
      "BISHOP": 1416,
      "Norridge": 1417,
      "4R": 1418,
      "GARDEN": 1419,
      "LOR": 1420,
      "FRE": 1421,
      "SCHO": 1422,
      "BROUGH": 1423,
      "0A": 1424,
      "WILL": 1425,
      "WILLOW": 1426,
      "60133": 1427,
      "BN1": 1428,
      "GEOR": 1429,
      "ORCH": 1430,
      "60660": 1431,
      "WICH": 1432,
      "250": 1433,
      "ROCH": 1434,
      "NO": 1435,
      "LANG": 1436,
      "STEVEN": 1437,
      "SL1": 1438,
      "Han": 1439,
      "over": 1440,
      "Hanover": 1441,
      "GIN": 1442,
      "SW16": 1443,
      "114": 1444,
      "8R": 1445,
      "Mid": 1446,
      "thian": 1447,
      "lothian": 1448,
      "Midlothian": 1449,
      "rkham": 1450,
      "HOVE": 1451,
      "Markham": 1452,
      "MU": 1453,
      "MAID": 1454,
      "rington": 1455,
      "Barrington": 1456,
      "WLEY": 1457,
      "WELLINGTON": 1458,
      "5P": 1459,
      "IRIE": 1460,
      "126": 1461,
      "MITAGE": 1462,
      "ESTON": 1463,
      "PRAIRIE": 1464,
      "ROS": 1465,
      "BERRY": 1466,
      "MINSTER": 1467,
      "PORTS": 1468,
      "STEVENAGE": 1469,
      "ale": 1470,
      "dale": 1471,
      "MAIDSTONE": 1472,
      "HEL": 1473,
      "HA8": 1474,
      "EF": 1475,
      "0B": 1476,
      "BELL": 1477,
      "PAL": 1478,
      "PRK": 1479,
      "145": 1480,
      "190": 1481,
      "0D": 1482,
      "ALTRIN": 1483,
      "ALTRINCHAM": 1484,
      "129": 1485,
      "ROCK": 1486,
      "WELLING": 1487,
      "60428": 1488,
      "FAL": 1489,
      "LEAM": 1490,
      "NELL": 1491,
      "148": 1492,
      "BEE": 1493,
      "ZIE": 1494,
      "AUST": 1495,
      "WEL": 1496,
      "6P": 1497,
      "124": 1498,
      "HA3": 1499,
      "HB": 1500,
      "3P": 1501,
      "MANOR": 1502,
      "BIRCH": 1503,
      "FAX": 1504,
      "WES": 1505,
      "Wester": 1506,
      "Western": 1507,
      "EMER": 1508,
      "PAT": 1509,
      "BN3": 1510,
      "LINGTON": 1511,
      "60558": 1512,
      "ORY": 1513,
      "ERTON": 1514,
      "HA1": 1515,
      "ISLE": 1516,
      "LOU": 1517,
      "MEN": 1518,
      "DLEY": 1519,
      "92": 1520,
      "SOUTHPORT": 1521,
      "PORTSMOUTH": 1522,
      "SW17": 1523,
      "LEAMINGTON": 1524,
      "534": 1525,
      "ORCHARD": 1526,
      "127": 1527,
      "EJ": 1528,
      "WARWICK": 1529,
      "ELFORD": 1530,
      "GEORGE": 1531,
      "REG": 1532,
      "240": 1533,
      "HH": 1534,
      "CAMPB": 1535,
      "CAMPBELL": 1536,
      "SPRINGFIELD": 1537,
      "AYLESBURY": 1538,
      "TD": 1539,
      "MAI": 1540,
      "BRIDG": 1541,
      "PARKWAY": 1542,
      "500": 1543,
      "SID": 1544,
      "CALDER": 1545,
      "STRA": 1546,
      "Lin": 1547,
      "col": 1548,
      "nwood": 1549,
      "146": 1550,
      "60712": 1551,
      "Lincol": 1552,
      "Lincolnwood": 1553,
      "BEN": 1554,
      "7R": 1555,
      "1X": 1556,
      "GRAY": 1557,
      "RUG": 1558,
      "moor": 1559,
      "NIA": 1560,
      "BAL": 1561,
      "HARRO": 1562,
      "FEL": 1563,
      "CF11": 1564,
      "Win": 1565,
      "ka": 1566,
      "net": 1567,
      "Winnet": 1568,
      "Winnetka": 1569,
      "VAN": 1570,
      "136": 1571,
      "0R": 1572,
      "60633": 1573,
      "HARROGATE": 1574,
      "5R": 1575,
      "RISE": 1576,
      "SCHOOL": 1577,
      "WSBURY": 1578,
      "BRAD": 1579,
      "HAT": 1580,
      "149": 1581,
      "60026": 1582,
      "TEN": 1583,
      "ALBANY": 1584,
      "TWICK": 1585,
      "BLACKPOOL": 1586,
      "123": 1587,
      "SW7": 1588,
      "MAINE": 1589,
      "GHT": 1590,
      "BOR": 1591,
      "VA": 1592,
      "HAMILTON": 1593,
      "81": 1594,
      "SOM": 1595,
      "ETTER": 1596,
      "GRI": 1597,
      "102": 1598,
      "HA2": 1599,
      "RIVER": 1600,
      "UXBRIDGE": 1601,
      "MAIDEN": 1602,
      "LACE": 1603,
      "HT": 1604,
      "INGS": 1605,
      "REX": 1606,
      "LOWER": 1607,
      "TELFORD": 1608,
      "WOKING": 1609,
      "TWICKENHAM": 1610,
      "AVON": 1611,
      "RUGBY": 1612,
      "KO": 1613,
      "HS": 1614,
      "KN": 1615,
      "147": 1616,
      "TAL": 1617,
      "9R": 1618,
      "In": 1619,
      "60526": 1620,
      "VIN": 1621,
      "OMA": 1622,
      "SUR": 1623,
      "HQ": 1624,
      "SE18": 1625,
      "INDI": 1626,
      "BURTON": 1627,
      "TIN": 1628,
      "LEM": 1629,
      "LOOM": 1630,
      "KEDZIE": 1631,
      "HOW": 1632,
      "KIN": 1633,
      "156": 1634,
      "CLIFF": 1635,
      "EPSOM": 1636,
      "VAL": 1637,
      "HEN": 1638,
      "60642": 1639,
      "PPLE": 1640,
      "121": 1641,
      "HF": 1642,
      "SW15": 1643,
      "MAIDENHEAD": 1644,
      "HOUSE": 1645,
      "HARD": 1646,
      "PINE": 1647,
      "INDIAN": 1648,
      "139": 1649,
      "Bu": 1650,
      "alo": 1651,
      "HEMP": 1652,
      "ffalo": 1653,
      "Buffalo": 1654,
      "PEL": 1655,
      "POR": 1656,
      "60089": 1657,
      "400": 1658,
      "SHIRE": 1659,
      "EQ": 1660,
      "ELER": 1661,
      "122": 1662,
      "Hick": 1663,
      "ory": 1664,
      "Hickory": 1665,
      "AMS": 1666,
      "LOUIS": 1667,
      "SE15": 1668,
      "UNION": 1669,
      "GREENWOOD": 1670,
      "TL": 1671,
      "IZ": 1672,
      "STOCKTON": 1673,
      "143": 1674,
      "MOUNT": 1675,
      "Riverdale": 1676,
      "DARE": 1677,
      "SKI": 1678,
      "60471": 1679,
      "TRI": 1680,
      "BOURN": 1681,
      "ROCHDALE": 1682,
      "ILWORTH": 1683,
      "UKE": 1684,
      "137": 1685,
      "EDGE": 1686,
      "STOUR": 1687,
      "BROADWAY": 1688,
      "3N": 1689,
      "138": 1690,
      "orth": 1691,
      "Ric": 1692,
      "hton": 1693,
      "Richton": 1694,
      "CLARE": 1695,
      "144": 1696,
      "oe": 1697,
      "HEMPSTEAD": 1698,
      "TO": 1699,
      "WAUKE": 1700,
      "TOR": 1701,
      "LINA": 1702,
      "60457": 1703,
      "SW18": 1704,
      "AS": 1705,
      "PAU": 1706,
      "NESS": 1707,
      "KENILWORTH": 1708,
      "THORPE": 1709,
      "CRAM": 1710,
      "PINNER": 1711,
      "FRI": 1712,
      "LAT": 1713,
      "133": 1714,
      "223": 1715,
      "DARTFORD": 1716,
      "BEECH": 1717,
      "IC": 1718,
      "ARTH": 1719,
      "ENDEN": 1720,
      "THORNTON": 1721,
      "6R": 1722,
      "OLK": 1723,
      "HORN": 1724,
      "135": 1725,
      "SL6": 1726,
      "TRU": 1727,
      "MAD": 1728,
      "CALI": 1729,
      "SHIELD": 1730,
      "WC1N": 1731,
      "KOL": 1732,
      "WALTON": 1733,
      "HIN": 1734,
      "HEMEL": 1735,
      "FARM": 1736,
      "ANT": 1737,
      "EZ": 1738,
      "SET": 1739,
      "TEES": 1740,
      "COTE": 1741,
      "CR4": 1742,
      "FORNIA": 1743,
      "CALIFORNIA": 1744,
      "GRAND": 1745,
      "SHIELDS": 1746,
      "CHIGAN": 1747,
      "MICHIGAN": 1748,
      "au": 1749,
      "LESFIELD": 1750,
      "AUSTIN": 1751,
      "FTON": 1752,
      "800": 1753,
      "Sau": 1754,
      "Sauk": 1755,
      "SOUTHALL": 1756,
      "PAULINA": 1757,
      "ILLINGHAM": 1758,
      "MIDDLES": 1759,
      "DUDLEY": 1760,
      "ONS": 1761,
      "MIDDLESBROUGH": 1762,
      "PRINCE": 1763,
      "60070": 1764,
      "700": 1765,
      "LINTON": 1766,
      "60607": 1767,
      "CRAWLEY": 1768,
      "XLEY": 1769,
      "0P": 1770,
      "KEELER": 1771,
      "LOUGH": 1772,
      "SHORE": 1773,
      "SAL": 1774,
      "3AF": 1775,
      "LE2": 1776,
      "LOUGHBOROUGH": 1777,
      "HA0": 1778,
      "TCHIN": 1779,
      "LAWR": 1780,
      "159": 1781,
      "LAWRENCE": 1782,
      "SD": 1783,
      "7AW": 1784,
      "60422": 1785,
      "BERLEY": 1786,
      "PULA": 1787,
      "PULASKI": 1788,
      "SB": 1789,
      "ACK": 1790,
      "DVE": 1791,
      "CLI": 1792,
      "HALSTED": 1793,
      "LIT": 1794,
      "220": 1795,
      "4N": 1796,
      "60173": 1797,
      "AVNUE": 1798,
      "134": 1799,
      "FIN": 1800,
      "HAMLIN": 1801,
      "XTON": 1802,
      "2NX": 1803,
      "NW9": 1804,
      "PUR": 1805,
      "FL": 1806,
      "Flos": 1807,
      "smoor": 1808,
      "Flossmoor": 1809,
      "HIGHWAY": 1810,
      "STNER": 1811,
      "FELTHAM": 1812,
      "KOSTNER": 1813,
      "RIDGEWAY": 1814,
      "GRAV": 1815,
      "SN": 1816,
      "60464": 1817,
      "HELENS": 1818,
      "VING": 1819,
      "LOV": 1820,
      "CER": 1821,
      "MARY": 1822,
      "IRE": 1823,
      "ROCHESTER": 1824,
      "CORN": 1825,
      "TG": 1826,
      "DAM": 1827,
      "AVNU": 1828,
      "GREENFORD": 1829,
      "UB3": 1830,
      "REL": 1831,
      "AVENU": 1832,
      "HZ": 1833,
      "BON": 1834,
      "60458": 1835,
      "LAWNDALE": 1836,
      "60610": 1837,
      "GRANGE": 1838,
      "SG1": 1839,
      "SHAW": 1840,
      "LE4": 1841,
      "BRENTFORD": 1842,
      "1U": 1843,
      "DV": 1844,
      "FAIRFIELD": 1845,
      "BELMONT": 1846,
      "DOWN": 1847,
      "KI": 1848,
      "GERR": 1849,
      "131": 1850,
      "HON": 1851,
      "CIS": 1852,
      "HW": 1853,
      "Lyn": 1854,
      "Lynwood": 1855,
      "DRV": 1856,
      "PARKSIDE": 1857,
      "GOL": 1858,
      "TTER": 1859,
      "60130": 1860,
      "THRO": 1861,
      "DRA": 1862,
      "132": 1863,
      "CAGO": 1864,
      "CHICAGO": 1865,
      "KENNE": 1866,
      "KILDARE": 1867,
      "CLESFIELD": 1868,
      "GERRARDS": 1869,
      "PINGTON": 1870,
      "MACCLESFIELD": 1871,
      "9N": 1872,
      "KETTER": 1873,
      "KETTERING": 1874,
      "ULDING": 1875,
      "OAKLEY": 1876,
      "SPAULDING": 1877,
      "CANN": 1878,
      "SALIS": 1879,
      "ALDER": 1880,
      "WORTHING": 1881,
      "ORPINGTON": 1882,
      "KAR": 1883,
      "WENT": 1884,
      "BAT": 1885,
      "TB": 1886,
      "8N": 1887,
      "FIELDS": 1888,
      "SALISBURY": 1889,
      "TTON": 1890,
      "TED": 1891,
      "QUEEN": 1892,
      "CUP": 1893,
      "INES": 1894,
      "INVER": 1895,
      "MERRI": 1896,
      "CHOR": 1897,
      "HIGHLAND": 1898,
      "WHITE": 1899,
      "HALI": 1900,
      "LINE": 1901,
      "BEXLEY": 1902,
      "PEA": 1903,
      "SW1E": 1904,
      "141": 1905,
      "MARTIN": 1906,
      "BB": 1907,
      "GRA": 1908,
      "ins": 1909,
      "CY": 1910,
      "142": 1911,
      "GRIMS": 1912,
      "91": 1913,
      "CERO": 1914,
      "MADISON": 1915,
      "CICERO": 1916,
      "HA9": 1917,
      "NORMAN": 1918,
      "BRENTWOOD": 1919,
      "CANTER": 1920,
      "WST": 1921,
      "201": 1922,
      "2F": 1923,
      "STATE": 1924,
      "TW8": 1925,
      "TRENT": 1926,
      "LANGLEY": 1927,
      "CREST": 1928,
      "CANTERBURY": 1929,
      "lak": 1930,
      "Northlak": 1931,
      "KARLOV": 1932,
      "Northlake": 1933,
      "HERMITAGE": 1934,
      "157": 1935,
      "CHFIELD": 1936,
      "5RS": 1937,
      "QUAY": 1938,
      "CKLEY": 1939,
      "UND": 1940,
      "GG": 1941,
      "HALIFAX": 1942,
      "FRANCIS": 1943,
      "155": 1944,
      "CRAN": 1945,
      "LAS": 1946,
      "HUNTING": 1947,
      "GRAVES": 1948,
      "coe": 1949,
      "Glencoe": 1950,
      "60482": 1951,
      "900": 1952,
      "HARDING": 1953,
      "ETH": 1954,
      "GRAVESEND": 1955,
      "SUM": 1956,
      "SL9": 1957,
      "KEDVALE": 1958,
      "KENT": 1959,
      "TROY": 1960,
      "HARLEM": 1961,
      "CORPOR": 1962,
      "GRAYS": 1963,
      "CORPORATION": 1964,
      "MALDEN": 1965,
      "EMERALD": 1966,
      "DAMEN": 1967,
      "BUCKINGHAM": 1968,
      "5N": 1969,
      "LOO": 1970,
      "TRIPP": 1971,
      "MAPLEWOOD": 1972,
      "TI": 1973,
      "UD": 1974,
      "CIRCU": 1975,
      "60022": 1976,
      "WIS": 1977,
      "CEDAR": 1978,
      "BITON": 1979,
      "Crestwood": 1980,
      "TOW": 1981,
      "SR": 1982,
      "SURBITON": 1983,
      "WAUKEE": 1984,
      "CH1": 1985,
      "RON": 1986,
      "MILWAUKEE": 1987,
      "225": 1988,
      "HART": 1989,
      "ESIAN": 1990,
      "ARTESIAN": 1991,
      "CHORLEY": 1992,
      "NAT": 1993,
      "ENTER": 1994,
      "HAN": 1995,
      "SF": 1996,
      "YBRIDGE": 1997,
      "AVERS": 1998,
      "WELLINGBOROUGH": 1999,
      "270": 2000,
      "HUNTINGDON": 2001,
      "CLAREMONT": 2002,
      "BECKENHAM": 2003,
      "HITCHIN": 2004,
      "GRIMSBY": 2005,
      "SJ": 2006,
      "WYER": 2007,
      "7N": 2008,
      "WARD": 2009,
      "ISLEWORTH": 2010,
      "60305": 2011,
      "LEE": 2012,
      "153": 2013,
      "CAMBERLEY": 2014,
      "Worth": 2015,
      "ENTO": 2016,
      "CHEST": 2017,
      "ABBO": 2018,
      "KENNETH": 2019,
      "TW3": 2020,
      "LTON": 2021,
      "INDIANA": 2022,
      "60425": 2023,
      "UB6": 2024,
      "LIP": 2025,
      "Ly": 2026,
      "ons": 2027,
      "Lyons": 2028,
      "FARNHAM": 2029,
      "SACRAM": 2030,
      "SACRAMENTO": 2031,
      "WELWYN": 2032,
      "60534": 2033,
      "SW2": 2034,
      "154": 2035,
      "Glenwood": 2036,
      "CHESTNUT": 2037,
      "152": 2038,
      "IER": 2039,
      "LAWN": 2040,
      "FAREHAM": 2041,
      "VON": 2042,
      "ELY": 2043,
      "LICHFIELD": 2044,
      "TJ": 2045,
      "CHATHAM": 2046,
      "DRAKE": 2047,
      "RAC": 2048,
      "CLARK": 2049,
      "ROCKWELL": 2050,
      "nes": 2051,
      "vernes": 2052,
      "Invernes": 2053,
      "Inverness": 2054,
      "JE": 2055,
      "STANMORE": 2056,
      "BEVER": 2057,
      "LE3": 2058,
      "VEY": 2059,
      "ILK": 2060,
      "er": 2061,
      "BL": 2062,
      "WATERLOO": 2063,
      "HA5": 2064,
      "TW7": 2065,
      "CLEVE": 2066,
      "83RD": 2067,
      "NEA": 2068,
      "NORTHFIELD": 2069,
      "ISLAND": 2070,
      "LINDEN": 2071,
      "KILBOURN": 2072,
      "FO": 2073,
      "WIND": 2074,
      "SAWYER": 2075,
      "THORNE": 2076,
      "WILLI": 2077,
      "NW11": 2078,
      "LEYDEN": 2079,
      "60415": 2080,
      "EASTBOURNE": 2081,
      "9X": 2082,
      "OLT": 2083,
      "REY": 2084,
      "CIRCULAR": 2085,
      "SBOROUGH": 2086,
      "158": 2087,
      "WOLCOTT": 2088,
      "LITTLE": 2089,
      "MARSHFIELD": 2090,
      "WENTWORTH": 2091,
      "KIMB": 2092,
      "NEWTON": 2093,
      "6N": 2094,
      "EK": 2095,
      "BR1": 2096,
      "SHEAD": 2097,
      "GY": 2098,
      "IG": 2099,
      "301": 2100,
      "ORK": 2101,
      "SOUTHEND": 2102,
      "60176": 2103,
      "iller": 2104,
      "Schiller": 2105,
      "WASHTEN": 2106,
      "WASHTENAW": 2107,
      "VIS": 2108,
      "BRAIN": 2109,
      "BRAN": 2110,
      "TN": 2111,
      "DNS": 2112,
      "EH6": 2113,
      "HARRI": 2114,
      "HOYNE": 2115,
      "BROMPTON": 2116,
      "ITT": 2117,
      "WALNUT": 2118,
      "GON": 2119,
      "BULL": 2120,
      "MASON": 2121,
      "COLLE": 2122,
      "DEVON": 2123,
      "Ju": 2124,
      "stice": 2125,
      "Justice": 2126,
      "ERY": 2127,
      "63RD": 2128,
      "FRA": 2129,
      "SSENDEN": 2130,
      "601": 2131,
      "SW4": 2132,
      "BRESSENDEN": 2133,
      "79TH": 2134,
      "GOLF": 2135,
      "TTE": 2136,
      "LE5": 2137,
      "NUNEA": 2138,
      "NUNEATON": 2139,
      "GOR": 2140,
      "FIR": 2141,
      "BANBURY": 2142,
      "59TH": 2143,
      "WHIPPLE": 2144,
      "LLERTON": 2145,
      "PR1": 2146,
      "YE": 2147,
      "QUEENS": 2148,
      "SSE": 2149,
      "CHAPEL": 2150,
      "TZ": 2151,
      "RAD": 2152,
      "RUSS": 2153,
      "GILLINGHAM": 2154,
      "SW1V": 2155,
      "COLLEGE": 2156,
      "AMIE": 2157,
      "FRANCISCO": 2158,
      "STOURBRIDGE": 2159,
      "Bro": 2160,
      "60155": 2161,
      "adview": 2162,
      "Broadview": 2163,
      "DN4": 2164,
      "BR3": 2165,
      "60501": 2166,
      "SE13": 2167,
      "SE6": 2168,
      "CAT": 2169,
      "0N": 2170,
      "LOWE": 2171,
      "OUSE": 2172,
      "HA7": 2173,
      "HORSHAM": 2174,
      "MORGAN": 2175,
      "SUMMER": 2176,
      "DRAY": 2177,
      "MBER": 2178,
      "61ST": 2179,
      "TP": 2180,
      "FOX": 2181,
      "CR2": 2182,
      "CLIFTON": 2183,
      "LARD": 2184,
      "224": 2185,
      "GATESHEAD": 2186,
      "CREEK": 2187,
      "UPPER": 2188,
      "DINGTON": 2189,
      "151": 2190,
      "LARAMIE": 2191,
      "SK8": 2192,
      "HOME": 2193,
      "60171": 2194,
      "GRDNS": 2195,
      "BASH": 2196,
      "EASTLEIGH": 2197,
      "BN2": 2198,
      "221": 2199,
      "GDNS": 2200,
      "BRADFORD": 2201,
      "GRDS": 2202,
      "60162": 2203,
      "UA": 2204,
      "GOD": 2205,
      "401": 2206,
      "BILL": 2207,
      "ISLIP": 2208,
      "YORK": 2209,
      "THOMA": 2210,
      "THOMAS": 2211,
      "MING": 2212,
      "FUL": 2213,
      "CV6": 2214,
      "WABASH": 2215,
      "STRATFORD": 2216,
      "HAWK": 2217,
      "ESS": 2218,
      "CHAL": 2219,
      "CHRISTCHURCH": 2220,
      "ROE": 2221,
      "166": 2222,
      "YS": 2223,
      "BASIL": 2224,
      "BARRY": 2225,
      "FFORD": 2226,
      "290": 2227,
      "CUN": 2228,
      "KT3": 2229,
      "87TH": 2230,
      "RACINE": 2231,
      "FU": 2232,
      "SE17": 2233,
      "205": 2234,
      "BOREHAM": 2235,
      "SX": 2236,
      "KID": 2237,
      "CLID": 2238,
      "EUCLID": 2239,
      "HOLY": 2240,
      "ZART": 2241,
      "ELIZ": 2242,
      "MOZART": 2243,
      "CF14": 2244,
      "SE22": 2245,
      "CHERRY": 2246,
      "168": 2247,
      "ABETH": 2248,
      "ELIZABETH": 2249,
      "GU1": 2250,
      "VALLEY": 2251,
      "BOREHAMWOOD": 2252,
      "CF10": 2253,
      "MELTON": 2254,
      "AMON": 2255,
      "RUISLIP": 2256,
      "SLEY": 2257,
      "ADLE": 2258,
      "DA1": 2259,
      "RUSH": 2260,
      "SDALE": 2261,
      "CHAN": 2262,
      "SE9": 2263,
      "SW9": 2264,
      "801": 2265,
      "UNI": 2266,
      "OKE": 2267,
      "4PW": 2268,
      "OG": 2269,
      "NEL": 2270,
      "LYN": 2271,
      "BEACON": 2272,
      "CREWE": 2273,
      "HOLM": 2274,
      "SHRE": 2275,
      "ENDON": 2276,
      "Hillside": 2277,
      "HEY": 2278,
      "BASILDON": 2279,
      "8EL": 2280,
      "Sum": 2281,
      "mit": 2282,
      "Summit": 2283,
      "CHEADLE": 2284,
      "PATRICK": 2285,
      "BURG": 2286,
      "SWAN": 2287,
      "IRVING": 2288,
      "84TH": 2289,
      "PONTY": 2290,
      "HORNCHURCH": 2291,
      "SIT": 2292,
      "178": 2293,
      "PHILL": 2294,
      "SIDCUP": 2295,
      "CHICHESTER": 2296,
      "TUR": 2297,
      "SE5": 2298,
      "SK9": 2299,
      "FINCH": 2300,
      "CANNOCK": 2301,
      "SHREWSBURY": 2302,
      "FRIAR": 2303,
      "6X": 2304,
      "TALMAN": 2305,
      "PRINC": 2306,
      "PRINCETON": 2307,
      "RIDGELAND": 2308,
      "HARLOW": 2309,
      "UNTON": 2310,
      "226": 2311,
      "SANT": 2312,
      "323": 2313,
      "169": 2314,
      "LYONS": 2315,
      "KEY": 2316,
      "SE24": 2317,
      "ICH": 2318,
      "FE": 2319,
      "HOWARD": 2320,
      "FOLK": 2321,
      "CLY": 2322,
      "206": 2323,
      "NORTHWICH": 2324,
      "229": 2325,
      "JU": 2326,
      "209": 2327,
      "RING": 2328,
      "LS1": 2329,
      "PROS": 2330,
      "PROSPE": 2331,
      "208": 2332,
      "73RD": 2333,
      "701": 2334,
      "MOW": 2335,
      "WD6": 2336,
      "KES": 2337,
      "176": 2338,
      "WALLACE": 2339,
      "SL3": 2340,
      "MENARD": 2341,
      "HOLLY": 2342,
      "PROSPECT": 2343,
      "330": 2344,
      "ELMWOOD": 2345,
      "BARN": 2346,
      "JACK": 2347,
      "IANA": 2348,
      "EVER": 2349,
      "KILPATRICK": 2350,
      "207": 2351,
      "CRT": 2352,
      "CARP": 2353,
      "DAN": 2354,
      "DRAYTON": 2355,
      "228": 2356,
      "280": 2357,
      "IDAN": 2358,
      "WARREN": 2359,
      "VERNON": 2360,
      "324": 2361,
      "BRAINTREE": 2362,
      "222": 2363,
      "ELEY": 2364,
      "204": 2365,
      "CM1": 2366,
      "SW12": 2367,
      "Harwood": 2368,
      "ADDISON": 2369,
      "COMMER": 2370,
      "RM9": 2371,
      "HOMAN": 2372,
      "LOOMIS": 2373,
      "SI": 2374,
      "CR7": 2375,
      "LYNN": 2376,
      "TAN": 2377,
      "STAL": 2378,
      "TINGBOURNE": 2379,
      "SITTINGBOURNE": 2380,
      "SE28": 2381,
      "SHERIDAN": 2382,
      "SUNNY": 2383,
      "CARPENTER": 2384,
      "HONORE": 2385,
      "AH": 2386,
      "BR2": 2387,
      "STORT": 2388,
      "RH10": 2389,
      "HA4": 2390,
      "STORTFORD": 2391,
      "NN4": 2392,
      "BRIDGEND": 2393,
      "WA14": 2394,
      "YR": 2395,
      "SE16": 2396,
      "NORTHOLT": 2397,
      "FLIN": 2398,
      "CM2": 2399,
      "BURNHAM": 2400,
      "167": 2401,
      "TOWN": 2402,
      "ORIA": 2403,
      "DUR": 2404,
      "OTT": 2405,
      "WELLS": 2406,
      "NORTHWOOD": 2407,
      "BERK": 2408,
      "PURLEY": 2409,
      "CLAIRE": 2410,
      "Northfield": 2411,
      "FD": 2412,
      "GI": 2413,
      "FERRI": 2414,
      "JAM": 2415,
      "EH3": 2416,
      "2X": 2417,
      "NW4": 2418,
      "523": 2419,
      "HATFIELD": 2420,
      "HARRISON": 2421,
      "SCOTT": 2422,
      "82ND": 2423,
      "SW8": 2424,
      "64TH": 2425,
      "CHRISTIANA": 2426,
      "ANDER": 2427,
      "8X": 2428,
      "NORWOOD": 2429,
      "FARNBOROUGH": 2430,
      "75TH": 2431,
      "ERLEY": 2432,
      "179": 2433,
      "RUSSELL": 2434,
      "HYDE": 2435,
      "2HQ": 2436,
      "TRUM": 2437,
      "3X": 2438,
      "PENDEN": 2439,
      "SANG": 2440,
      "ESTONE": 2441,
      "ALBERT": 2442,
      "AMER": 2443,
      "RM10": 2444,
      "7X": 2445,
      "STIR": 2446,
      "LEAV": 2447,
      "524": 2448,
      "RINGTON": 2449,
      "SL4": 2450,
      "FRO": 2451,
      "RM8": 2452,
      "227": 2453,
      "WIMB": 2454,
      "MALL": 2455,
      "343": 2456,
      "58TH": 2457,
      "LAU": 2458,
      "NORTHGATE": 2459,
      "4X": 2460,
      "ATES": 2461,
      "WREX": 2462,
      "WREXHAM": 2463,
      "TWICH": 2464,
      "PALAT": 2465,
      "PALATINE": 2466,
      "350": 2467,
      "TX": 2468,
      "MONROE": 2469,
      "ALEX": 2470,
      "Will": 2471,
      "Willow": 2472,
      "MARQUE": 2473,
      "NN3": 2474,
      "MARQUETTE": 2475,
      "REDHILL": 2476,
      "SANDY": 2477,
      "LISLE": 2478,
      "STAINES": 2479,
      "AB15": 2480,
      "TRUMBULL": 2481,
      "NAN": 2482,
      "PALOS": 2483,
      "55TH": 2484,
      "EC3": 2485,
      "DOW": 2486,
      "PEORIA": 2487,
      "SAY": 2488,
      "DOVER": 2489,
      "LUTHER": 2490,
      "CORBY": 2491,
      "RICKMAN": 2492,
      "COU": 2493,
      "WILMS": 2494,
      "STIRLING": 2495,
      "WILMSLOW": 2496,
      "HAVEN": 2497,
      "23RD": 2498,
      "60192": 2499,
      "LEAVITT": 2500,
      "PLAIN": 2501,
      "ODGE": 2502,
      "JACKSON": 2503,
      "SZ": 2504,
      "LIME": 2505,
      "WRI": 2506,
      "GNE": 2507,
      "ARCHER": 2508,
      "AL1": 2509,
      "LYM": 2510,
      "165": 2511,
      "CV3": 2512,
      "TAUNTON": 2513,
      "901": 2514,
      "RICKMANSWORTH": 2515,
      "340": 2516,
      "MC": 2517,
      "SEELEY": 2518,
      "BIN": 2519,
      "EC2A": 2520,
      "CHASE": 2521,
      "CLARENCE": 2522,
      "REI": 2523,
      "UNDER": 2524,
      "FERRIBY": 2525,
      "ENG": 2526,
      "SW20": 2527,
      "CR8": 2528,
      "CARLISLE": 2529,
      "PR2": 2530,
      "CB1": 2531,
      "LOCKWOOD": 2532,
      "TEDDINGTON": 2533,
      "SCUN": 2534,
      "SCUNTHORPE": 2535,
      "KENTON": 2536,
      "MEWS": 2537,
      "MD": 2538,
      "CALUM": 2539,
      "CALUMET": 2540,
      "TRY": 2541,
      "KA": 2542,
      "DAL": 2543,
      "EVE": 2544,
      "RUN": 2545,
      "CIAL": 2546,
      "JOR": 2547,
      "COMMERCIAL": 2548,
      "71ST": 2549,
      "LUN": 2550,
      "8U": 2551,
      "177": 2552,
      "OLL": 2553,
      "MAYFIELD": 2554,
      "YL": 2555,
      "TW1": 2556,
      "ODY": 2557,
      "WA15": 2558,
      "KEYSTONE": 2559,
      "GRACE": 2560,
      "QUIN": 2561,
      "WA5": 2562,
      "SER": 2563,
      "NORMAL": 2564,
      "ANDOVER": 2565,
      "390": 2566,
      "WARDS": 2567,
      "164": 2568,
      "SANGAMON": 2569,
      "CRS": 2570,
      "HINCKLEY": 2571,
      "KER": 2572,
      "BELLE": 2573,
      "9DN": 2574,
      "MBARD": 2575,
      "SHOT": 2576,
      "BA1": 2577,
      "ORNE": 2578,
      "TW9": 2579,
      "WOODLAND": 2580,
      "LEAF": 2581,
      "FALKIRK": 2582,
      "THROOP": 2583,
      "ELLIS": 2584,
      "NE1": 2585,
      "Countryside": 2586,
      "ORI": 2587,
      "21ST": 2588,
      "DOCTOR": 2589,
      "JEFF": 2590,
      "WIT": 2591,
      "MEADE": 2592,
      "FERM": 2593,
      "PARNELL": 2594,
      "DUNFERM": 2595,
      "DUNFERMLINE": 2596,
      "CLEVELAND": 2597,
      "INGDON": 2598,
      "FINCHLEY": 2599,
      "CRECENT": 2600,
      "60461": 2601,
      "ERITH": 2602,
      "ICKER": 2603,
      "WHITEH": 2604,
      "FULLERTON": 2605,
      "FRANK": 2606,
      "57TH": 2607,
      "BA2": 2608,
      "LEATHER": 2609,
      "LS17": 2610,
      "353": 2611,
      "DAV": 2612,
      "5X": 2613,
      "TW13": 2614,
      "0X": 2615,
      "WOODLAWN": 2616,
      "525": 2617,
      "LEYS": 2618,
      "KT12": 2619,
      "LOMBARD": 2620,
      "95TH": 2621,
      "pi": 2622,
      "3AA": 2623,
      "WHITT": 2624,
      "9AA": 2625,
      "WRIGHT": 2626,
      "KEA": 2627,
      "DREX": 2628,
      "Field": 2629,
      "JR": 2630,
      "Ol": 2631,
      "mpi": 2632,
      "ympi": 2633,
      "DREXEL": 2634,
      "Fields": 2635,
      "Olympi": 2636,
      "Olympia": 2637,
      "KOLMAR": 2638,
      "PR8": 2639,
      "SE19": 2640,
      "72ND": 2641,
      "5NU": 2642,
      "GU21": 2643,
      "2U": 2644,
      "7JP": 2645,
      "UB4": 2646,
      "ARY": 2647,
      "MELROSE": 2648,
      "WL": 2649,
      "PARADE": 2650,
      "HAWTHORNE": 2651,
      "HARTLE": 2652,
      "NORMANDY": 2653,
      "24TH": 2654,
      "Ros": 2655,
      "ey": 2656,
      "ney": 2657,
      "Stick": 2658,
      "Stickney": 2659,
      "GU14": 2660,
      "INVERNESS": 2661,
      "BRAY": 2662,
      "NEWLAND": 2663,
      "370": 2664,
      "241": 2665,
      "HARTLEPOOL": 2666,
      "9U": 2667,
      "LAFLIN": 2668,
      "231": 2669,
      "LS8": 2670,
      "305": 2671,
      "ADA": 2672,
      "PLAC": 2673,
      "PPING": 2674,
      "SL2": 2675,
      "BRIAR": 2676,
      "CLIFFE": 2677,
      "325": 2678,
      "MAJOR": 2679,
      "ASCOT": 2680,
      "609": 2681,
      "sen": 2682,
      "RH1": 2683,
      "PLC": 2684,
      "WIMBORNE": 2685,
      "FOSTER": 2686,
      "REGENT": 2687,
      "MIDDLE": 2688,
      "WATERLOOVILLE": 2689,
      "COTTAGE": 2690,
      "OAKWOOD": 2691,
      "ELLO": 2692,
      "NORTHWEST": 2693,
      "SUNSET": 2694,
      "74TH": 2695,
      "TW4": 2696,
      "NOTT": 2697,
      "308": 2698,
      "ERICA": 2699,
      "60480": 2700,
      "TW11": 2701,
      "235": 2702,
      "309": 2703,
      "ISLEY": 2704,
      "HARVEY": 2705,
      "KT6": 2706,
      "LEATHERHEAD": 2707,
      "ELSTON": 2708,
      "85TH": 2709,
      "CHARLES": 2710,
      "543": 2711,
      "OLI": 2712,
      "LAM": 2713,
      "WC1B": 2714,
      "BLE": 2715,
      "GD": 2716,
      "LEMONT": 2717,
      "51ST": 2718,
      "Po": 2719,
      "TERS": 2720,
      "Posen": 2721,
      "RAVEN": 2722,
      "WD3": 2723,
      "ALDING": 2724,
      "BEXLEYHEATH": 2725,
      "LAVER": 2726,
      "WILSON": 2727,
      "6U": 2728,
      "NN1": 2729,
      "VERS": 2730,
      "60469": 2731,
      "3BQ": 2732,
      "NELS": 2733,
      "BEVERLEY": 2734,
      "4U": 2735,
      "ETTE": 2736,
      "SE23": 2737,
      "76TH": 2738,
      "SPALDING": 2739,
      "NN8": 2740,
      "CM23": 2741,
      "SHEY": 2742,
      "OLA": 2743,
      "OAKS": 2744,
      "443": 2745,
      "60605": 2746,
      "UB1": 2747,
      "eley": 2748,
      "rkeley": 2749,
      "Berkeley": 2750,
      "60163": 2751,
      "186": 2752,
      "HA6": 2753,
      "VW": 2754,
      "SE3": 2755,
      "380": 2756,
      "2EL": 2757,
      "LE12": 2758,
      "CF5": 2759,
      "MOODY": 2760,
      "ENGLAND": 2761,
      "bb": 2762,
      "Robb": 2763,
      "Robbins": 2764,
      "ERSON": 2765,
      "236": 2766,
      "BRIERLEY": 2767,
      "60472": 2768,
      "COMMON": 2769,
      "JAMES": 2770,
      "own": 2771,
      "ORLAND": 2772,
      "60456": 2773,
      "DEWSBURY": 2774,
      "BR6": 2775,
      "etown": 2776,
      "Hometown": 2777,
      "HARPENDEN": 2778,
      "OX2": 2779,
      "GHTS": 2780,
      "SILVER": 2781,
      "47TH": 2782,
      "LE10": 2783,
      "ILKLEY": 2784,
      "COW": 2785,
      "203": 2786,
      "KIDDER": 2787,
      "PR4": 2788,
      "WILLIAM": 2789,
      "307": 2790,
      "HARVARD": 2791,
      "BSON": 2792,
      "1BD": 2793,
      "18TH": 2794,
      "PAISLEY": 2795,
      "BILLERICA": 2796,
      "BILLERICAY": 2797,
      "GF": 2798,
      "MONTIC": 2799,
      "MONTICELLO": 2800,
      "81ST": 2801,
      "AMERSHAM": 2802,
      "KT2": 2803,
      "LAVERGNE": 2804,
      "KEATING": 2805,
      "MALVERN": 2806,
      "WA4": 2807,
      "JUST": 2808,
      "LESIDE": 2809,
      "KIDDERMINSTER": 2810,
      "CTON": 2811,
      "ARTHUR": 2812,
      "WILTON": 2813,
      "237": 2814,
      "304": 2815,
      "SK4": 2816,
      "HAYWARDS": 2817,
      "WESLEY": 2818,
      "NELSON": 2819,
      "BUSHEY": 2820,
      "COE": 2821,
      "TW2": 2822,
      "216": 2823,
      "IP": 2824,
      "RM6": 2825,
      "405": 2826,
      "UB5": 2827,
      "60TH": 2828,
      "WC2E": 2829,
      "WEN": 2830,
      "RAIN": 2831,
      "HICK": 2832,
      "BEACONSFIELD": 2833,
      "4LN": 2834,
      "DENE": 2835,
      "ASHTON": 2836,
      "NAR": 2837,
      "OF": 2838,
      "77TH": 2839,
      "BLOOM": 2840,
      "306": 2841,
      "LET": 2842,
      "HERTFORD": 2843,
      "HAZ": 2844,
      "KNOX": 2845,
      "3U": 2846,
      "LESTONE": 2847,
      "202": 2848,
      "PLEA": 2849,
      "3DQ": 2850,
      "DEAN": 2851,
      "MONTROSE": 2852,
      "OSE": 2853,
      "SO15": 2854,
      "232": 2855,
      "217": 2856,
      "SE25": 2857,
      "3BZ": 2858,
      "REIGATE": 2859,
      "PIT": 2860,
      "SEL": 2861,
      "DORCHESTER": 2862,
      "60475": 2863,
      "EH4": 2864,
      "LECLAIRE": 2865,
      "9HA": 2866,
      "BEY": 2867,
      "CV2": 2868,
      "MELVIN": 2869,
      "50TH": 2870,
      "SS9": 2871,
      "LYTHAM": 2872,
      "CLINTON": 2873,
      "OZ": 2874,
      "CENTER": 2875,
      "COUNT": 2876,
      "163": 2877,
      "PE1": 2878,
      "Ste": 2879,
      "ger": 2880,
      "Steger": 2881,
      "TORQUAY": 2882,
      "EM": 2883,
      "PERRY": 2884,
      "DIVER": 2885,
      "CAER": 2886,
      "ASHFORD": 2887,
      "1NQ": 2888,
      "DIVERSEY": 2889,
      "ABINGDON": 2890,
      "1BZ": 2891,
      "DEL": 2892,
      "DAVEN": 2893,
      "MCV": 2894,
      "78TH": 2895,
      "MCVICKER": 2896,
      "MELVINA": 2897,
      "STEWAR": 2898,
      "RM16": 2899,
      "MAK": 2900,
      "245": 2901,
      "SK7": 2902,
      "YD": 2903,
      "233": 2904,
      "DY5": 2905,
      "PLEASANT": 2906,
      "WEYBRIDGE": 2907,
      "15TH": 2908,
      "WHITTLE": 2909,
      "7HA": 2910,
      "LS29": 2911,
      "HERE": 2912,
      "505": 2913,
      "2FP": 2914,
      "WITNEY": 2915,
      "SUNNYSIDE": 2916,
      "ITH": 2917,
      "STOW": 2918,
      "HEYWOOD": 2919,
      "408": 2920,
      "APP": 2921,
      "SOMER": 2922,
      "HG1": 2923,
      "WA3": 2924,
      "EH12": 2925,
      "IGN": 2926,
      "RAND": 2927,
      "ALMING": 2928,
      "KOLIN": 2929,
      "GODALMING": 2930,
      "453": 2931,
      "409": 2932,
      "FERN": 2933,
      "ELK": 2934,
      "234": 2935,
      "DRO": 2936,
      "AL5": 2937,
      "DICK": 2938,
      "GLAD": 2939,
      "SHIP": 2940,
      "7U": 2941,
      "NW7": 2942,
      "SK11": 2943,
      "344": 2944,
      "BURNT": 2945,
      "LEX": 2946,
      "GRN": 2947,
      "ORIOLE": 2948,
      "SOUTHSEA": 2949,
      "TW12": 2950,
      "GU15": 2951,
      "CV32": 2952,
      "LESEY": 2953,
      "NAGLE": 2954,
      "AWA": 2955,
      "FB": 2956,
      "RUTHER": 2957,
      "VISION": 2958,
      "UB8": 2959,
      "DIVISION": 2960,
      "ENI": 2961,
      "CERMAK": 2962,
      "TINE": 2963,
      "MARLOW": 2964,
      "CV5": 2965,
      "CF24": 2966,
      "CUL": 2967,
      "ITOR": 2968,
      "SHA": 2969,
      "SE4": 2970,
      "NW5": 2971,
      "GREENLEAF": 2972,
      "FFIELD": 2973,
      "YLER": 2974,
      "CUYLER": 2975,
      "STEWART": 2976,
      "LETON": 2977,
      "MONITOR": 2978,
      "TAIN": 2979,
      "HP13": 2980,
      "RIVERSIDE": 2981,
      "JUSTINE": 2982,
      "SW3": 2983,
      "BLUE": 2984,
      "EC2": 2985,
      "243": 2986,
      "ADLIN": 2987,
      "PR7": 2988,
      "UB2": 2989,
      "490": 2990,
      "SO31": 2991,
      "BRU": 2992,
      "TSFORD": 2993,
      "UB7": 2994,
      "SWADLIN": 2995,
      "NW8": 2996,
      "SWADLINCOTE": 2997,
      "HU17": 2998,
      "8AH": 2999,
      "FRANKLIN": 3000,
      "ROBIN": 3001,
      "404": 3002,
      "BOG": 3003,
      "GOS": 3004,
      "STROU": 3005,
      "WALL": 3006,
      "TOWER": 3007,
      "SE14": 3008,
      "633": 3009,
      "PRIORY": 3010,
      "RHOD": 3011,
      "CRAIG": 3012,
      "BOW": 3013,
      "BH23": 3014,
      "BERN": 3015,
      "ROSS": 3016,
      "175": 3017,
      "OX4": 3018,
      "SK10": 3019,
      "DA8": 3020,
      "ENSKY": 3021,
      "KOM": 3022,
      "SWICK": 3023,
      "509": 3024,
      "ANNES": 3025,
      "KOMENSKY": 3026,
      "EVERGREEN": 3027,
      "LODGE": 3028,
      "ADAMS": 3029,
      "CV8": 3030,
      "CAMORE": 3031,
      "WID": 3032,
      "SYCAMORE": 3033,
      "EAR": 3034,
      "BRYN": 3035,
      "LAMON": 3036,
      "LSDON": 3037,
      "MORAL": 3038,
      "BALMORAL": 3039,
      "HEREFORD": 3040,
      "NE3": 3041,
      "ANDRA": 3042,
      "4Y": 3043,
      "EH54": 3044,
      "WHITLEY": 3045,
      "7PN": 3046,
      "8TH": 3047,
      "PR9": 3048,
      "8JY": 3049,
      "VILLA": 3050,
      "DA12": 3051,
      "NOTTINGHAM": 3052,
      "ANN": 3053,
      "HILLSIDE": 3054,
      "TAY": 3055,
      "TOU": 3056,
      "4AP": 3057,
      "MERRILL": 3058,
      "WOODLANDS": 3059,
      "CHELL": 3060,
      "FOLKESTONE": 3061,
      "PALACE": 3062,
      "SAYRE": 3063,
      "SE10": 3064,
      "ABBEY": 3065,
      "ROYSTON": 3066,
      "SALLE": 3067,
      "CB4": 3068,
      "PRINCES": 3069,
      "19TH": 3070,
      "508": 3071,
      "BEAU": 3072,
      "IAL": 3073,
      "SK6": 3074,
      "PERTH": 3075,
      "ALEXANDRA": 3076,
      "LEXINGTON": 3077,
      "BOGNOR": 3078,
      "STROUD": 3079,
      "BROOM": 3080,
      "OL10": 3081,
      "ROL": 3082,
      "MAGN": 3083,
      "KT13": 3084,
      "WOLF": 3085,
      "YALE": 3086,
      "ROOD": 3087,
      "PHILLY": 3088,
      "CAERPHILLY": 3089,
      "89TH": 3090,
      "GLO": 3091,
      "LOREL": 3092,
      "LE11": 3093,
      "SW1Y": 3094,
      "POINT": 3095,
      "SPEN": 3096,
      "EC1N": 3097,
      "REGIS": 3098,
      "GREENVIEW": 3099,
      "CLYDE": 3100,
      "345": 3101,
      "60527": 3102,
      "COULSDON": 3103,
      "ENE": 3104,
      "406": 3105,
      "KS": 3106,
      "OTS": 3107,
      "HP2": 3108,
      "CUR": 3109,
      "BOSTON": 3110,
      "CV37": 3111,
      "PONTE": 3112,
      "GLA": 3113,
      "WA10": 3114,
      "242": 3115,
      "SIDINGS": 3116,
      "LS28": 3117,
      "NORDI": 3118,
      "ARMITAGE": 3119,
      "BORN": 3120,
      "NETT": 3121,
      "SE26": 3122,
      "CROM": 3123,
      "MIR": 3124,
      "LE1": 3125,
      "185": 3126,
      "CLAY": 3127,
      "EC3M": 3128,
      "5U": 3129,
      "HOPE": 3130,
      "WD23": 3131,
      "60203": 3132,
      "LORD": 3133,
      "407": 3134,
      "HARBOROUGH": 3135,
      "5AA": 3136,
      "DAVENTRY": 3137,
      "244": 3138,
      "NORDICA": 3139,
      "ISS": 3140,
      "GL52": 3141,
      "YATES": 3142,
      "ENSINGTON": 3143,
      "RUTHERFORD": 3144,
      "100TH": 3145,
      "PALMER": 3146,
      "GOSPORT": 3147,
      "KT19": 3148,
      "NASH": 3149,
      "KNU": 3150,
      "DBURY": 3151,
      "805": 3152,
      "RH12": 3153,
      "SE8": 3154,
      "PAXTON": 3155,
      "KNUTSFORD": 3156,
      "KENSINGTON": 3157,
      "FRACT": 3158,
      "RHODES": 3159,
      "PONTEFRACT": 3160,
      "808": 3161,
      "SSA": 3162,
      "239": 3163,
      "HOLYROOD": 3164,
      "MNR": 3165,
      "ME5": 3166,
      "KIMBALL": 3167,
      "CHALK": 3168,
      "AL3": 3169,
      "25TH": 3170,
      "BYRON": 3171,
      "ETO": 3172,
      "KNI": 3173,
      "211": 3174,
      "COB": 3175,
      "MK40": 3176,
      "DOU": 3177,
      "26TH": 3178,
      "Burr": 3179,
      "VINE": 3180,
      "EDWARD": 3181,
      "MOLESEY": 3182,
      "425": 3183,
      "16TH": 3184,
      "OIS": 3185,
      "ELIA": 3186,
      "TW5": 3187,
      "CHEZ": 3188,
      "NATCHEZ": 3189,
      "UNIVERS": 3190,
      "UNIVERSITY": 3191,
      "GU9": 3192,
      "BROOKE": 3193,
      "OLIA": 3194,
      "88TH": 3195,
      "LN6": 3196,
      "MAGNOLIA": 3197,
      "238": 3198,
      "LANCASTER": 3199,
      "212": 3200,
      "DORKING": 3201,
      "DES": 3202,
      "KT1": 3203,
      "GRIN": 3204,
      "0U": 3205,
      "161": 3206,
      "ELLES": 3207,
      "AL7": 3208,
      "535": 3209,
      "WILD": 3210,
      "BN11": 3211,
      "HIGHFIELD": 3212,
      "SG5": 3213,
      "705": 3214,
      "HD1": 3215,
      "POPLA": 3216,
      "ABBOT": 3217,
      "CHESHAM": 3218,
      "BEACH": 3219,
      "90TH": 3220,
      "DE14": 3221,
      "210": 3222,
      "MOWBRAY": 3223,
      "643": 3224,
      "LAWLER": 3225,
      "ONT": 3226,
      "CO4": 3227,
      "SG12": 3228,
      "STANLEY": 3229,
      "BH21": 3230,
      "445": 3231,
      "ALDERSHOT": 3232,
      "506": 3233,
      "KT4": 3234,
      "DOBSON": 3235,
      "111TH": 3236,
      "ESHER": 3237,
      "SIN": 3238,
      "DY8": 3239,
      "WD24": 3240,
      "DUND": 3241,
      "22ND": 3242,
      "CR3": 3243,
      "NEVA": 3244,
      "OKETO": 3245,
      "WF2": 3246,
      "NATOMA": 3247,
      "ARGY": 3248,
      "103RD": 3249,
      "LYNE": 3250,
      "MITH": 3251,
      "HAZEL": 3252,
      "BR5": 3253,
      "733": 3254,
      "ARM": 3255,
      "MANCHESTER": 3256,
      "AMFORD": 3257,
      "BERKHAM": 3258,
      "GL7": 3259,
      "531": 3260,
      "CV34": 3261,
      "WICKHAM": 3262,
      "DE23": 3263,
      "DA16": 3264,
      "GRINSTEAD": 3265,
      "BRIGAN": 3266,
      "WS1": 3267,
      "CB24": 3268,
      "CV1": 3269,
      "SEX": 3270,
      "BURGE": 3271,
      "708": 3272,
      "MITCHELL": 3273,
      "LANS": 3274,
      "MAT": 3275,
      "14TH": 3276,
      "107TH": 3277,
      "725": 3278,
      "BRAM": 3279,
      "SETT": 3280,
      "507": 3281,
      "ENCESTER": 3282,
      "CIRENCESTER": 3283,
      "TROW": 3284,
      "173": 3285,
      "PE2": 3286,
      "COCK": 3287,
      "504": 3288,
      "SS0": 3289,
      "CUMBER": 3290,
      "BRIGANTINE": 3291,
      "TOUHY": 3292,
      "303": 3293,
      "BORNE": 3294,
      "BERKHAMSTED": 3295,
      "JAR": 3296,
      "EVAN": 3297,
      "VELT": 3298,
      "RH2": 3299,
      "BICESTER": 3300,
      "809": 3301,
      "31ST": 3302,
      "SO16": 3303,
      "SE11": 3304,
      "KT17": 3305,
      "GLAS": 3306,
      "3SS": 3307,
      "OUN": 3308,
      "AB10": 3309,
      "SE12": 3310,
      "ROOSE": 3311,
      "SWELL": 3312,
      "54TH": 3313,
      "1000": 3314,
      "ELLESMERE": 3315,
      "ROOSEVELT": 3316,
      "GOLD": 3317,
      "LOWELL": 3318,
      "HUNT": 3319,
      "CORT": 3320,
      "WALDEN": 3321,
      "CV11": 3322,
      "707": 3323,
      "WIDNES": 3324,
      "AIR": 3325,
      "80TH": 3326,
      "BURGESS": 3327,
      "EH10": 3328,
      "STH": 3329,
      "STU": 3330,
      "ME15": 3331,
      "HEATHER": 3332,
      "TAYLOR": 3333,
      "SKE": 3334,
      "ENHALL": 3335,
      "SW10": 3336,
      "CV22": 3337,
      "GLETON": 3338,
      "91ST": 3339,
      "441": 3340,
      "WHE": 3341,
      "CHAMPLAIN": 3342,
      "MED": 3343,
      "BATLEY": 3344,
      "215": 3345,
      "1Y": 3346,
      "ME2": 3347,
      "HATTON": 3348,
      "WESTCLIFF": 3349,
      "OAKTON": 3350,
      "ESIDE": 3351,
      "HD8": 3352,
      "HICKORY": 3353,
      "ELMER": 3354,
      "CTORY": 3355,
      "MERRIMAC": 3356,
      "STAMFORD": 3357,
      "VICAR": 3358,
      "DICKENS": 3359,
      "BIG": 3360,
      "FY8": 3361,
      "POLE": 3362,
      "ONA": 3363,
      "249": 3364,
      "GORDON": 3365,
      "POPLAR": 3366,
      "LE9": 3367,
      "CUMBERLAND": 3368,
      "HG2": 3369,
      "WINDMILL": 3370,
      "FN": 3371,
      "RAINHAM": 3372,
      "PRIDD": 3373,
      "PONTYPRIDD": 3374,
      "RINGWOOD": 3375,
      "MOTHER": 3376,
      "YEO": 3377,
      "LE7": 3378,
      "ERHAM": 3379,
      "MOTHERWELL": 3380,
      "AMELIA": 3381,
      "SHILL": 3382,
      "807": 3383,
      "709": 3384,
      "ROSCOE": 3385,
      "EMERSON": 3386,
      "NP20": 3387,
      "BIRCHWOOD": 3388,
      "GAIN": 3389,
      "HANOVER": 3390,
      "TRINITY": 3391,
      "LINDER": 3392,
      "ROYAL": 3393,
      "536": 3394,
      "GLENWOOD": 3395,
      "WC1": 3396,
      "247": 3397,
      "7AX": 3398,
      "8DA": 3399,
      "EH1": 3400,
      "IMBER": 3401,
      "CM7": 3402,
      "HAV": 3403,
      "WESTGATE": 3404,
      "VES": 3405,
      "189": 3406,
      "FY1": 3407,
      "AL10": 3408,
      "115TH": 3409,
      "DA7": 3410,
      "49TH": 3411,
      "SG4": 3412,
      "KENMORE": 3413,
      "GROS": 3414,
      "PI": 3415,
      "ROBE": 3416,
      "LATROBE": 3417,
      "FEN": 3418,
      "SW5": 3419,
      "MILLARD": 3420,
      "CONGLETON": 3421,
      "BENFLEET": 3422,
      "CHWORTH": 3423,
      "OL11": 3424,
      "LARK": 3425,
      "BOL": 3426,
      "ADY": 3427,
      "302": 3428,
      "532": 3429,
      "706": 3430,
      "CR5": 3431,
      "FAIRVIEW": 3432,
      "GL51": 3433,
      "HAD": 3434,
      "STOL": 3435,
      "GRV": 3436,
      "SW1W": 3437,
      "ML3": 3438,
      "LEWES": 3439,
      "GRAVE": 3440,
      "NANTWICH": 3441,
      "NN11": 3442,
      "AUGU": 3443,
      "EC2N": 3444,
      "SG8": 3445,
      "53RD": 3446,
      "FOLD": 3447,
      "804": 3448,
      "DISH": 3449,
      "218": 3450,
      "BIL": 3451,
      "STICK": 3452,
      "NEOTS": 3453,
      "248": 3454,
      "FRM": 3455,
      "NEWMARKET": 3456,
      "SO53": 3457,
      "GRANT": 3458,
      "833": 3459,
      "341": 3460,
      "GU22": 3461,
      "RAYLEIGH": 3462,
      "LE67": 3463,
      "WOODSIDE": 3464,
      "533": 3465,
      "HP9": 3466,
      "625": 3467,
      "ARLINGTON": 3468,
      "HP4": 3469,
      "EVESHAM": 3470,
      "KNOLL": 3471,
      "CV21": 3472,
      "GRVE": 3473,
      "CM3": 3474,
      "GL2": 3475,
      "NE4": 3476,
      "MALDON": 3477,
      "FRETON": 3478,
      "FLET": 3479,
      "CHESS": 3480,
      "CF64": 3481,
      "NORTON": 3482,
      "IGAN": 3483,
      "ZE": 3484,
      "704": 3485,
      "STICKNEY": 3486,
      "WAT": 3487,
      "LYMINGTON": 3488,
      "LE16": 3489,
      "FH": 3490,
      "CATERHAM": 3491,
      "5BD": 3492,
      "ODELL": 3493,
      "BLACKSTONE": 3494,
      "NARRA": 3495,
      "INGLESIDE": 3496,
      "WA8": 3497,
      "MOBI": 3498,
      "KT10": 3499,
      "MOBILE": 3500,
      "SW14": 3501,
      "SL5": 3502,
      "SCO": 3503,
      "CF83": 3504,
      "GANSETT": 3505,
      "NARRAGANSETT": 3506,
      "RIS": 3507,
      "246": 3508,
      "HEIM": 3509,
      "REDCAR": 3510,
      "6TH": 3511,
      "POU": 3512,
      "184": 3513,
      "SO50": 3514,
      "RUSHDEN": 3515,
      "RAN": 3516,
      "WALLA": 3517,
      "CORNELL": 3518,
      "65TH": 3519,
      "TTERWORTH": 3520,
      "60611": 3521,
      "4AZ": 3522,
      "219": 3523,
      "CB23": 3524,
      "213": 3525,
      "LS16": 3526,
      "TUS": 3527,
      "MULL": 3528,
      "TEM": 3529,
      "NASHVILLE": 3530,
      "DUNDEE": 3531,
      "DEER": 3532,
      "537": 3533,
      "806": 3534,
      "PENARTH": 3535,
      "PLUM": 3536,
      "BRISTOL": 3537,
      "GL50": 3538,
      "NINGTON": 3539,
      "CORD": 3540,
      "SMITH": 3541,
      "ALFRETON": 3542,
      "LEYLAND": 3543,
      "PE19": 3544,
      "LUTTERWORTH": 3545,
      "FUR": 3546,
      "ROTH": 3547,
      "KINGSWAY": 3548,
      "dian": 3549,
      "602": 3550,
      "Head": 3551,
      "6AA": 3552,
      "Indian": 3553,
      "FG": 3554,
      "MOSS": 3555,
      "DA15": 3556,
      "VENOR": 3557,
      "OCT": 3558,
      "RH16": 3559,
      "THERBY": 3560,
      "WD18": 3561,
      "nham": 3562,
      "HALE": 3563,
      "EH7": 3564,
      "Burnham": 3565,
      "VICARAGE": 3566,
      "214": 3567,
      "FIRTH": 3568,
      "TW14": 3569,
      "BRAE": 3570,
      "SP10": 3571,
      "SE27": 3572,
      "COP": 3573,
      "86TH": 3574,
      "6DH": 3575,
      "THROP": 3576,
      "9AU": 3577,
      "TW10": 3578,
      "LAUREL": 3579,
      "HURON": 3580,
      "SE2": 3581,
      "WV6": 3582,
      "GLEBE": 3583,
      "HAVER": 3584,
      "STONEH": 3585,
      "NN5": 3586,
      "933": 3587,
      "FLOR": 3588,
      "RAMS": 3589,
      "WALLASEY": 3590,
      "PR5": 3591,
      "743": 3592,
      "BH14": 3593,
      "7BD": 3594,
      "56TH": 3595,
      "CROMWELL": 3596,
      "COBHAM": 3597,
      "GS": 3598,
      "DE21": 3599,
      "DA11": 3600,
      "LS7": 3601,
      "BROWN": 3602,
      "AVIA": 3603,
      "BACH": 3604,
      "ME7": 3605,
      "RM11": 3606,
      "ESSEX": 3607,
      "BUTTER": 3608,
      "EVANS": 3609,
      "LLA": 3610,
      "66TH": 3611,
      "DOUGLAS": 3612,
      "70TH": 3613,
      "COUNTRY": 3614,
      "BERNARD": 3615,
      "AL4": 3616,
      "GHAM": 3617,
      "GAT": 3618,
      "101ST": 3619,
      "MANN": 3620,
      "CHURCHILL": 3621,
      "174": 3622,
      "SS7": 3623,
      "BRIGHOUSE": 3624,
      "WA2": 3625,
      "DE56": 3626,
      "60654": 3627,
      "WS11": 3628,
      "CORNEL": 3629,
      "TAD": 3630,
      "AVA": 3631,
      "EASTWOOD": 3632,
      "WA16": 3633,
      "URST": 3634,
      "EBER": 3635,
      "ME14": 3636,
      "ML1": 3637,
      "OX16": 3638,
      "MBURG": 3639,
      "603": 3640,
      "ALTON": 3641,
      "RM3": 3642,
      "VINC": 3643,
      "RECTORY": 3644,
      "CW9": 3645,
      "2Y": 3646,
      "AUMBURG": 3647,
      "SCHAUMBURG": 3648,
      "MUL": 3649,
      "CORNELIA": 3650,
      "GAINSBOROUGH": 3651,
      "EBERHART": 3652,
      "FORT": 3653,
      "HU15": 3654,
      "THERINE": 3655,
      "WF17": 3656,
      "OCTAVIA": 3657,
      "9Y": 3658,
      "WN6": 3659,
      "RAVENS": 3660,
      "DNEY": 3661,
      "99TH": 3662,
      "DE22": 3663,
      "ANDRE": 3664,
      "BELPER": 3665,
      "MARL": 3666,
      "CW12": 3667,
      "WAVER": 3668,
      "SUTTON": 3669,
      "KT8": 3670,
      "CLARENDON": 3671,
      "GROSVENOR": 3672,
      "ABLE": 3673,
      "RH15": 3674,
      "GRANVILLE": 3675,
      "TROWBRIDGE": 3676,
      "DA5": 3677,
      "MORA": 3678,
      "ELGIN": 3679,
      "909": 3680,
      "BENNETT": 3681,
      "1HD": 3682,
      "HERNE": 3683,
      "PE28": 3684,
      "ARGYLE": 3685,
      "MK5": 3686,
      "GU51": 3687,
      "ALGON": 3688,
      "COAL": 3689,
      "HD9": 3690,
      "LESBY": 3691,
      "WV10": 3692,
      "EGGLE": 3693,
      "BATTER": 3694,
      "NN10": 3695,
      "UB10": 3696,
      "WETHERBY": 3697,
      "WS2": 3698,
      "WD17": 3699,
      "69TH": 3700,
      "SUDBURY": 3701,
      "EGGLESTON": 3702,
      "TIL": 3703,
      "HILLS": 3704,
      "GHTON": 3705,
      "SWIN": 3706,
      "342": 3707,
      "DIT": 3708,
      "183": 3709,
      "BROCK": 3710,
      "RM7": 3711,
      "CARLTON": 3712,
      "ESBURY": 3713,
      "MK4": 3714,
      "60172": 3715,
      "GIL": 3716,
      "TS17": 3717,
      "ENAH": 3718,
      "NEENAH": 3719,
      "162": 3720,
      "OLCOTT": 3721,
      "187": 3722,
      "BARTON": 3723,
      "CAD": 3724,
      "REN": 3725,
      "WN2": 3726,
      "YEOVIL": 3727,
      "SAFF": 3728,
      "1LA": 3729,
      "188": 3730,
      "EH14": 3731,
      "905": 3732,
      "OX14": 3733,
      "SEN": 3734,
      "CHESSINGTON": 3735,
      "ASHBY": 3736,
      "WING": 3737,
      "HD6": 3738,
      "444": 3739,
      "PO4": 3740,
      "RUM": 3741,
      "KENWOOD": 3742,
      "HENDER": 3743,
      "KEL": 3744,
      "DURHAM": 3745,
      "BRUN": 3746,
      "EC4A": 3747,
      "KIMBARK": 3748,
      "YARD": 3749,
      "CF23": 3750,
      "RUNCORN": 3751,
      "ALGONQUIN": 3752,
      "HENDERSON": 3753,
      "843": 3754,
      "LOTUS": 3755,
      "SO23": 3756,
      "HP5": 3757,
      "WN8": 3758,
      "GGIN": 3759,
      "PAUL": 3760,
      "DE24": 3761,
      "HEI": 3762,
      "FLETCHER": 3763,
      "HOLMFIRTH": 3764,
      "1DD": 3765,
      "PEAR": 3766,
      "908": 3767,
      "545": 3768,
      "MACK": 3769,
      "WHAR": 3770,
      "OGLESBY": 3771,
      "CAMP": 3772,
      "CHERT": 3773,
      "ENNES": 3774,
      "PR6": 3775,
      "8PX": 3776,
      "NN6": 3777,
      "FRASER": 3778,
      "HP12": 3779,
      "CHANGE": 3780,
      "WD19": 3781,
      "IO": 3782,
      "MUN": 3783,
      "STABLE": 3784,
      "LE8": 3785,
      "SPRU": 3786,
      "403": 3787,
      "RH6": 3788,
      "MARCH": 3789,
      "VIR": 3790,
      "EXCHANGE": 3791,
      "SQR": 3792,
      "ROBER": 3793,
      "MARYLAND": 3794,
      "BH15": 3795,
      "2DB": 3796,
      "INA": 3797,
      "LOCH": 3798,
      "BALD": 3799,
      "OCON": 3800,
      "WD25": 3801,
      "CRY": 3802,
      "WR11": 3803,
      "62ND": 3804,
      "WRIGHTWOOD": 3805,
      "93RD": 3806,
      "OCONTO": 3807,
      "DERE": 3808,
      "CB6": 3809,
      "402": 3810,
      "GU7": 3811,
      "1QQ": 3812,
      "BRIDGWATER": 3813,
      "HEIGHTS": 3814,
      "SPRUCE": 3815,
      "WN7": 3816,
      "17TH": 3817,
      "EH48": 3818,
      "ME10": 3819,
      "BECH": 3820,
      "DN6": 3821,
      "9LT": 3822,
      "PE7": 3823,
      "PRIM": 3824,
      "BA15": 3825,
      "BELS": 3826,
      "LETCHWORTH": 3827,
      "BATTERSEA": 3828,
      "GUN": 3829,
      "906": 3830,
      "RM12": 3831,
      "CW5": 3832,
      "825": 3833,
      "CAVEN": 3834,
      "LS25": 3835,
      "SUP": 3836,
      "TOP": 3837,
      "DEMP": 3838,
      "ERIOR": 3839,
      "SUPERIOR": 3840,
      "RM13": 3841,
      "LAKEWOOD": 3842,
      "MULLIGAN": 3843,
      "CAVENDISH": 3844,
      "PORTE": 3845,
      "WISBECH": 3846,
      "SAFFRON": 3847,
      "2JG": 3848,
      "1100": 3849,
      "9TH": 3850,
      "BAD": 3851,
      "MASSA": 3852,
      "STEE": 3853,
      "OTTAWA": 3854,
      "AUGUSTA": 3855,
      "DEMPSTER": 3856,
      "97TH": 3857,
      "TIMBER": 3858,
      "THUR": 3859,
      "CHAT": 3860,
      "SE7": 3861,
      "GU2": 3862,
      "NN14": 3863,
      "CHERTSEY": 3864,
      "645": 3865,
      "92ND": 3866,
      "WED": 3867,
      "HARE": 3868,
      "RH19": 3869,
      "WR1": 3870,
      "WF4": 3871,
      "HP3": 3872,
      "HP6": 3873,
      "APPLE": 3874,
      "THI": 3875,
      "ERIE": 3876,
      "442": 3877,
      "SO14": 3878,
      "WA1": 3879,
      "AIN": 3880,
      "CONCORD": 3881,
      "WILLENHALL": 3882,
      "CH2": 3883,
      "OL16": 3884,
      "539": 3885,
      "SL7": 3886,
      "SANDBACH": 3887,
      "4BT": 3888,
      "4BE": 3889,
      "SOIT": 3890,
      "MASSASOIT": 3891,
      "BION": 3892,
      "PE11": 3893,
      "ILLIN": 3894,
      "CATHERINE": 3895,
      "TA1": 3896,
      "DE7": 3897,
      "907": 3898,
      "WS13": 3899,
      "FORTH": 3900,
      "TF1": 3901,
      "BIRKEN": 3902,
      "MALLING": 3903,
      "SW13": 3904,
      "BELVE": 3905,
      "CRYSTAL": 3906,
      "555": 3907,
      "109TH": 3908,
      "VINCENNES": 3909,
      "BELVEDERE": 3910,
      "GL1": 3911,
      "MARMORA": 3912,
      "BIRD": 3913,
      "DSEY": 3914,
      "HU3": 3915,
      "BIRKENHEAD": 3916,
      "IZE": 3917,
      "ILKESTON": 3918,
      "SS1": 3919,
      "SKELMER": 3920,
      "CM12": 3921,
      "SKELMERSDALE": 3922,
      "538": 3923,
      "ROMSEY": 3924,
      "CEOLA": 3925,
      "OAKHAM": 3926,
      "OSCEOLA": 3927,
      "AVI": 3928,
      "WESTWOOD": 3929,
      "ALBION": 3930,
      "WV14": 3931,
      "BELSIZE": 3932,
      "hor": 3933,
      "WF1": 3934,
      "TRURO": 3935,
      "OLEANDER": 3936,
      "TW15": 3937,
      "TW18": 3938,
      "MY": 3939,
      "Thor": 3940,
      "nton": 3941,
      "ROUND": 3942,
      "MK42": 3943,
      "Thornton": 3944,
      "WA7": 3945,
      "MARION": 3946,
      "MARLBOROUGH": 3947,
      "MK6": 3948,
      "ILLINOIS": 3949,
      "GL53": 3950,
      "BN21": 3951,
      "LISS": 3952,
      "RAMSGATE": 3953,
      "SLIE": 3954,
      "SLE": 3955,
      "ITE": 3956,
      "BERWYN": 3957,
      "MK41": 3958,
      "ME9": 3959,
      "60476": 3960,
      "ASHLEY": 3961,
      "WILLIAMS": 3962,
      "SAN": 3963,
      "BUREN": 3964,
      "MICHA": 3965,
      "ME8": 3966,
      "503": 3967,
      "UPMINSTER": 3968,
      "EDGEWOOD": 3969,
      "JUNI": 3970,
      "3BY": 3971,
      "COPP": 3972,
      "333": 3973,
      "LS9": 3974,
      "WR14": 3975,
      "VIRGIN": 3976,
      "CROSSE": 3977,
      "AL2": 3978,
      "LS12": 3979,
      "VIRGINIA": 3980,
      "ELDER": 3981,
      "BA14": 3982,
      "WYND": 3983,
      "1AE": 3984,
      "346": 3985,
      "CM9": 3986,
      "HORLEY": 3987,
      "LITTLEHAMPTON": 3988,
      "48TH": 3989,
      "SO30": 3990,
      "GW": 3991,
      "PRO": 3992,
      "NN18": 3993,
      "RM1": 3994,
      "LETT": 3995,
      "ELS": 3996,
      "HARBOUR": 3997,
      "348": 3998,
      "SHERMAN": 3999,
      "ADDLESTONE": 4000,
      "ABBOTS": 4001,
      "Ston": 4002,
      "ell": 4003,
      "BUXTON": 4004,
      "60165": 4005,
      "Rosell": 4006,
      "Stone": 4007,
      "Roselle": 4008,
      "7AB": 4009,
      "LANT": 4010,
      "171": 4011,
      "AB11": 4012,
      "CW8": 4013,
      "KY11": 4014,
      "HYTHE": 4015,
      "RH11": 4016,
      "3LQ": 4017,
      "BILSTON": 4018,
      "904": 4019,
      "HIGGIN": 4020,
      "NN15": 4021,
      "OTLEY": 4022,
      "SS2": 4023,
      "HARPER": 4024,
      "PORTLAND": 4025,
      "ROACH": 4026,
      "CLACTON": 4027,
      "310": 4028,
      "LUNA": 4029,
      "TAR": 4030,
      "HP19": 4031,
      "DLE": 4032,
      "RAM": 4033,
      "MIRFIELD": 4034,
      "JEFFERY": 4035,
      "VILLAGE": 4036,
      "INN": 4037,
      "MARGATE": 4038,
      "KT22": 4039,
      "GJ": 4040,
      "CONSIN": 4041,
      "WISCONSIN": 4042,
      "2EF": 4043,
      "172": 4044,
      "HIR": 4045,
      "351": 4046,
      "OAKDALE": 4047,
      "SPUR": 4048,
      "GARTH": 4049,
      "OUNTAIN": 4050,
      "LION": 4051,
      "ME1": 4052,
      "449": 4053,
      "CONSTAN": 4054,
      "CV4": 4055,
      "DE55": 4056,
      "PO7": 4057,
      "MANS": 4058,
      "PLEY": 4059,
      "DE1": 4060,
      "PE29": 4061,
      "502": 4062,
      "OVERHILL": 4063,
      "CIA": 4064,
      "OX3": 4065,
      "OL12": 4066,
      "AB12": 4067,
      "COVE": 4068,
      "WIG": 4069,
      "FULHAM": 4070,
      "WESTBURY": 4071,
      "HU5": 4072,
      "3AJ": 4073,
      "EPPING": 4074,
      "KT11": 4075,
      "DART": 4076,
      "FAIRWAY": 4077,
      "SSOP": 4078,
      "PO16": 4079,
      "DY2": 4080,
      "WV3": 4081,
      "IVES": 4082,
      "OL8": 4083,
      "CM14": 4084,
      "CH3": 4085,
      "JUNIPER": 4086,
      "PAN": 4087,
      "PO19": 4088,
      "CV7": 4089,
      "FULTON": 4090,
      "BURNTWOOD": 4091,
      "HIGGINS": 4092,
      "320": 4093,
      "KT15": 4094,
      "SS6": 4095,
      "ME19": 4096,
      "EH11": 4097,
      "MDW": 4098,
      "0HJ": 4099,
      "315": 4100,
      "SEVERN": 4101,
      "DA14": 4102,
      "SG6": 4103,
      "LORDSHIP": 4104,
      "SO41": 4105,
      "WHEEL": 4106,
      "925": 4107,
      "ROBERT": 4108,
      "ME4": 4109,
      "LN2": 4110,
      "TOWCESTER": 4111,
      "BOT": 4112,
      "KT5": 4113,
      "PRIMROSE": 4114,
      "GELEY": 4115,
      "GAL": 4116,
      "CALDY": 4117,
      "3LW": 4118,
      "HORSE": 4119,
      "FK2": 4120,
      "RUGELEY": 4121,
      "DOG": 4122,
      "WK": 4123,
      "45TH": 4124,
      "347": 4125,
      "4AD": 4126,
      "BUSH": 4127,
      "CANAL": 4128,
      "XHAM": 4129,
      "WOODS": 4130,
      "LUNT": 4131,
      "DRY": 4132,
      "448": 4133,
      "MARINE": 4134,
      "CRANDON": 4135,
      "KG": 4136,
      "INGER": 4137,
      "LUE": 4138,
      "DEESIDE": 4139,
      "PLAINE": 4140,
      "LUELLA": 4141,
      "LELAND": 4142,
      "CHO": 4143,
      "WF14": 4144,
      "WV1": 4145,
      "PUDSEY": 4146,
      "NESBURY": 4147,
      "MUIR": 4148,
      "CW11": 4149,
      "GOOD": 4150,
      "2AG": 4151,
      "DID": 4152,
      "LS11": 4153,
      "WITHAM": 4154,
      "BNK": 4155,
      "COLFAX": 4156,
      "OCKS": 4157,
      "110TH": 4158,
      "FERND": 4159,
      "IMPER": 4160,
      "OZARK": 4161,
      "KT9": 4162,
      "MK10": 4163,
      "TQ12": 4164,
      "1EE": 4165,
      "DRUM": 4166,
      "MUR": 4167,
      "FAY": 4168,
      "MATLOCK": 4169,
      "AKES": 4170,
      "1JF": 4171,
      "PR3": 4172,
      "WHARF": 4173,
      "DRIE": 4174,
      "HP1": 4175,
      "LIVER": 4176,
      "APPROACH": 4177,
      "SEMIN": 4178,
      "GP": 4179,
      "163RD": 4180,
      "WS14": 4181,
      "SALT": 4182,
      "ACRE": 4183,
      "FJ": 4184,
      "CV31": 4185,
      "LIVING": 4186,
      "SHERWOOD": 4187,
      "UMB": 4188,
      "WS12": 4189,
      "WEB": 4190,
      "IGNTON": 4191,
      "LS27": 4192,
      "BH1": 4193,
      "LE15": 4194,
      "349": 4195,
      "CW2": 4196,
      "COALVILLE": 4197,
      "38TH": 4198,
      "DY1": 4199,
      "AVELAND": 4200,
      "8DP": 4201,
      "SAGIN": 4202,
      "COLUMB": 4203,
      "NN2": 4204,
      "PRESS": 4205,
      "SAGINAW": 4206,
      "44TH": 4207,
      "CRAW": 4208,
      "STALYBRIDGE": 4209,
      "4HN": 4210,
      "446": 4211,
      "845": 4212,
      "NET": 4213,
      "KIRKCALDY": 4214,
      "CB8": 4215,
      "CHISLE": 4216,
      "SWADE": 4217,
      "447": 4218,
      "TAGE": 4219,
      "GLOSSOP": 4220,
      "1EB": 4221,
      "GUND": 4222,
      "IMPERIAL": 4223,
      "CHISLEHURST": 4224,
      "SK14": 4225,
      "SG2": 4226,
      "FS": 4227,
      "MISS": 4228,
      "KY12": 4229,
      "GREG": 4230,
      "HOLME": 4231,
      "OHI": 4232,
      "SE20": 4233,
      "OHIO": 4234,
      "DIN": 4235,
      "SCOVILLE": 4236,
      "BUFF": 4237,
      "BH12": 4238,
      "NOY": 4239,
      "SHOREHAM": 4240,
      "DEAR": 4241,
      "CF31": 4242,
      "551": 4243,
      "EC1R": 4244,
      "FERNDOWN": 4245,
      "181": 4246,
      "WAYNE": 4247,
      "GU34": 4248,
      "EGHAM": 4249,
      "ALO": 4250,
      "PAIGNTON": 4251,
      "HILLCREST": 4252,
      "CWM": 4253,
      "SUNBURY": 4254,
      "PRATT": 4255,
      "LS6": 4256,
      "DIDCOT": 4257,
      "2AD": 4258,
      "6Y": 4259,
      "COOK": 4260,
      "PO6": 4261,
      "PO12": 4262,
      "HOOK": 4263,
      "HD3": 4264,
      "112TH": 4265,
      "7EA": 4266,
      "431": 4267,
      "WINNE": 4268,
      "PEARE": 4269,
      "PETERHEAD": 4270,
      "ICE": 4271,
      "PO5": 4272,
      "3Y": 4273,
      "NE2": 4274,
      "NN7": 4275,
      "2AA": 4276,
      "OLPH": 4277,
      "GREN": 4278,
      "SHAFT": 4279,
      "SO40": 4280,
      "CV10": 4281,
      "311": 4282,
      "ACH": 4283,
      "ARROW": 4284,
      "COAT": 4285,
      "WC1X": 4286,
      "3PB": 4287,
      "ESCAN": 4288,
      "BUFFALO": 4289,
      "WAVELAND": 4290,
      "XON": 4291,
      "NERS": 4292,
      "NN16": 4293,
      "FAYETTE": 4294,
      "SHAKES": 4295,
      "HITHE": 4296,
      "DINGS": 4297,
      "SHAKESPEARE": 4298,
      "BILLINGHAM": 4299,
      "TS10": 4300,
      "RM14": 4301,
      "HOOD": 4302,
      "BEVERLY": 4303,
      "WV4": 4304,
      "AIRDRIE": 4305,
      "FY2": 4306,
      "TEMPLE": 4307,
      "LOA": 4308,
      "SHO": 4309,
      "GL5": 4310,
      "HX3": 4311,
      "RETFORD": 4312,
      "CROW": 4313,
      "TUDOR": 4314,
      "WESTFIELD": 4315,
      "702": 4316,
      "PO9": 4317,
      "EDDY": 4318,
      "ENSON": 4319,
      "6BJ": 4320,
      "HAVANT": 4321,
      "COLE": 4322,
      "CF3": 4323,
      "RH13": 4324,
      "6QH": 4325,
      "OL4": 4326,
      "FY4": 4327,
      "98TH": 4328,
      "FQ": 4329,
      "NN12": 4330,
      "STAFFORD": 4331,
      "LAFAYETTE": 4332,
      "SSETT": 4333,
      "MANGO": 4334,
      "WICKFORD": 4335,
      "IVY": 4336,
      "7SL": 4337,
      "NISON": 4338,
      "COWES": 4339,
      "PE6": 4340,
      "COLD": 4341,
      "WHITEHALL": 4342,
      "Rosemont": 4343,
      "703": 4344,
      "ABA": 4345,
      "BH24": 4346,
      "FRIARS": 4347,
      "ESCANABA": 4348,
      "MK14": 4349,
      "PREST": 4350,
      "1NG": 4351,
      "WHITSTABLE": 4352,
      "ATHER": 4353,
      "2ED": 4354,
      "BBLE": 4355,
      "SK15": 4356,
      "BEECHWOOD": 4357,
      "Ke": 4358,
      "lw": 4359,
      "nilw": 4360,
      "60043": 4361,
      "331": 4362,
      "Kenilw": 4363,
      "Kenilworth": 4364,
      "PORTH": 4365,
      "LE17": 4366,
      "CONWY": 4367,
      "FRASERBURGH": 4368,
      "5HD": 4369,
      "POL": 4370,
      "105TH": 4371,
      "8AA": 4372,
      "MWS": 4373,
      "RIPLEY": 4374,
      "251": 4375,
      "PO15": 4376,
      "HUM": 4377,
      "SO18": 4378,
      "MK9": 4379,
      "LONGWOOD": 4380,
      "THON": 4381,
      "CM16": 4382,
      "MICHAEL": 4383,
      "GU10": 4384,
      "CH43": 4385,
      "199": 4386,
      "PAG": 4387,
      "195": 4388,
      "LS10": 4389,
      "OX26": 4390,
      "RM17": 4391,
      "MORSE": 4392,
      "WEDNESBURY": 4393,
      "SBURY": 4394,
      "FORRE": 4395,
      "BURNS": 4396,
      "802": 4397,
      "803": 4398,
      "LS15": 4399,
      "PO8": 4400,
      "5AB": 4401,
      "FW": 4402,
      "CO6": 4403,
      "ELMHURST": 4404,
      "NE6": 4405,
      "TW20": 4406,
      "SW1X": 4407,
      "ROCHFORD": 4408,
      "CRAWFORD": 4409,
      "SHAFTESBURY": 4410,
      "STEPH": 4411,
      "THA": 4412,
      "MK18": 4413,
      "TRING": 4414,
      "ROBERTS": 4415,
      "EAD": 4416,
      "336": 4417,
      "RIDGEWOOD": 4418,
      "HENRY": 4419,
      "DUNMOW": 4420,
      "MAWR": 4421,
      "46TH": 4422,
      "SO19": 4423,
      "SOMERSET": 4424,
      "NE8": 4425,
      "GZ": 4426,
      "PADD": 4427,
      "PATH": 4428,
      "OX28": 4429,
      "DANTE": 4430,
      "DAVIS": 4431,
      "COOM": 4432,
      "WS7": 4433,
      "HIRSCH": 4434,
      "CO3": 4435,
      "MILLINGTON": 4436,
      "EWING": 4437,
      "PHO": 4438,
      "352": 4439,
      "TTS": 4440,
      "3AE": 4441,
      "PETERSON": 4442,
      "AVALON": 4443,
      "OL2": 4444,
      "EAU": 4445,
      "OX11": 4446,
      "SPIN": 4447,
      "DITTON": 4448,
      "FP": 4449,
      "SHEL": 4450,
      "HD2": 4451,
      "OGDEN": 4452,
      "SK2": 4453,
      "SK12": 4454,
      "WS15": 4455,
      "8AR": 4456,
      "DE72": 4457,
      "ELDEN": 4458,
      "335": 4459,
      "CM13": 4460,
      "MEADOWS": 4461,
      "DE13": 4462,
      "RH4": 4463,
      "GREGORY": 4464,
      "HP21": 4465,
      "FROME": 4466,
      "TAVI": 4467,
      "WA11": 4468,
      "AB42": 4469,
      "WR9": 4470,
      "KINGTON": 4471,
      "191": 4472,
      "CB7": 4473,
      "9PY": 4474,
      "CONSTANCE": 4475,
      "TAVISTOCK": 4476,
      "326": 4477,
      "12TH": 4478,
      "MANI": 4479,
      "Ford": 4480,
      "7AE": 4481,
      "6AW": 4482,
      "SK13": 4483,
      "WH": 4484,
      "BR7": 4485,
      "DN15": 4486,
      "ITWICH": 4487,
      "DROITWICH": 4488,
      "COOMBE": 4489,
      "PIER": 4490,
      "NE34": 4491,
      "354": 4492,
      "HP11": 4493,
      "THORP": 4494,
      "ML6": 4495,
      "332": 4496,
      "KT18": 4497,
      "PPEL": 4498,
      "CARR": 4499,
      "SHEFFIELD": 4500,
      "2QA": 4501,
      "DARTMOUTH": 4502,
      "435": 4503,
      "ASHBOURNE": 4504,
      "CB22": 4505,
      "1JH": 4506,
      "ENIX": 4507,
      "PHOENIX": 4508,
      "BUN": 4509,
      "157TH": 4510,
      "432": 4511,
      "NP19": 4512,
      "FLOWER": 4513,
      "TEW": 4514,
      "CLEE": 4515,
      "DOWNS": 4516,
      "LOM": 4517,
      "DE11": 4518,
      "GREY": 4519,
      "MK45": 4520,
      "CO5": 4521,
      "BH9": 4522,
      "321": 4523,
      "ARUND": 4524,
      "SHING": 4525,
      "DEVONSHIRE": 4526,
      "HASS": 4527,
      "ELLE": 4528,
      "BH8": 4529,
      "GLESWADE": 4530,
      "BIGGLESWADE": 4531,
      "DOGWOOD": 4532,
      "8DE": 4533,
      "MENT": 4534,
      "HASLE": 4535,
      "ARUNDEL": 4536,
      "ESTES": 4537,
      "255": 4538,
      "COO": 4539,
      "DE4": 4540,
      "433": 4541,
      "BR4": 4542,
      "GOOLE": 4543,
      "MINER": 4544,
      "SK3": 4545,
      "CT9": 4546,
      "NORFOLK": 4547,
      "LANC": 4548,
      "HAWTHORN": 4549,
      "GREENOCK": 4550,
      "BH6": 4551,
      "LAPORTE": 4552,
      "AB43": 4553,
      "ME16": 4554,
      "MANISTEE": 4555,
      "IV2": 4556,
      "CWMBRAN": 4557,
      "8HP": 4558,
      "PETH": 4559,
      "35TH": 4560,
      "DN22": 4561,
      "PHILLIP": 4562,
      "SPENCER": 4563,
      "LEON": 4564,
      "EH15": 4565,
      "CTY": 4566,
      "CM8": 4567,
      "CULLOM": 4568,
      "HASLEMERE": 4569,
      "TAM": 4570,
      "LOVE": 4571,
      "60521": 4572,
      "CANVEY": 4573,
      "TIPTON": 4574,
      "TEWKES": 4575,
      "LADY": 4576,
      "DY9": 4577,
      "2PX": 4578,
      "TEWKESBURY": 4579,
      "SAU": 4580,
      "OL9": 4581,
      "OCKENDON": 4582,
      "BARRINGTON": 4583,
      "4AS": 4584,
      "7BJ": 4585,
      "155TH": 4586,
      "CF37": 4587,
      "GUNDERSON": 4588,
      "EAGLE": 4589,
      "SW1P": 4590,
      "108TH": 4591,
      "CROWN": 4592,
      "WINSTON": 4593,
      "MARSHALL": 4594,
      "TORR": 4595,
      "312": 4596,
      "CM15": 4597,
      "STOKE": 4598,
      "WA9": 4599,
      "MOHAWK": 4600,
      "WN4": 4601,
      "2HJ": 4602,
      "ISH": 4603,
      "334": 4604,
      "HU1": 4605,
      "WS10": 4606,
      "PETERSFIELD": 4607,
      "BRUNSWICK": 4608,
      "ONAH": 4609,
      "316": 4610,
      "2QE": 4611,
      "WEBSTER": 4612,
      "WOODFIELD": 4613,
      "WF12": 4614,
      "WENONAH": 4615,
      "PE9": 4616,
      "GL4": 4617,
      "WS9": 4618,
      "0RG": 4619,
      "POULTON": 4620,
      "436": 4621,
      "BN14": 4622,
      "LYMM": 4623,
      "SHAD": 4624,
      "261": 4625,
      "DELL": 4626,
      "NN17": 4627,
      "4DJ": 4628,
      "SUMMERDALE": 4629,
      "FLORENCE": 4630,
      "AC": 4631,
      "INS": 4632,
      "437": 4633,
      "PO21": 4634,
      "DY10": 4635,
      "CHAPPEL": 4636,
      "BRIDGNORTH": 4637,
      "BH22": 4638,
      "PL4": 4639,
      "HOCK": 4640,
      "PHI": 4641,
      "LE18": 4642,
      "197": 4643,
      "7AA": 4644,
      "104TH": 4645,
      "CT5": 4646,
      "SANDHURST": 4647,
      "HP22": 4648,
      "BOND": 4649,
      "3AR": 4650,
      "KEITH": 4651,
      "CB2": 4652,
      "NP44": 4653,
      "2DY": 4654,
      "GILL": 4655,
      "10TH": 4656,
      "CAU": 4657,
      "PR25": 4658,
      "ion": 4659,
      "rr": 4660,
      "167TH": 4661,
      "13TH": 4662,
      "SWE": 4663,
      "EH2": 4664,
      "CARMEN": 4665,
      "SUSSE": 4666,
      "Merr": 4667,
      "BREMEN": 4668,
      "ionette": 4669,
      "SUSSEX": 4670,
      "Merrionette": 4671,
      "ENTON": 4672,
      "LAY": 4673,
      "68TH": 4674,
      "PEAK": 4675,
      "FOUNTAIN": 4676,
      "BOD": 4677,
      "WA13": 4678,
      "TS18": 4679,
      "4RG": 4680,
      "WLK": 4681,
      "DN14": 4682,
      "317": 4683,
      "DAY": 4684,
      "HOE": 4685,
      "CHIPPING": 4686,
      "MORPETH": 4687,
      "4AA": 4688,
      "1LR": 4689,
      "5DX": 4690,
      "319": 4691,
      "FOUR": 4692,
      "GOW": 4693,
      "MINGHAM": 4694,
      "SCOT": 4695,
      "11TH": 4696,
      "HUMBER": 4697,
      "SO51": 4698,
      "0Y": 4699,
      "0RH": 4700,
      "410": 4701,
      "VINGTON": 4702,
      "QUAR": 4703,
      "1AA": 4704,
      "4PF": 4705,
      "Di": 4706,
      "xmoor": 4707,
      "LINGFORD": 4708,
      "Dixmoor": 4709,
      "URIE": 4710,
      "HAMP": 4711,
      "32ND": 4712,
      "LEN": 4713,
      "8Y": 4714,
      "WOOL": 4715,
      "337": 4716,
      "CATAL": 4717,
      "2EA": 4718,
      "HU9": 4719,
      "MK13": 4720,
      "3DH": 4721,
      "116TH": 4722,
      "INVERURIE": 4723,
      "COX": 4724,
      "1400": 4725,
      "FERRY": 4726,
      "QUEENSWAY": 4727,
      "NE33": 4728,
      "CLOVER": 4729,
      "WEY": 4730,
      "GLEWOOD": 4731,
      "415": 4732,
      "EC2M": 4733,
      "1HX": 4734,
      "TW16": 4735,
      "SG14": 4736,
      "CH41": 4737,
      "ATLANT": 4738,
      "HEB": 4739,
      "SURREY": 4740,
      "3EH": 4741,
      "WITH": 4742,
      "159TH": 4743,
      "BELDEN": 4744,
      "SG18": 4745,
      "ATLANTIC": 4746,
      "STREAM": 4747,
      "182": 4748,
      "WC2B": 4749,
      "TF2": 4750,
      "314": 4751,
      "HEOL": 4752,
      "VILLAS": 4753,
      "198": 4754,
      "LS26": 4755,
      "DN5": 4756,
      "1DA": 4757,
      "194": 4758,
      "COWLEY": 4759,
      "DY4": 4760,
      "BRADLEY": 4761,
      "IRN": 4762,
      "52ND": 4763,
      "PATTER": 4764,
      "YARM": 4765,
      "ENSLEY": 4766,
      "CAMDEN": 4767,
      "MUSKE": 4768,
      "THORPES": 4769,
      "MUSKEGON": 4770,
      "FISHER": 4771,
      "EATHER": 4772,
      "TS5": 4773,
      "BUS": 4774,
      "BLEN": 4775,
      "CLEETHORPES": 4776,
      "5Y": 4777,
      "EDEN": 4778,
      "1AJ": 4779,
      "BRANDON": 4780,
      "WHEELING": 4781,
      "FY5": 4782,
      "PHAM": 4783,
      "REE": 4784,
      "VERMONT": 4785,
      "SO22": 4786,
      "WF3": 4787,
      "BRUNEL": 4788,
      "CO10": 4789,
      "GU16": 4790,
      "HU7": 4791,
      "LN4": 4792,
      "6AG": 4793,
      "TQ1": 4794,
      "1LT": 4795,
      "SAW": 4796,
      "SE21": 4797,
      "127TH": 4798,
      "PE27": 4799,
      "CM6": 4800,
      "SWINFORD": 4801,
      "43RD": 4802,
      "SS8": 4803,
      "CT6": 4804,
      "MERTON": 4805,
      "SG19": 4806,
      "3BT": 4807,
      "KNOW": 4808,
      "LAVEN": 4809,
      "ANS": 4810,
      "POTO": 4811,
      "BURLEY": 4812,
      "HONEY": 4813,
      "GQ": 4814,
      "30TH": 4815,
      "TILBURY": 4816,
      "ROLL": 4817,
      "TA6": 4818,
      "SHEPP": 4819,
      "WINONA": 4820,
      "3AX": 4821,
      "MAYFAIR": 4822,
      "4DP": 4823,
      "AST": 4824,
      "554": 4825,
      "RM15": 4826,
      "LINGWOOD": 4827,
      "RELL": 4828,
      "OL6": 4829,
      "339": 4830,
      "6AF": 4831,
      "7BT": 4832,
      "GUNNISON": 4833,
      "DEARBORN": 4834,
      "KT16": 4835,
      "GRESS": 4836,
      "WS3": 4837,
      "1BG": 4838,
      "170TH": 4839,
      "TORRENCE": 4840,
      "1AR": 4841,
      "327": 4842,
      "ENCY": 4843,
      "ONG": 4844,
      "NE38": 4845,
      "CH4": 4846,
      "GREENWAY": 4847,
      "BERTEAU": 4848,
      "5BB": 4849,
      "1HR": 4850,
      "420": 4851,
      "5JE": 4852,
      "9AE": 4853,
      "GARFIELD": 4854,
      "POTOMAC": 4855,
      "1GF": 4856,
      "3DA": 4857,
      "Hins": 4858,
      "JER": 4859,
      "CH45": 4860,
      "ANOR": 4861,
      "ATELEY": 4862,
      "REGENCY": 4863,
      "WILDWOOD": 4864,
      "ANDREWS": 4865,
      "Hinsdale": 4866,
      "8LY": 4867,
      "WALLINGFORD": 4868,
      "96TH": 4869,
      "CLYBOURN": 4870,
      "GUT": 4871,
      "SG13": 4872,
      "COMPTON": 4873,
      "FARRA": 4874,
      "MORRIS": 4875,
      "FK1": 4876,
      "DOWNE": 4877,
      "JEFFERSON": 4878,
      "EMSWORTH": 4879,
      "HAVERHILL": 4880,
      "2AF": 4881,
      "GLENVIEW": 4882,
      "LLAN": 4883,
      "IRS": 4884,
      "CAROL": 4885,
      "EH9": 4886,
      "5JA": 4887,
      "FARRAGUT": 4888,
      "GT": 4889,
      "SALEM": 4890,
      "102ND": 4891,
      "552": 4892,
      "MANSFIELD": 4893,
      "HUNTINGTON": 4894,
      "ROTHES": 4895,
      "HUMPH": 4896,
      "1AB": 4897,
      "515": 4898,
      "8HB": 4899,
      "CHIL": 4900,
      "MERY": 4901,
      "WN3": 4902,
      "JARVIS": 4903,
      "3BN": 4904,
      "NING": 4905,
      "PLAINES": 4906,
      "TQ2": 4907,
      "CRAMLINGTON": 4908,
      "MYR": 4909,
      "LS18": 4910,
      "HX1": 4911,
      "ACRES": 4912,
      "BRY": 4913,
      "KINGSWINFORD": 4914,
      "DN35": 4915,
      "PERSHING": 4916,
      "BISHOPS": 4917,
      "HOX": 4918,
      "INGLE": 4919,
      "SHIR": 4920,
      "AB51": 4921,
      "ALDERLEY": 4922,
      "6EL": 4923,
      "434": 4924,
      "357": 4925,
      "FREW": 4926,
      "PATTERSON": 4927,
      "114TH": 4928,
      "HAST": 4929,
      "DN21": 4930,
      "CULLERTON": 4931,
      "1QS": 4932,
      "2RH": 4933,
      "318": 4934,
      "3HU": 4935,
      "265": 4936,
      "WHITCHURCH": 4937,
      "TADWORTH": 4938,
      "BET": 4939,
      "CLEVELEYS": 4940,
      "PAGNELL": 4941,
      "GU12": 4942,
      "2PG": 4943,
      "CANNON": 4944,
      "HOXIE": 4945,
      "BLY": 4946,
      "TWELL": 4947,
      "DY6": 4948,
      "RADLETT": 4949,
      "AINSLIE": 4950,
      "CHEL": 4951,
      "STANFORD": 4952,
      "2NP": 4953,
      "TLAND": 4954,
      "DE5": 4955,
      "AVERSHAM": 4956,
      "CYPRESS": 4957,
      "RENFREW": 4958,
      "1BR": 4959,
      "510": 4960,
      "PO20": 4961,
      "PL6": 4962,
      "PE30": 4963,
      "903": 4964,
      "1700": 4965,
      "GLADYS": 4966,
      "9DG": 4967,
      "ANTHON": 4968,
      "196": 4969,
      "URY": 4970,
      "TS26": 4971,
      "WAUKEGAN": 4972,
      "4BA": 4973,
      "GX": 4974,
      "MK16": 4975,
      "WR5": 4976,
      "1BE": 4977,
      "US": 4978,
      "CH7": 4979,
      "ASBURY": 4980,
      "FIL": 4981,
      "Hod": 4982,
      "gk": 4983,
      "DENHAM": 4984,
      "Hodgk": 4985,
      "Hodgkins": 4986,
      "PL1": 4987,
      "BENT": 4988,
      "NE30": 4989,
      "AUSTELL": 4990,
      "7AL": 4991,
      "338": 4992,
      "COLLINGWOOD": 4993,
      "2AH": 4994,
      "1LU": 4995,
      "SP1": 4996,
      "REDWOOD": 4997,
      "GLENROTHES": 4998,
      "DRUMMOND": 4999,
      "PHILLIPS": 5000,
      "DA17": 5001,
      "LOWR": 5002,
      "CARRI": 5003,
      "8PS": 5004,
      "HUMPHREY": 5005,
      "CLUN": 5006,
      "HP23": 5007,
      "CORTLAND": 5008,
      "SHEPPERTON": 5009,
      "8EP": 5010,
      "KT20": 5011,
      "LN5": 5012,
      "CRANLEIGH": 5013,
      "193": 5014,
      "CW1": 5015,
      "3LH": 5016,
      "TUL": 5017,
      "PO14": 5018,
      "PO13": 5019,
      "GL3": 5020,
      "MORDEN": 5021,
      "HASTINGS": 5022,
      "8AD": 5023,
      "UBERT": 5024,
      "CO15": 5025,
      "PECK": 5026,
      "BYFLEET": 5027,
      "WALLS": 5028,
      "SCHUBERT": 5029,
      "411": 5030,
      "CHEP": 5031,
      "1AH": 5032,
      "LANSDOWNE": 5033,
      "AB24": 5034,
      "MK8": 5035,
      "WV2": 5036,
      "8EX": 5037,
      "9DA": 5038,
      "ROMAN": 5039,
      "PE21": 5040,
      "358": 5041,
      "CHEPSTOW": 5042,
      "520": 5043,
      "NE23": 5044,
      "RICE": 5045,
      "WISHAW": 5046,
      "WN5": 5047,
      "7AN": 5048,
      "8HA": 5049,
      "902": 5050,
      "DY3": 5051,
      "VAU": 5052,
      "EC1M": 5053,
      "7DX": 5054,
      "WINNEMAC": 5055,
      "LAVENDER": 5056,
      "4NE": 5057,
      "2BE": 5058,
      "5EA": 5059,
      "LDE": 5060,
      "OLIVE": 5061,
      "ANAM": 5062,
      "SW1H": 5063,
      "FALCON": 5064,
      "OZANAM": 5065,
      "TR1": 5066,
      "FYLDE": 5067,
      "GILES": 5068,
      "MULBERRY": 5069,
      "1AD": 5070,
      "SY3": 5071,
      "6BT": 5072,
      "CH5": 5073,
      "1125": 5074,
      "DEAL": 5075,
      "BURR": 5076,
      "40TH": 5077,
      "RYE": 5078,
      "BN43": 5079,
      "MK3": 5080,
      "MK7": 5081,
      "STOURPORT": 5082,
      "RUTH": 5083,
      "CASTLEFORD": 5084,
      "WC1H": 5085,
      "4DY": 5086,
      "PO2": 5087,
      "WF13": 5088,
      "MYRTLE": 5089,
      "KNA": 5090,
      "Ph": 5091,
      "nix": 5092,
      "CFT": 5093,
      "SPER": 5094,
      "STRONG": 5095,
      "STAIRS": 5096,
      "oenix": 5097,
      "Phoenix": 5098,
      "DERICK": 5099,
      "MERTH": 5100,
      "2JB": 5101,
      "1300": 5102,
      "1500": 5103,
      "CARRIAGE": 5104,
      "CT1": 5105,
      "SY1": 5106,
      "FREMONT": 5107,
      "PET": 5108,
      "OX5": 5109,
      "MK43": 5110,
      "4AG": 5111,
      "MACKIN": 5112,
      "BLENHEIM": 5113,
      "STONY": 5114,
      "SS4": 5115,
      "GU4": 5116,
      "OWSTON": 5117,
      "MACKINAW": 5118,
      "PUL": 5119,
      "CH62": 5120,
      "4AE": 5121,
      "0AA": 5122,
      "MERTHYR": 5123,
      "1RH": 5124,
      "ARN": 5125,
      "CRANE": 5126,
      "5AH": 5127,
      "POND": 5128,
      "1DB": 5129,
      "9DQ": 5130,
      "FALMOUTH": 5131,
      "COOPER": 5132,
      "FETTER": 5133,
      "SIR": 5134,
      "SARA": 5135,
      "HP10": 5136,
      "2AB": 5137,
      "LILL": 5138,
      "BA11": 5139,
      "557": 5140,
      "PO10": 5141,
      "HOUSTON": 5142,
      "PUT": 5143,
      "3HR": 5144,
      "LD": 5145,
      "PE3": 5146,
      "LYNDALE": 5147,
      "SEMINARY": 5148,
      "PENT": 5149,
      "SS14": 5150,
      "1JE": 5151,
      "NUR": 5152,
      "POLK": 5153,
      "1045": 5154,
      "HEM": 5155,
      "615": 5156,
      "THY": 5157,
      "AL8": 5158,
      "PARKER": 5159,
      "8AE": 5160,
      "2BT": 5161,
      "FREE": 5162,
      "PRINCESS": 5163,
      "PURFLEET": 5164,
      "4DA": 5165,
      "CV23": 5166,
      "TINGALE": 5167,
      "439": 5168,
      "AB25": 5169,
      "TERN": 5170,
      "GU27": 5171,
      "LARCH": 5172,
      "LANARK": 5173,
      "TURNER": 5174,
      "CATALPA": 5175,
      "8AT": 5176,
      "OX1": 5177,
      "ELMS": 5178,
      "1JQ": 5179,
      "113TH": 5180,
      "LWR": 5181,
      "ME13": 5182,
      "329": 5183,
      "CO7": 5184,
      "BN7": 5185,
      "LUD": 5186,
      "715": 5187,
      "JEN": 5188,
      "RW": 5189,
      "RET": 5190,
      "NE15": 5191,
      "PE10": 5192,
      "3LJ": 5193,
      "1800": 5194,
      "ANCE": 5195,
      "313": 5196,
      "359": 5197,
      "BLACKHAWK": 5198,
      "GLENDALE": 5199,
      "106TH": 5200,
      "5BQ": 5201,
      "2NT": 5202,
      "FAVERSHAM": 5203,
      "BERENI": 5204,
      "LANCING": 5205,
      "BERENICE": 5206,
      "183RD": 5207,
      "OXTED": 5208,
      "CT20": 5209,
      "WORKINGTON": 5210,
      "DANI": 5211,
      "328": 5212,
      "745": 5213,
      "WESTON": 5214,
      "20TH": 5215,
      "HARBOR": 5216,
      "BROOKSIDE": 5217,
      "3AD": 5218,
      "8DD": 5219,
      "DOCK": 5220,
      "DY11": 5221,
      "WD7": 5222,
      "412": 5223,
      "SS15": 5224,
      "NEWQUAY": 5225,
      "PEBBLE": 5226,
      "DERS": 5227,
      "OX29": 5228,
      "FREDERICK": 5229,
      "LAKES": 5230,
      "BOSWORTH": 5231,
      "FRAM": 5232,
      "5DT": 5233,
      "711": 5234,
      "FONT": 5235,
      "NORT": 5236,
      "WHEA": 5237,
      "FARWELL": 5238,
      "156TH": 5239,
      "610": 5240,
      "171ST": 5241,
      "1200": 5242,
      "123RD": 5243,
      "PAGE": 5244,
      "CLUB": 5245,
      "NIGH": 5246,
      "2DR": 5247,
      "FY6": 5248,
      "5DE": 5249,
      "253": 5250,
      "WOODSTOCK": 5251,
      "DN9": 5252,
      "6RD": 5253,
      "LINGHAM": 5254,
      "7AR": 5255,
      "CO1": 5256,
      "SK1": 5257,
      "1JN": 5258,
      "NURS": 5259,
      "BRON": 5260,
      "DN32": 5261,
      "HG3": 5262,
      "7BB": 5263,
      "CHARLE": 5264,
      "YLE": 5265,
      "LEVEN": 5266,
      "LN1": 5267,
      "DUKE": 5268,
      "1RB": 5269,
      "6AL": 5270,
      "OX10": 5271,
      "CONGRESS": 5272,
      "3AS": 5273,
      "9AB": 5274,
      "RES": 5275,
      "ARCH": 5276,
      "34TH": 5277,
      "WF10": 5278,
      "WHITEHAVEN": 5279,
      "EARLS": 5280,
      "IOWA": 5281,
      "1AL": 5282,
      "620": 5283,
      "254": 5284,
      "CKEN": 5285,
      "264": 5286,
      "LS21": 5287,
      "HU8": 5288,
      "WN1": 5289,
      "RAVENSWOOD": 5290,
      "NE28": 5291,
      "EASTERN": 5292,
      "FFOLK": 5293,
      "WD4": 5294,
      "MIDDLEWICH": 5295,
      "GERS": 5296,
      "ILEE": 5297,
      "MES": 5298,
      "ALTG": 5299,
      "COURTLAND": 5300,
      "ALTGELD": 5301,
      "6HT": 5302,
      "7EF": 5303,
      "8JQ": 5304,
      "ML2": 5305,
      "6AS": 5306,
      "3QB": 5307,
      "4QN": 5308,
      "3DE": 5309,
      "5DA": 5310,
      "720": 5311,
      "IVER": 5312,
      "192": 5313,
      "252": 5314,
      "BROADSTONE": 5315,
      "SUFFOLK": 5316,
      "WF5": 5317,
      "5DL": 5318,
      "HADDON": 5319,
      "FON": 5320,
      "JUB": 5321,
      "TOD": 5322,
      "CA14": 5323,
      "PRENTON": 5324,
      "LYND": 5325,
      "2QL": 5326,
      "8BB": 5327,
      "1LL": 5328,
      "EATON": 5329,
      "EH16": 5330,
      "HAYLING": 5331,
      "6EU": 5332,
      "7EJ": 5333,
      "FARGO": 5334,
      "3EF": 5335,
      "710": 5336,
      "NE26": 5337,
      "VERTON": 5338,
      "LIND": 5339,
      "OWEN": 5340,
      "3LD": 5341,
      "WAVERLY": 5342,
      "JUBILEE": 5343,
      "1EN": 5344,
      "8ER": 5345,
      "GID": 5346,
      "HTH": 5347,
      "NETHER": 5348,
      "TW17": 5349,
      "EH21": 5350,
      "MALLARD": 5351,
      "322": 5352,
      "3BE": 5353,
      "ALLEN": 5354,
      "8JB": 5355,
      "2PP": 5356,
      "6PA": 5357,
      "7Y": 5358,
      "257": 5359,
      "DAKIN": 5360,
      "CF62": 5361,
      "BH17": 5362,
      "3HE": 5363,
      "5BN": 5364,
      "CUST": 5365,
      "0LD": 5366,
      "LERS": 5367,
      "MORT": 5368,
      "LE19": 5369,
      "STREA": 5370,
      "PHEA": 5371,
      "1JD": 5372,
      "4HY": 5373,
      "11A": 5374,
      "CB9": 5375,
      "GLADSTONE": 5376,
      "FX": 5377,
      "OL1": 5378,
      "DE12": 5379,
      "DUM": 5380,
      "WATLING": 5381,
      "4AN": 5382,
      "6BA": 5383,
      "BENSLEY": 5384,
      "ELLI": 5385,
      "6DA": 5386,
      "7PH": 5387,
      "DOL": 5388,
      "OUCH": 5389,
      "EH49": 5390,
      "RM18": 5391,
      "1NJ": 5392,
      "BELGRAVE": 5393,
      "IMER": 5394,
      "WAN": 5395,
      "RITH": 5396,
      "ANA": 5397,
      "262": 5398,
      "263": 5399,
      "PEM": 5400,
      "CT21": 5401,
      "1NB": 5402,
      "2AZ": 5403,
      "815": 5404,
      "NAU": 5405,
      "NE29": 5406,
      "PERTON": 5407,
      "1JR": 5408,
      "6AX": 5409,
      "2AL": 5410,
      "6DE": 5411,
      "ZOUCH": 5412,
      "PO1": 5413,
      "KENNINGTON": 5414,
      "1BS": 5415,
      "PENN": 5416,
      "EC3V": 5417,
      "5EE": 5418,
      "259": 5419,
      "LS22": 5420,
      "MONTGO": 5421,
      "BRETT": 5422,
      "PHIA": 5423,
      "1PE": 5424,
      "8BE": 5425,
      "438": 5426,
      "3AG": 5427,
      "3HG": 5428,
      "9AD": 5429,
      "SIA": 5430,
      "LOCUST": 5431,
      "BH25": 5432,
      "DAVID": 5433,
      "3NR": 5434,
      "YATELEY": 5435,
      "BA13": 5436,
      "9AF": 5437,
      "BRACKLEY": 5438,
      "AYLESFORD": 5439,
      "820": 5440,
      "3AH": 5441,
      "1JL": 5442,
      "1DH": 5443,
      "DORSET": 5444,
      "BRIARWOOD": 5445,
      "KNOLLWOOD": 5446,
      "HASSOCKS": 5447,
      "5EQ": 5448,
      "LOUTH": 5449,
      "HOUN": 5450,
      "PENRITH": 5451,
      "2HN": 5452,
      "256": 5453,
      "PA1": 5454,
      "TEAD": 5455,
      "ASHTEAD": 5456,
      "WV11": 5457,
      "2DP": 5458,
      "KNIGHT": 5459,
      "4AB": 5460,
      "9AR": 5461,
      "NE11": 5462,
      "RYDE": 5463,
      "DRYDEN": 5464,
      "SHIRLEY": 5465,
      "WALLSEND": 5466,
      "3AB": 5467,
      "9EE": 5468,
      "ISE": 5469,
      "258": 5470,
      "2AE": 5471,
      "7QA": 5472,
      "NRT": 5473,
      "1PT": 5474,
      "ATHERSTONE": 5475,
      "NIGHTINGALE": 5476,
      "3EA": 5477,
      "5AL": 5478,
      "511": 5479,
      "516": 5480,
      "LINK": 5481,
      "TS15": 5482,
      "RH8": 5483,
      "FORREST": 5484,
      "1EH": 5485,
      "4HH": 5486,
      "RESFORD": 5487,
      "LE14": 5488,
      "LINKS": 5489,
      "RM19": 5490,
      "QUIL": 5491,
      "WOLFRAM": 5492,
      "BROADSTAIRS": 5493,
      "9LZ": 5494,
      "STRATH": 5495,
      "ANTHONY": 5496,
      "DA2": 5497,
      "MK2": 5498,
      "FRIARGATE": 5499,
      "LIVINGSTON": 5500,
      "PUTNEY": 5501,
      "414": 5502,
      "BRD": 5503,
      "PS": 5504,
      "DONALD": 5505,
      "WINSFORD": 5506,
      "CALHOUN": 5507,
      "PH1": 5508,
      "LONGFIELD": 5509,
      "1PG": 5510,
      "NURSERY": 5511,
      "0PA": 5512,
      "4DG": 5513,
      "9NE": 5514,
      "NIE": 5515,
      "NE20": 5516,
      "PARKVIEW": 5517,
      "GU47": 5518,
      "EH8": 5519,
      "67TH": 5520,
      "WC2H": 5521,
      "5AS": 5522,
      "416": 5523,
      "915": 5524,
      "147TH": 5525,
      "WS5": 5526,
      "CM11": 5527,
      "CM17": 5528,
      "8AJ": 5529,
      "MAYPOLE": 5530,
      "HUNTER": 5531,
      "5EF": 5532,
      "OVAL": 5533,
      "12A": 5534,
      "CO2": 5535,
      "POTTER": 5536,
      "MK17": 5537,
      "4JL": 5538,
      "1QD": 5539,
      "3LL": 5540,
      "616": 5541,
      "8AB": 5542,
      "JAN": 5543,
      "RIPON": 5544,
      "559": 5545,
      "MARGA": 5546,
      "3BP": 5547,
      "2HA": 5548,
      "9NA": 5549,
      "SBY": 5550,
      "33RD": 5551,
      "SP2": 5552,
      "COATBRIDGE": 5553,
      "1ER": 5554,
      "3AT": 5555,
      "TOT": 5556,
      "NE12": 5557,
      "THAME": 5558,
      "9AH": 5559,
      "2BS": 5560,
      "4QD": 5561,
      "COWBRIDGE": 5562,
      "BLYTH": 5563,
      "MONTGOMERY": 5564,
      "EDBROOKE": 5565,
      "SWEET": 5566,
      "1DG": 5567,
      "421": 5568,
      "HAPP": 5569,
      "LIGHT": 5570,
      "KINGSLEY": 5571,
      "DE65": 5572,
      "PE15": 5573,
      "2EW": 5574,
      "FRIES": 5575,
      "5EG": 5576,
      "9DU": 5577,
      "AL6": 5578,
      "OLNEY": 5579,
      "TW19": 5580,
      "OX7": 5581,
      "GREENBAY": 5582,
      "CT14": 5583,
      "DN11": 5584,
      "7AJ": 5585,
      "WIGSTON": 5586,
      "MINERVA": 5587,
      "1ES": 5588,
      "910": 5589,
      "CF72": 5590,
      "4DL": 5591,
      "FK8": 5592,
      "3AY": 5593,
      "5HJ": 5594,
      "ROOK": 5595,
      "IRON": 5596,
      "1AF": 5597,
      "3DL": 5598,
      "4LH": 5599,
      "4DB": 5600,
      "SWANLEY": 5601,
      "LATHROP": 5602,
      "ALPERTON": 5603,
      "LOAN": 5604,
      "BROKE": 5605,
      "5QY": 5606,
      "119TH": 5607,
      "8NF": 5608,
      "WAG": 5609,
      "TS23": 5610,
      "2BU": 5611,
      "8AN": 5612,
      "BOX": 5613,
      "60195": 5614,
      "512": 5615,
      "6DY": 5616,
      "6TA": 5617,
      "LE65": 5618,
      "CH44": 5619,
      "173RD": 5620,
      "LS13": 5621,
      "2DA": 5622,
      "3LA": 5623,
      "3BA": 5624,
      "3AU": 5625,
      "ILSHAM": 5626,
      "1BB": 5627,
      "GL20": 5628,
      "1BT": 5629,
      "WILLOWS": 5630,
      "TALBOT": 5631,
      "PHEASANT": 5632,
      "GREENHITHE": 5633,
      "TS25": 5634,
      "1NL": 5635,
      "9AQ": 5636,
      "2BD": 5637,
      "TOO": 5638,
      "1RS": 5639,
      "5AN": 5640,
      "PA4": 5641,
      "RANDOLPH": 5642,
      "CLAPHAM": 5643,
      "2LP": 5644,
      "PONTYCLUN": 5645,
      "1RE": 5646,
      "8NA": 5647,
      "37TH": 5648,
      "CT11": 5649,
      "STREATHAM": 5650,
      "260": 5651,
      "9PA": 5652,
      "2AX": 5653,
      "2LX": 5654,
      "2RU": 5655,
      "6ND": 5656,
      "DELA": 5657,
      "29TH": 5658,
      "3NB": 5659,
      "0DU": 5660,
      "0HQ": 5661,
      "1HP": 5662,
      "1SQ": 5663,
      "1HH": 5664,
      "7BA": 5665,
      "LS19": 5666,
      "GU46": 5667,
      "NRTH": 5668,
      "STONEHAVEN": 5669,
      "ISTON": 5670,
      "RESBOROUGH": 5671,
      "ABBY": 5672,
      "2JR": 5673,
      "6AH": 5674,
      "5AG": 5675,
      "5AJ": 5676,
      "3DZ": 5677,
      "KNARESBOROUGH": 5678,
      "2BA": 5679,
      "3TB": 5680,
      "RISBOROUGH": 5681,
      "RATT": 5682,
      "DEE": 5683,
      "KT21": 5684,
      "WILSHIRE": 5685,
      "2BG": 5686,
      "5DH": 5687,
      "7DQ": 5688,
      "IV30": 5689,
      "3RJ": 5690,
      "ARBOR": 5691,
      "CH48": 5692,
      "DE15": 5693,
      "LL11": 5694,
      "CM20": 5695,
      "WV13": 5696,
      "2HR": 5697,
      "2DJ": 5698,
      "2DX": 5699,
      "3AW": 5700,
      "5AD": 5701,
      "CHAU": 5702,
      "AB22": 5703,
      "RM2": 5704,
      "PL3": 5705,
      "3DP": 5706,
      "4NA": 5707,
      "9BA": 5708,
      "DA9": 5709,
      "SEAFORD": 5710,
      "2AJ": 5711,
      "4AF": 5712,
      "2LA": 5713,
      "FLA": 5714,
      "BARNS": 5715,
      "MORTON": 5716,
      "1LP": 5717,
      "3AN": 5718,
      "KT7": 5719,
      "DIX": 5720,
      "1BQ": 5721,
      "1AP": 5722,
      "TYD": 5723,
      "FY3": 5724,
      "ML5": 5725,
      "5BP": 5726,
      "417": 5727,
      "NTH": 5728,
      "TS7": 5729,
      "BH18": 5730,
      "WARNER": 5731,
      "LEITH": 5732,
      "CRAB": 5733,
      "1LJ": 5734,
      "1PB": 5735,
      "2RS": 5736,
      "7HP": 5737,
      "WABAN": 5738,
      "269": 5739,
      "DN17": 5740,
      "7JG": 5741,
      "521": 5742,
      "OSSETT": 5743,
      "1DP": 5744,
      "CORTEZ": 5745,
      "0AD": 5746,
      "6HJ": 5747,
      "5AE": 5748,
      "6BD": 5749,
      "HOLLYWOOD": 5750,
      "BN6": 5751,
      "CT10": 5752,
      "2AS": 5753,
      "9JA": 5754,
      "1DX": 5755,
      "6DP": 5756,
      "0PP": 5757,
      "8ED": 5758,
      "MOLD": 5759,
      "WAIN": 5760,
      "ME20": 5761,
      "SO45": 5762,
      "1JB": 5763,
      "1AG": 5764,
      "2JP": 5765,
      "5DJ": 5766,
      "5LJ": 5767,
      "HOCKLEY": 5768,
      "1EQ": 5769,
      "6EA": 5770,
      "KW": 5771,
      "BRIGG": 5772,
      "9JJ": 5773,
      "TURN": 5774,
      "BRETTELL": 5775,
      "1HA": 5776,
      "1SG": 5777,
      "1EG": 5778,
      "3DG": 5779,
      "7HH": 5780,
      "SK5": 5781,
      "2LD": 5782,
      "DELPHIA": 5783,
      "DUMFRIES": 5784,
      "2BY": 5785,
      "5AY": 5786,
      "COLA": 5787,
      "266": 5788,
      "275": 5789,
      "BN15": 5790,
      "2EE": 5791,
      "KINGSBURY": 5792,
      "1DL": 5793,
      "BBARD": 5794,
      "BALDOCK": 5795,
      "1EL": 5796,
      "5NT": 5797,
      "WARK": 5798,
      "3PY": 5799,
      "LYNDHURST": 5800,
      "BURLINGTON": 5801,
      "PO11": 5802,
      "CV35": 5803,
      "WARMINSTER": 5804,
      "SHEER": 5805,
      "AVONDALE": 5806,
      "419": 5807,
      "RINGHAM": 5808,
      "VO": 5809,
      "WESTHILL": 5810,
      "HAILSHAM": 5811,
      "HUTCHIN": 5812,
      "GREENFIELD": 5813,
      "WINTHROP": 5814,
      "NUM": 5815,
      "QUARRY": 5816,
      "611": 5817,
      "7DN": 5818,
      "8NN": 5819,
      "8DY": 5820,
      "EH52": 5821,
      "3AQ": 5822,
      "3BD": 5823,
      "2QB": 5824,
      "HALSTEAD": 5825,
      "6HA": 5826,
      "7DU": 5827,
      "ACTON": 5828,
      "HP15": 5829,
      "HP20": 5830,
      "9AS": 5831,
      "7DL": 5832,
      "0AN": 5833,
      "2DS": 5834,
      "5LE": 5835,
      "5NP": 5836,
      "630": 5837,
      "2AQ": 5838,
      "7JZ": 5839,
      "7DW": 5840,
      "WHEAT": 5841,
      "1LN": 5842,
      "3JP": 5843,
      "8AF": 5844,
      "2HT": 5845,
      "2EB": 5846,
      "FORESTVIEW": 5847,
      "HOLYWELL": 5848,
      "TYDFIL": 5849,
      "2HU": 5850,
      "430": 5851,
      "CRICK": 5852,
      "GINGER": 5853,
      "BURNUM": 5854,
      "CA28": 5855,
      "SK17": 5856,
      "CB25": 5857,
      "NP10": 5858,
      "8AX": 5859,
      "9JQ": 5860,
      "546": 5861,
      "5LY": 5862,
      "162ND": 5863,
      "DY13": 5864,
      "1JJ": 5865,
      "DOVE": 5866,
      "8BJ": 5867,
      "2RP": 5868,
      "2LL": 5869,
      "GIER": 5870,
      "ELYN": 5871,
      "PE12": 5872,
      "BN20": 5873,
      "3LP": 5874,
      "7DZ": 5875,
      "FIRST": 5876,
      "PULBOROUGH": 5877,
      "4EF": 5878,
      "9ER": 5879,
      "HESS": 5880,
      "ICA": 5881,
      "121ST": 5882,
      "BRK": 5883,
      "4JP": 5884,
      "2EX": 5885,
      "COPSE": 5886,
      "1BA": 5887,
      "1LY": 5888,
      "CIL": 5889,
      "WESTMINSTER": 5890,
      "CV9": 5891,
      "DN1": 5892,
      "7AH": 5893,
      "3LG": 5894,
      "TF3": 5895,
      "9LJ": 5896,
      "3EL": 5897,
      "LABURNUM": 5898,
      "1015": 5899,
      "6BB": 5900,
      "5PS": 5901,
      "GOLFVIEW": 5902,
      "1DU": 5903,
      "3EJ": 5904,
      "5BY": 5905,
      "920": 5906,
      "VERWOOD": 5907,
      "PPER": 5908,
      "1DY": 5909,
      "2UA": 5910,
      "268": 5911,
      "HUDSON": 5912,
      "5BX": 5913,
      "3DT": 5914,
      "FLEETWOOD": 5915,
      "WABANSIA": 5916,
      "3EP": 5917,
      "4EU": 5918,
      "ASPEN": 5919,
      "STLE": 5920,
      "OX18": 5921,
      "MK12": 5922,
      "PLAINFIELD": 5923,
      "1AN": 5924,
      "5BH": 5925,
      "SCAR": 5926,
      "INTON": 5927,
      "CHOL": 5928,
      "PL7": 5929,
      "HD7": 5930,
      "PENSA": 5931,
      "0LF": 5932,
      "CLAYTON": 5933,
      "1HG": 5934,
      "7BE": 5935,
      "CH66": 5936,
      "PE8": 5937,
      "HOLLOW": 5938,
      "1JU": 5939,
      "3JL": 5940,
      "EARL": 5941,
      "1LS": 5942,
      "3HA": 5943,
      "GEN": 5944,
      "MK46": 5945,
      "HD4": 5946,
      "7AF": 5947,
      "9PG": 5948,
      "356": 5949,
      "4ED": 5950,
      "NE9": 5951,
      "TEIGN": 5952,
      "MONTPEL": 5953,
      "7DB": 5954,
      "HOLMES": 5955,
      "MONTPELIER": 5956,
      "5HA": 5957,
      "1111": 5958,
      "ANY": 5959,
      "NN9": 5960,
      "8JA": 5961,
      "9QG": 5962,
      "8NB": 5963,
      "PE4": 5964,
      "WD5": 5965,
      "9NH": 5966,
      "1NW": 5967,
      "2NA": 5968,
      "WB": 5969,
      "ELLON": 5970,
      "KT14": 5971,
      "120TH": 5972,
      "NORH": 5973,
      "1JT": 5974,
      "HX2": 5975,
      "0DF": 5976,
      "EC2V": 5977,
      "PENSACOLA": 5978,
      "418": 5979,
      "530": 5980,
      "5LN": 5981,
      "8BH": 5982,
      "8EB": 5983,
      "9BH": 5984,
      "NE5": 5985,
      "NE25": 5986,
      "LS2": 5987,
      "WALTER": 5988,
      "MONTANA": 5989,
      "2PE": 5990,
      "BAG": 5991,
      "WR4": 5992,
      "BEDWORTH": 5993,
      "FLOUR": 5994,
      "STUART": 5995,
      "GIDDINGS": 5996,
      "5ED": 5997,
      "5HB": 5998,
      "SAXON": 5999,
      "175TH": 6000,
      "OLY": 6001,
      "PO22": 6002,
      "3JJ": 6003,
      "HERON": 6004,
      "8PJ": 6005,
      "6DT": 6006,
      "2EP": 6007,
      "3HQ": 6008,
      "161ST": 6009,
      "271": 6010,
      "MOYNE": 6011,
      "8AS": 6012,
      "3RN": 6013,
      "3ND": 6014,
      "7DR": 6015,
      "8EU": 6016,
      "GENE": 6017,
      "CM77": 6018,
      "BOUND": 6019,
      "7BX": 6020,
      "3HJ": 6021,
      "4ND": 6022,
      "5DR": 6023,
      "GUE": 6024,
      "MOUR": 6025,
      "BETH": 6026,
      "HU13": 6027,
      "4AJ": 6028,
      "HG5": 6029,
      "PADDOCK": 6030,
      "FLOURNOY": 6031,
      "3HL": 6032,
      "4EB": 6033,
      "5DS": 6034,
      "7HJ": 6035,
      "9EB": 6036,
      "MORN": 6037,
      "BR8": 6038,
      "PO31": 6039,
      "2JA": 6040,
      "7JL": 6041,
      "4PY": 6042,
      "FROD": 6043,
      "2ER": 6044,
      "4EY": 6045,
      "ZA": 6046,
      "SEDGE": 6047,
      "DRIDGE": 6048,
      "4AQ": 6049,
      "1101": 6050,
      "1LQ": 6051,
      "MISSENDEN": 6052,
      "3ES": 6053,
      "3PA": 6054,
      "AB21": 6055,
      "PHER": 6056,
      "9LF": 6057,
      "UMBER": 6058,
      "FK7": 6059,
      "514": 6060,
      "810": 6061,
      "LN11": 6062,
      "1QE": 6063,
      "BEAUMONT": 6064,
      "5EL": 6065,
      "1010": 6066,
      "144TH": 6067,
      "SKIN": 6068,
      "WR2": 6069,
      "WF8": 6070,
      "MILLER": 6071,
      "WATERSIDE": 6072,
      "3BW": 6073,
      "7AG": 6074,
      "PONT": 6075,
      "GENEVA": 6076,
      "519": 6077,
      "8SR": 6078,
      "INAL": 6079,
      "STRAND": 6080,
      "4EN": 6081,
      "517": 6082,
      "SOL": 6083,
      "1BJ": 6084,
      "KY1": 6085,
      "7PQ": 6086,
      "5NE": 6087,
      "WAND": 6088,
      "SOUTHAM": 6089,
      "1020": 6090,
      "GU11": 6091,
      "HEANOR": 6092,
      "3AP": 6093,
      "1NH": 6094,
      "2EG": 6095,
      "PARSON": 6096,
      "1LH": 6097,
      "2LJ": 6098,
      "4AW": 6099,
      "COLON": 6100,
      "OX9": 6101,
      "3JR": 6102,
      "9AP": 6103,
      "CHARTER": 6104,
      "9PD": 6105,
      "BROOMFIELD": 6106,
      "HUTCHINSON": 6107,
      "KELEY": 6108,
      "2AP": 6109,
      "8JG": 6110,
      "SIB": 6111,
      "2LE": 6112,
      "730": 6113,
      "NIS": 6114,
      "WR3": 6115,
      "CHAMBER": 6116,
      "1AQ": 6117,
      "2DT": 6118,
      "7LP": 6119,
      "CORNFORTH": 6120,
      "MANNHEIM": 6121,
      "2PH": 6122,
      "2PB": 6123,
      "4HU": 6124,
      "4EJ": 6125,
      "5DY": 6126,
      "UCH": 6127,
      "EC4": 6128,
      "9DT": 6129,
      "1SD": 6130,
      "2EN": 6131,
      "2BN": 6132,
      "4HA": 6133,
      "5SH": 6134,
      "5DD": 6135,
      "911": 6136,
      "1515": 6137,
      "154TH": 6138,
      "LOGAN": 6139,
      "PASTU": 6140,
      "8PD": 6141,
      "1HJ": 6142,
      "2SA": 6143,
      "2NE": 6144,
      "SO32": 6145,
      "7JN": 6146,
      "2ET": 6147,
      "7EG": 6148,
      "COLES": 6149,
      "1JP": 6150,
      "7BS": 6151,
      "8DT": 6152,
      "7LH": 6153,
      "COLUMBIA": 6154,
      "TEIGNMOUTH": 6155,
      "1HQ": 6156,
      "2AY": 6157,
      "4HT": 6158,
      "5BA": 6159,
      "6BY": 6160,
      "9EL": 6161,
      "FRY": 6162,
      "GNESS": 6163,
      "1115": 6164,
      "BN25": 6165,
      "DYKE": 6166,
      "6AE": 6167,
      "JOHNSON": 6168,
      "1HN": 6169,
      "KEND": 6170,
      "EC1A": 6171,
      "3JF": 6172,
      "2QP": 6173,
      "WILLIAMSBURG": 6174,
      "1SA": 6175,
      "1EW": 6176,
      "5PB": 6177,
      "6DD": 6178,
      "7HN": 6179,
      "PAD": 6180,
      "LE13": 6181,
      "BAKER": 6182,
      "WILM": 6183,
      "CB5": 6184,
      "4JB": 6185,
      "HERBERT": 6186,
      "6AQ": 6187,
      "2BX": 6188,
      "1RL": 6189,
      "1RP": 6190,
      "MEDILL": 6191,
      "8AU": 6192,
      "IES": 6193,
      "PICK": 6194,
      "HP27": 6195,
      "3JA": 6196,
      "8PN": 6197,
      "KIDLINGTON": 6198,
      "1BH": 6199,
      "4AL": 6200,
      "6HB": 6201,
      "9EJ": 6202,
      "MLEY": 6203,
      "ORAN": 6204,
      "CHIN": 6205,
      "CH63": 6206,
      "ELLY": 6207,
      "CV12": 6208,
      "BH7": 6209,
      "2LG": 6210,
      "HUNTERS": 6211,
      "1EA": 6212,
      "427": 6213,
      "6RE": 6214,
      "6RY": 6215,
      "6AU": 6216,
      "714": 6217,
      "SEWAY": 6218,
      "WS6": 6219,
      "2QD": 6220,
      "1501": 6221,
      "9BP": 6222,
      "2SH": 6223,
      "429": 6224,
      "4HE": 6225,
      "614": 6226,
      "8HG": 6227,
      "SEYMOUR": 6228,
      "KILN": 6229,
      "2JD": 6230,
      "1401": 6231,
      "SANDOWN": 6232,
      "7DP": 6233,
      "5PT": 6234,
      "FRODSHAM": 6235,
      "0HP": 6236,
      "3DN": 6237,
      "4EP": 6238,
      "618": 6239,
      "7EB": 6240,
      "8ND": 6241,
      "FZ": 6242,
      "ETTS": 6243,
      "267": 6244,
      "BACK": 6245,
      "RHYL": 6246,
      "RM5": 6247,
      "1JG": 6248,
      "5AX": 6249,
      "0NP": 6250,
      "2HL": 6251,
      "3ED": 6252,
      "5ND": 6253,
      "621": 6254,
      "XTED": 6255,
      "ISCOMBE": 6256,
      "PO33": 6257,
      "GU52": 6258,
      "COLLI": 6259,
      "3DF": 6260,
      "8DF": 6261,
      "CHAUCER": 6262,
      "1NS": 6263,
      "2DN": 6264,
      "3NA": 6265,
      "518": 6266,
      "7LY": 6267,
      "7EQ": 6268,
      "BRITT": 6269,
      "BUSSE": 6270,
      "8AP": 6271,
      "8AQ": 6272,
      "811": 6273,
      "9ET": 6274,
      "PIL": 6275,
      "PION": 6276,
      "1215": 6277,
      "LS14": 6278,
      "LL12": 6279,
      "HU10": 6280,
      "1001": 6281,
      "WILCOX": 6282,
      "1QT": 6283,
      "1LB": 6284,
      "8BD": 6285,
      "9DJ": 6286,
      "612": 6287,
      "7RA": 6288,
      "FRED": 6289,
      "1415": 6290,
      "BN17": 6291,
      "4QP": 6292,
      "4BD": 6293,
      "2DH": 6294,
      "3NJ": 6295,
      "7EN": 6296,
      "9ES": 6297,
      "921": 6298,
      "CALL": 6299,
      "ERBY": 6300,
      "CH65": 6301,
      "RAIL": 6302,
      "COLWYN": 6303,
      "SO21": 6304,
      "CARDINAL": 6305,
      "KATH": 6306,
      "SKEGNESS": 6307,
      "1DE": 6308,
      "424": 6309,
      "7AD": 6310,
      "CH64": 6311,
      "1420": 6312,
      "MONMOUTH": 6313,
      "PH2": 6314,
      "9JE": 6315,
      "CROSSING": 6316,
      "4LB": 6317,
      "BILLING": 6318,
      "KNIGHTS": 6319,
      "1SL": 6320,
      "1NU": 6321,
      "2HP": 6322,
      "7DY": 6323,
      "Ea": 6324,
      "BH4": 6325,
      "9DH": 6326,
      "VAIL": 6327,
      "East": 6328,
      "527": 6329,
      "8DN": 6330,
      "8AY": 6331,
      "NORTHUMBER": 6332,
      "VERE": 6333,
      "164TH": 6334,
      "131ST": 6335,
      "SS16": 6336,
      "DN16": 6337,
      "CW7": 6338,
      "6JG": 6339,
      "3LF": 6340,
      "8BL": 6341,
      "8DX": 6342,
      "NORTHUMBERLAND": 6343,
      "2PU": 6344,
      "619": 6345,
      "1110": 6346,
      "HACK": 6347,
      "AB32": 6348,
      "DN36": 6349,
      "1JW": 6350,
      "4JH": 6351,
      "CRAIN": 6352,
      "8PG": 6353,
      "4DW": 6354,
      "THIRD": 6355,
      "SAUK": 6356,
      "1HY": 6357,
      "5EB": 6358,
      "6AD": 6359,
      "7DE": 6360,
      "7EH": 6361,
      "AL9": 6362,
      "451": 6363,
      "AB41": 6364,
      "CREGIER": 6365,
      "TRAFAL": 6366,
      "4LG": 6367,
      "TRAFALGAR": 6368,
      "1ND": 6369,
      "4EA": 6370,
      "816": 6371,
      "8LN": 6372,
      "LLAND": 6373,
      "1410": 6374,
      "2JL": 6375,
      "3JH": 6376,
      "3RB": 6377,
      "KINS": 6378,
      "LEONARD": 6379,
      "4DU": 6380,
      "6HR": 6381,
      "9AL": 6382,
      "455": 6383,
      "8JP": 6384,
      "716": 6385,
      "df": 6386,
      "NE7": 6387,
      "RALEIGH": 6388,
      "ord": 6389,
      "SL0": 6390,
      "RH20": 6391,
      "Bedf": 6392,
      "PERSHORE": 6393,
      "9AJ": 6394,
      "0JJ": 6395,
      "2LB": 6396,
      "Bedford": 6397,
      "2AR": 6398,
      "4NP": 6399,
      "640": 6400,
      "7AY": 6401,
      "WA6": 6402,
      "LL18": 6403,
      "361": 6404,
      "BUL": 6405,
      "STONEY": 6406,
      "3JY": 6407,
      "4JA": 6408,
      "2QH": 6409,
      "GODSTONE": 6410,
      "TANGLEWOOD": 6411,
      "LAKESIDE": 6412,
      "SHEERNESS": 6413,
      "3HF": 6414,
      "718": 6415,
      "BEAM": 6416,
      "SCHILL": 6417,
      "4JT": 6418,
      "1QG": 6419,
      "2BB": 6420,
      "3NX": 6421,
      "ENTERPRI": 6422,
      "1EP": 6423,
      "1HB": 6424,
      "3HP": 6425,
      "4EE": 6426,
      "7AU": 6427,
      "DE6": 6428,
      "5JF": 6429,
      "2BP": 6430,
      "0LW": 6431,
      "WANTAGE": 6432,
      "721": 6433,
      "9LA": 6434,
      "GOU": 6435,
      "WALLER": 6436,
      "CARROLL": 6437,
      "ROSEDALE": 6438,
      "3QA": 6439,
      "9QP": 6440,
      "6LD": 6441,
      "7NX": 6442,
      "1HE": 6443,
      "3AL": 6444,
      "3DU": 6445,
      "7QU": 6446,
      "8HS": 6447,
      "ONGAR": 6448,
      "1025": 6449,
      "FITZ": 6450,
      "RUTLAND": 6451,
      "7AZ": 6452,
      "4BX": 6453,
      "BANKS": 6454,
      "ENTERPRISE": 6455,
      "0AY": 6456,
      "635": 6457,
      "CRI": 6458,
      "ISA": 6459,
      "CH60": 6460,
      "DN3": 6461,
      "HP14": 6462,
      "RAYMOND": 6463,
      "8AG": 6464,
      "2HF": 6465,
      "6BG": 6466,
      "8PT": 6467,
      "CHATSWORTH": 6468,
      "2NN": 6469,
      "2NU": 6470,
      "2AU": 6471,
      "3LU": 6472,
      "3HS": 6473,
      "4NS": 6474,
      "DUL": 6475,
      "SLA": 6476,
      "LEWIS": 6477,
      "SHORT": 6478,
      "PLAND": 6479,
      "BA3": 6480,
      "3JE": 6481,
      "9QJ": 6482,
      "DUNTON": 6483,
      "2PD": 6484,
      "NICHOL": 6485,
      "6NL": 6486,
      "2RD": 6487,
      "5DG": 6488,
      "8EA": 6489,
      "SS11": 6490,
      "OX17": 6491,
      "CHAP": 6492,
      "5DW": 6493,
      "SPINNEY": 6494,
      "4NU": 6495,
      "916": 6496,
      "NE61": 6497,
      "PE13": 6498,
      "LL30": 6499,
      "TR11": 6500,
      "2JH": 6501,
      "3JW": 6502,
      "2PS": 6503,
      "PEACE": 6504,
      "2DD": 6505,
      "3NW": 6506,
      "3HD": 6507,
      "4PP": 6508,
      "9AT": 6509,
      "9NW": 6510,
      "ME17": 6511,
      "EH5": 6512,
      "NN13": 6513,
      "ABERDARE": 6514,
      "5AP": 6515,
      "7AP": 6516,
      "7DT": 6517,
      "0NY": 6518,
      "6DS": 6519,
      "BERKELEY": 6520,
      "CT2": 6521,
      "CORON": 6522,
      "3JB": 6523,
      "6AZ": 6524,
      "BONNY": 6525,
      "3EN": 6526,
      "3EX": 6527,
      "4LA": 6528,
      "4RA": 6529,
      "4PA": 6530,
      "NAV": 6531,
      "UPTON": 6532,
      "273": 6533,
      "SKOK": 6534,
      "3JD": 6535,
      "1301": 6536,
      "8AZ": 6537,
      "4QA": 6538,
      "8QA": 6539,
      "413": 6540,
      "4AY": 6541,
      "5AU": 6542,
      "5HR": 6543,
      "6LE": 6544,
      "9HB": 6545,
      "STALL": 6546,
      "ENNA": 6547,
      "1220": 6548,
      "HARRY": 6549,
      "AKER": 6550,
      "1BP": 6551,
      "3QF": 6552,
      "3DX": 6553,
      "6NE": 6554,
      "8HX": 6555,
      "SOW": 6556,
      "BRICK": 6557,
      "GU24": 6558,
      "DN31": 6559,
      "2NL": 6560,
      "2BQ": 6561,
      "2HH": 6562,
      "0AH": 6563,
      "9XT": 6564,
      "MARGARET": 6565,
      "1PH": 6566,
      "1DS": 6567,
      "428": 6568,
      "4NT": 6569,
      "821": 6570,
      "AGAT": 6571,
      "1315": 6572,
      "OL3": 6573,
      "BRUM": 6574,
      "AB39": 6575,
      "9JT": 6576,
      "2PJ": 6577,
      "2PN": 6578,
      "9BQ": 6579,
      "6PN": 6580,
      "LIVERPOOL": 6581,
      "AGATITE": 6582,
      "440": 6583,
      "4HS": 6584,
      "724": 6585,
      "8EN": 6586,
      "YST": 6587,
      "COND": 6588,
      "1AS": 6589,
      "8BX": 6590,
      "3ER": 6591,
      "3DD": 6592,
      "513": 6593,
      "10A": 6594,
      "SS5": 6595,
      "GU33": 6596,
      "1AZ": 6597,
      "8JD": 6598,
      "9LD": 6599,
      "1AU": 6600,
      "7HG": 6601,
      "8LE": 6602,
      "9DE": 6603,
      "SEDG": 6604,
      "28TH": 6605,
      "CLEAN": 6606,
      "STANTON": 6607,
      "8BG": 6608,
      "2PQ": 6609,
      "FK10": 6610,
      "5LB": 6611,
      "9DL": 6612,
      "1EJ": 6613,
      "4HR": 6614,
      "6HF": 6615,
      "7EX": 6616,
      "SHEFFORD": 6617,
      "FERDIN": 6618,
      "5BJ": 6619,
      "8BW": 6620,
      "DALKEITH": 6621,
      "DIXIE": 6622,
      "FERDINAND": 6623,
      "1600": 6624,
      "1BY": 6625,
      "1BN": 6626,
      "4HJ": 6627,
      "6DG": 6628,
      "7LA": 6629,
      "717": 6630,
      "8AL": 6631,
      "8BU": 6632,
      "BLANE": 6633,
      "STOWN": 6634,
      "SOUTHWARK": 6635,
      "ME3": 6636,
      "TS19": 6637,
      "HOLBORN": 6638,
      "1BX": 6639,
      "6QQ": 6640,
      "4BG": 6641,
      "9BS": 6642,
      "0LQ": 6643,
      "SKOKIE": 6644,
      "4HD": 6645,
      "5AW": 6646,
      "6ED": 6647,
      "624": 6648,
      "7ES": 6649,
      "814": 6650,
      "LAUR": 6651,
      "1NZ": 6652,
      "8JH": 6653,
      "1LG": 6654,
      "ERIDGE": 6655,
      "422": 6656,
      "9PE": 6657,
      "4BP": 6658,
      "BIRMINGHAM": 6659,
      "4LT": 6660,
      "8LG": 6661,
      "7RB": 6662,
      "MUNSTER": 6663,
      "3EE": 6664,
      "423": 6665,
      "4BH": 6666,
      "5LL": 6667,
      "ALLOA": 6668,
      "BN27": 6669,
      "2JT": 6670,
      "4JJ": 6671,
      "0AU": 6672,
      "4AR": 6673,
      "4AU": 6674,
      "5HH": 6675,
      "9NN": 6676,
      "LAC": 6677,
      "272": 6678,
      "ROWAN": 6679,
      "SP5": 6680,
      "3BJ": 6681,
      "5BS": 6682,
      "4NL": 6683,
      "ALEXANDER": 6684,
      "0AB": 6685,
      "1HU": 6686,
      "3NP": 6687,
      "712": 6688,
      "1225": 6689,
      "BN22": 6690,
      "3LB": 6691,
      "TALCOTT": 6692,
      "GRAS": 6693,
      "MURRAY": 6694,
      "6LA": 6695,
      "819": 6696,
      "9HE": 6697,
      "DE73": 6698,
      "BA21": 6699,
      "EC4Y": 6700,
      "2NF": 6701,
      "7QL": 6702,
      "2DW": 6703,
      "7LR": 6704,
      "5EY": 6705,
      "917": 6706,
      "9HQ": 6707,
      "1510": 6708,
      "LS20": 6709,
      "IAC": 6710,
      "4JE": 6711,
      "DUNBLANE": 6712,
      "SIBLEY": 6713,
      "1QU": 6714,
      "2EH": 6715,
      "2LN": 6716,
      "426": 6717,
      "153RD": 6718,
      "PO3": 6719,
      "PA3": 6720,
      "SO17": 6721,
      "3JN": 6722,
      "3DJ": 6723,
      "4PG": 6724,
      "6DQ": 6725,
      "0AW": 6726,
      "8EY": 6727,
      "ROTHER": 6728,
      "NE24": 6729,
      "274": 6730,
      "HP7": 6731,
      "3JX": 6732,
      "5JY": 6733,
      "2BW": 6734,
      "9QH": 6735,
      "ADDISCOMBE": 6736,
      "COPPICE": 6737,
      "1EU": 6738,
      "617": 6739,
      "7DA": 6740,
      "7HR": 6741,
      "9HN": 6742,
      "DODGE": 6743,
      "1425": 6744,
      "4JU": 6745,
      "HX6": 6746,
      "PONTYPOOL": 6747,
      "1AY": 6748,
      "1EF": 6749,
      "2NG": 6750,
      "3EY": 6751,
      "4NN": 6752,
      "5NA": 6753,
      "6SG": 6754,
      "7EW": 6755,
      "9LS": 6756,
      "DEA": 6757,
      "1520": 6758,
      "1320": 6759,
      "WA12": 6760,
      "CA2": 6761,
      "4LD": 6762,
      "4LF": 6763,
      "8DL": 6764,
      "RADSTOCK": 6765,
      "6AN": 6766,
      "6AB": 6767,
      "9BE": 6768,
      "9GD": 6769,
      "DWELL": 6770,
      "LEEN": 6771,
      "SUFFIELD": 6772,
      "4JF": 6773,
      "6AP": 6774,
      "3LZ": 6775,
      "PART": 6776,
      "7LQ": 6777,
      "0DJ": 6778,
      "138TH": 6779,
      "5NB": 6780,
      "168TH": 6781,
      "1BU": 6782,
      "1SY": 6783,
      "2AT": 6784,
      "3DR": 6785,
      "6AT": 6786,
      "8LA": 6787,
      "LOTTE": 6788,
      "36TH": 6789,
      "HR1": 6790,
      "0AZ": 6791,
      "0BD": 6792,
      "1900": 6793,
      "830": 6794,
      "8BA": 6795,
      "STUR": 6796,
      "BASS": 6797,
      "HU16": 6798,
      "CF15": 6799,
      "HP16": 6800,
      "TS1": 6801,
      "PL25": 6802,
      "BLACKWOOD": 6803,
      "SANDRINGHAM": 6804,
      "8BQ": 6805,
      "1DF": 6806,
      "7LG": 6807,
      "1LE": 6808,
      "1120": 6809,
      "SECOND": 6810,
      "2JJ": 6811,
      "ML11": 6812,
      "2RJ": 6813,
      "CHARLOTTE": 6814,
      "740": 6815,
      "8ES": 6816,
      "912": 6817,
      "9NP": 6818,
      "AP": 6819,
      "CHAD": 6820,
      "14A": 6821,
      "CO9": 6822,
      "NEWARK": 6823,
      "CV47": 6824,
      "42ND": 6825,
      "BH31": 6826,
      "TR7": 6827,
      "WDLEY": 6828,
      "CORNW": 6829,
      "1QL": 6830,
      "THORNDALE": 6831,
      "6PF": 6832,
      "GRASS": 6833,
      "COLDHARBOUR": 6834,
      "3PP": 6835,
      "6LU": 6836,
      "ME12": 6837,
      "SGOW": 6838,
      "FERNDALE": 6839,
      "7BG": 6840,
      "RIEFF": 6841,
      "9LH": 6842,
      "0DZ": 6843,
      "PATRI": 6844,
      "GLASGOW": 6845,
      "8HL": 6846,
      "9HW": 6847,
      "DRURY": 6848,
      "4AH": 6849,
      "5AF": 6850,
      "4DH": 6851,
      "9BD": 6852,
      "7PG": 6853,
      "3PS": 6854,
      "1RD": 6855,
      "2TH": 6856,
      "3LS": 6857,
      "4DD": 6858,
      "5PA": 6859,
      "636": 6860,
      "ATH": 6861,
      "BARK": 6862,
      "1310": 6863,
      "ABERG": 6864,
      "MIDDLETON": 6865,
      "9DB": 6866,
      "3EG": 6867,
      "7HT": 6868,
      "8LS": 6869,
      "8LL": 6870,
      "ACA": 6871,
      "1011": 6872,
      "1620": 6873,
      "1JA": 6874,
      "117TH": 6875,
      "1DW": 6876,
      "8DB": 6877,
      "4NJ": 6878,
      "QUINCY": 6879,
      "540": 6880,
      "GEL": 6881,
      "5QF": 6882,
      "4LP": 6883,
      "4DX": 6884,
      "6LX": 6885,
      "1ET": 6886,
      "1NN": 6887,
      "3HB": 6888,
      "4LL": 6889,
      "4BN": 6890,
      "5BE": 6891,
      "KIM": 6892,
      "291": 6893,
      "BEWDLEY": 6894,
      "1NA": 6895,
      "NP4": 6896,
      "WV16": 6897,
      "9JU": 6898,
      "1LD": 6899,
      "6BL": 6900,
      "2RL": 6901,
      "CHARLTON": 6902,
      "9NB": 6903,
      "TIMORE": 6904,
      "1AW": 6905,
      "2DE": 6906,
      "547": 6907,
      "817": 6908,
      "276": 6909,
      "1005": 6910,
      "3JU": 6911,
      "1QH": 6912,
      "5AQ": 6913,
      "5BZ": 6914,
      "0DH": 6915,
      "9NJ": 6916,
      "5HN": 6917,
      "5EU": 6918,
      "7PA": 6919,
      "824": 6920,
      "8TA": 6921,
      "EH13": 6922,
      "BH10": 6923,
      "WEIR": 6924,
      "2NJ": 6925,
      "2EZ": 6926,
      "HR4": 6927,
      "4BQ": 6928,
      "ADDOW": 6929,
      "1PN": 6930,
      "9NL": 6931,
      "1SS": 6932,
      "2LS": 6933,
      "4LY": 6934,
      "4HB": 6935,
      "5NG": 6936,
      "VL": 6937,
      "CHORY": 6938,
      "DA6": 6939,
      "NEWLANDS": 6940,
      "BANCHORY": 6941,
      "2JE": 6942,
      "6JP": 6943,
      "4QL": 6944,
      "2300": 6945,
      "1RZ": 6946,
      "CADIA": 6947,
      "2AN": 6948,
      "2RA": 6949,
      "2AW": 6950,
      "2HG": 6951,
      "3BU": 6952,
      "719": 6953,
      "7BH": 6954,
      "7PB": 6955,
      "7SJ": 6956,
      "8EE": 6957,
      "BLU": 6958,
      "NESTON": 6959,
      "SHEN": 6960,
      "DE75": 6961,
      "PL9": 6962,
      "2JU": 6963,
      "2NR": 6964,
      "SHERWIN": 6965,
      "2BJ": 6966,
      "3LR": 6967,
      "8QD": 6968,
      "2LH": 6969,
      "2LQ": 6970,
      "8DW": 6971,
      "CAUSEWAY": 6972,
      "2ES": 6973,
      "4AT": 6974,
      "5EH": 6975,
      "5LU": 6976,
      "GU8": 6977,
      "LYDNEY": 6978,
      "KINGFISHER": 6979,
      "WR10": 6980,
      "5JB": 6981,
      "9QZ": 6982,
      "8QZ": 6983,
      "1PX": 6984,
      "HELEN": 6985,
      "0BJ": 6986,
      "3PJ": 6987,
      "3NH": 6988,
      "OLYMP": 6989,
      "PEACEHAVEN": 6990,
      "1HL": 6991,
      "2HE": 6992,
      "3HN": 6993,
      "4EH": 6994,
      "7PL": 6995,
      "9HD": 6996,
      "9HR": 6997,
      "1414": 6998,
      "WOTTON": 6999,
      "LL13": 7000,
      "0QB": 7001,
      "8LB": 7002,
      "4RF": 7003,
      "5PG": 7004,
      "BORDON": 7005,
      "PEACH": 7006,
      "1AT": 7007,
      "2HD": 7008,
      "3DY": 7009,
      "6SB": 7010,
      "736": 7011,
      "735": 7012,
      "8RE": 7013,
      "919": 7014,
      "9HU": 7015,
      "9HP": 7016,
      "SAGE": 7017,
      "BA12": 7018,
      "EC1Y": 7019,
      "CW10": 7020,
      "2NY": 7021,
      "9AG": 7022,
      "9YQ": 7023,
      "1PL": 7024,
      "3LE": 7025,
      "3HT": 7026,
      "4TR": 7027,
      "6EG": 7028,
      "7NA": 7029,
      "812": 7030,
      "8DU": 7031,
      "HIL": 7032,
      "1BW": 7033,
      "1QB": 7034,
      "2DL": 7035,
      "0AG": 7036,
      "3DS": 7037,
      "6NP": 7038,
      "9PB": 7039,
      "9HH": 7040,
      "WHY": 7041,
      "2LT": 7042,
      "1PD": 7043,
      "4RB": 7044,
      "ROLD": 7045,
      "BRUMMEL": 7046,
      "2BH": 7047,
      "4SG": 7048,
      "5LA": 7049,
      "5HT": 7050,
      "7DG": 7051,
      "8TP": 7052,
      "918": 7053,
      "1421": 7054,
      "ITAGE": 7055,
      "PA2": 7056,
      "CARTER": 7057,
      "3AZ": 7058,
      "BROOKFIELD": 7059,
      "HERITAGE": 7060,
      "HEATHFIELD": 7061,
      "2QW": 7062,
      "BRACKEN": 7063,
      "5DB": 7064,
      "NICOTT": 7065,
      "9BJ": 7066,
      "7RP": 7067,
      "LAUDER": 7068,
      "1PA": 7069,
      "3RA": 7070,
      "4ET": 7071,
      "529": 7072,
      "6EP": 7073,
      "914": 7074,
      "WESTRY": 7075,
      "151ST": 7076,
      "277": 7077,
      "KEEN": 7078,
      "BRG": 7079,
      "WARLINGHAM": 7080,
      "CONNAU": 7081,
      "CB3": 7082,
      "SYL": 7083,
      "8JR": 7084,
      "9AZ": 7085,
      "3DW": 7086,
      "GARRATT": 7087,
      "1PJ": 7088,
      "OSWESTRY": 7089,
      "CHALFONT": 7090,
      "BOLTON": 7091,
      "3ET": 7092,
      "4AX": 7093,
      "1QJ": 7094,
      "3BG": 7095,
      "TF7": 7096,
      "9LG": 7097,
      "2PW": 7098,
      "WALKER": 7099,
      "5AR": 7100,
      "526": 7101,
      "9DR": 7102,
      "94TH": 7103,
      "ROME": 7104,
      "COBB": 7105,
      "KENNICOTT": 7106,
      "1JX": 7107,
      "3QN": 7108,
      "WAREHAM": 7109,
      "4BJ": 7110,
      "6BS": 7111,
      "5NJ": 7112,
      "169TH": 7113,
      "CRABTREE": 7114,
      "BES": 7115,
      "1112": 7116,
      "1116": 7117,
      "SHOTT": 7118,
      "BN10": 7119,
      "41ST": 7120,
      "BUTE": 7121,
      "1JS": 7122,
      "8JX": 7123,
      "3BS": 7124,
      "6AJ": 7125,
      "PARC": 7126,
      "8QB": 7127,
      "2DZ": 7128,
      "7DJ": 7129,
      "KATHLEEN": 7130,
      "5NS": 7131,
      "7ND": 7132,
      "7BN": 7133,
      "CM19": 7134,
      "6JE": 7135,
      "3QD": 7136,
      "2EY": 7137,
      "WAVERLEY": 7138,
      "3NT": 7139,
      "4LE": 7140,
      "9BY": 7141,
      "RAV": 7142,
      "1430": 7143,
      "SWAL": 7144,
      "BN13": 7145,
      "CF38": 7146,
      "LILAC": 7147,
      "4LR": 7148,
      "2PY": 7149,
      "6DX": 7150,
      "2PA": 7151,
      "3TZ": 7152,
      "9LN": 7153,
      "EER": 7154,
      "BERY": 7155,
      "BERWICK": 7156,
      "RH5": 7157,
      "2JN": 7158,
      "3DB": 7159,
      "TF10": 7160,
      "4BS": 7161,
      "1DT": 7162,
      "CONNAUGHT": 7163,
      "0AL": 7164,
      "4DE": 7165,
      "4DS": 7166,
      "4NG": 7167,
      "6LY": 7168,
      "8EH": 7169,
      "YEW": 7170,
      "OUND": 7171,
      "ARDMORE": 7172,
      "DEEP": 7173,
      "SG7": 7174,
      "1105": 7175,
      "6JA": 7176,
      "CIFI": 7177,
      "TOTNES": 7178,
      "1ED": 7179,
      "3BH": 7180,
      "UTI": 7181,
      "1511": 7182,
      "4JN": 7183,
      "2HB": 7184,
      "7DF": 7185,
      "CORNWALL": 7186,
      "5PP": 7187,
      "6LN": 7188,
      "7EE": 7189,
      "BRIN": 7190,
      "OX12": 7191,
      "KENLEY": 7192,
      "HD5": 7193,
      "9QA": 7194,
      "6QA": 7195,
      "5LT": 7196,
      "6LR": 7197,
      "1NT": 7198,
      "4SA": 7199,
      "6BU": 7200,
      "BINE": 7201,
      "AVENNY": 7202,
      "1221": 7203,
      "DN20": 7204,
      "1BL": 7205,
      "SYDENHAM": 7206,
      "9JR": 7207,
      "5BG": 7208,
      "2LW": 7209,
      "FK15": 7210,
      "8RJ": 7211,
      "4SL": 7212,
      "4PH": 7213,
      "5AT": 7214,
      "5PR": 7215,
      "5TN": 7216,
      "RIGG": 7217,
      "281": 7218,
      "PO30": 7219,
      "CB10": 7220,
      "1108": 7221,
      "4JW": 7222,
      "SHERMER": 7223,
      "2LF": 7224,
      "1DJ": 7225,
      "COTTON": 7226,
      "9BG": 7227,
      "5LF": 7228,
      "9DP": 7229,
      "OSBORNE": 7230,
      "BRAINARD": 7231,
      "1RY": 7232,
      "930": 7233,
      "SG17": 7234,
      "5JJ": 7235,
      "5JT": 7236,
      "7QH": 7237,
      "5LR": 7238,
      "0AX": 7239,
      "2DG": 7240,
      "2HY": 7241,
      "4PE": 7242,
      "5EN": 7243,
      "6ER": 7244,
      "6AR": 7245,
      "60661": 7246,
      "INCH": 7247,
      "EC3N": 7248,
      "9JF": 7249,
      "1LW": 7250,
      "8DH": 7251,
      "BOUNDARY": 7252,
      "ABERGAVENNY": 7253,
      "0NE": 7254,
      "1HS": 7255,
      "722": 7256,
      "9HX": 7257,
      "BDGE": 7258,
      "1820": 7259,
      "WAYS": 7260,
      "AB31": 7261,
      "GL15": 7262,
      "2JS": 7263,
      "THORNWOOD": 7264,
      "JOHNSTONE": 7265,
      "0LR": 7266,
      "TOOTING": 7267,
      "4RH": 7268,
      "1016": 7269,
      "1417": 7270,
      "ITA": 7271,
      "CLEAR": 7272,
      "PERS": 7273,
      "MILLBROOK": 7274,
      "9QE": 7275,
      "0LH": 7276,
      "SERVE": 7277,
      "CORONATION": 7278,
      "1DR": 7279,
      "2TW": 7280,
      "5ES": 7281,
      "7NS": 7282,
      "818": 7283,
      "9EH": 7284,
      "SS3": 7285,
      "MONTA": 7286,
      "BN16": 7287,
      "2QT": 7288,
      "9BT": 7289,
      "6LF": 7290,
      "9PX": 7291,
      "0HD": 7292,
      "522": 7293,
      "16A": 7294,
      "OLM": 7295,
      "LOSS": 7296,
      "BURLING": 7297,
      "278": 7298,
      "ROSEWOOD": 7299,
      "4JR": 7300,
      "8BT": 7301,
      "SHELLEY": 7302,
      "SOWERBY": 7303,
      "8HZ": 7304,
      "CIN": 7305,
      "1615": 7306,
      "WAI": 7307,
      "KEM": 7308,
      "GU35": 7309,
      "CLER": 7310,
      "CANFIELD": 7311,
      "OMIN": 7312,
      "1QA": 7313,
      "5BL": 7314,
      "2DQ": 7315,
      "5DF": 7316,
      "2RG": 7317,
      "NORMANTON": 7318,
      "DURSLEY": 7319,
      "GILBERT": 7320,
      "COPPER": 7321,
      "3HY": 7322,
      "7HD": 7323,
      "9AN": 7324,
      "9AY": 7325,
      "LYMAN": 7326,
      "WHISPER": 7327,
      "2JX": 7328,
      "8QQ": 7329,
      "7QB": 7330,
      "7QT": 7331,
      "HOWE": 7332,
      "LYNWOOD": 7333,
      "4EX": 7334,
      "6DR": 7335,
      "1030": 7336,
      "142ND": 7337,
      "1325": 7338,
      "DA3": 7339,
      "PE14": 7340,
      "BROW": 7341,
      "BH2": 7342,
      "8JE": 7343,
      "JOY": 7344,
      "9DW": 7345,
      "SWALLOW": 7346,
      "2TB": 7347,
      "3HZ": 7348,
      "8W": 7349,
      "8HF": 7350,
      "GTE": 7351,
      "1411": 7352,
      "RASEN": 7353,
      "STERLING": 7354,
      "2EU": 7355,
      "5QL": 7356,
      "5DP": 7357,
      "5PN": 7358,
      "PALM": 7359,
      "3PH": 7360,
      "3SY": 7361,
      "7ET": 7362,
      "7HB": 7363,
      "8EJ": 7364,
      "STY": 7365,
      "CH49": 7366,
      "HIGHER": 7367,
      "CT19": 7368,
      "2NH": 7369,
      "6JX": 7370,
      "7BW": 7371,
      "6BW": 7372,
      "GLASTON": 7373,
      "HESSLE": 7374,
      "WILMETTE": 7375,
      "0ND": 7376,
      "0BA": 7377,
      "0DG": 7378,
      "1HF": 7379,
      "5DN": 7380,
      "5UA": 7381,
      "6EB": 7382,
      "9NY": 7383,
      "SOUTHWEST": 7384,
      "WESTBOURNE": 7385,
      "MK44": 7386,
      "8JJ": 7387,
      "5JG": 7388,
      "3QR": 7389,
      "4BB": 7390,
      "8RB": 7391,
      "THISTLE": 7392,
      "0EG": 7393,
      "0HF": 7394,
      "550": 7395,
      "1625": 7396,
      "WF9": 7397,
      "8JN": 7398,
      "7JD": 7399,
      "2LR": 7400,
      "0DL": 7401,
      "5HQ": 7402,
      "6BE": 7403,
      "6EJ": 7404,
      "7DD": 7405,
      "9SP": 7406,
      "9HL": 7407,
      "ISBOROUGH": 7408,
      "WYTH": 7409,
      "1109": 7410,
      "5JH": 7411,
      "PENNY": 7412,
      "5QQ": 7413,
      "8BP": 7414,
      "4LZ": 7415,
      "2PT": 7416,
      "8RX": 7417,
      "6PQ": 7418,
      "JEROME": 7419,
      "PARTRIDGE": 7420,
      "3PE": 7421,
      "3NG": 7422,
      "5HY": 7423,
      "622": 7424,
      "8DR": 7425,
      "8HQ": 7426,
      "1021": 7427,
      "1311": 7428,
      "CR6": 7429,
      "PACIFI": 7430,
      "HP18": 7431,
      "COTTINGHAM": 7432,
      "1QR": 7433,
      "2NQ": 7434,
      "5JQ": 7435,
      "PACIFIC": 7436,
      "3RS": 7437,
      "650": 7438,
      "822": 7439,
      "SAR": 7440,
      "1920": 7441,
      "SSEN": 7442,
      "TA2": 7443,
      "1NR": 7444,
      "1QN": 7445,
      "9QQ": 7446,
      "TQ3": 7447,
      "7BZ": 7448,
      "LUDLOW": 7449,
      "9LU": 7450,
      "GAY": 7451,
      "282": 7452,
      "PE26": 7453,
      "BARROW": 7454,
      "SCHER": 7455,
      "4JD": 7456,
      "5LW": 7457,
      "6LH": 7458,
      "8LH": 7459,
      "5NQ": 7460,
      "4DR": 7461,
      "5NR": 7462,
      "7BY": 7463,
      "9SB": 7464,
      "THACK": 7465,
      "1440": 7466,
      "1521": 7467,
      "RASCHER": 7468,
      "OLDFIELD": 7469,
      "LESLEY": 7470,
      "5JL": 7471,
      "3LT": 7472,
      "3QE": 7473,
      "4LJ": 7474,
      "6DL": 7475,
      "9BZ": 7476,
      "0QE": 7477,
      "8LQ": 7478,
      "SAWBRIDGE": 7479,
      "7PP": 7480,
      "9EU": 7481,
      "VUE": 7482,
      "1416": 7483,
      "287": 7484,
      "HIAWA": 7485,
      "SLADE": 7486,
      "BLAN": 7487,
      "5PJ": 7488,
      "GLASTONBURY": 7489,
      "HIAWATHA": 7490,
      "2NS": 7491,
      "5ER": 7492,
      "626": 7493,
      "631": 7494,
      "1621": 7495,
      "CF32": 7496,
      "OAKLANDS": 7497,
      "9JY": 7498,
      "2BZ": 7499,
      "1LF": 7500,
      "5LH": 7501,
      "HENLEY": 7502,
      "SAWBRIDGEWORTH": 7503,
      "823": 7504,
      "EFF": 7505,
      "WESTER": 7506,
      "1014": 7507,
      "GRESHAM": 7508,
      "WREN": 7509,
      "6JZ": 7510,
      "3QW": 7511,
      "3QX": 7512,
      "9LQ": 7513,
      "9PT": 7514,
      "0AE": 7515,
      "BUTTERFIELD": 7516,
      "1SP": 7517,
      "4EL": 7518,
      "9PP": 7519,
      "285": 7520,
      "POST": 7521,
      "PA16": 7522,
      "WINDER": 7523,
      "RICHARD": 7524,
      "1107": 7525,
      "HG4": 7526,
      "TF9": 7527,
      "SHOE": 7528,
      "0RY": 7529,
      "3EW": 7530,
      "6NU": 7531,
      "9EN": 7532,
      "9EA": 7533,
      "1321": 7534,
      "284": 7535,
      "GL6": 7536,
      "8JL": 7537,
      "5DZ": 7538,
      "ROSELLE": 7539,
      "9RG": 7540,
      "DAYTON": 7541,
      "ACACIA": 7542,
      "0AT": 7543,
      "0HW": 7544,
      "CHAND": 7545,
      "1012": 7546,
      "15A": 7547,
      "283": 7548,
      "OX33": 7549,
      "CF44": 7550,
      "1104": 7551,
      "2NZ": 7552,
      "140TH": 7553,
      "9JH": 7554,
      "2BL": 7555,
      "0DP": 7556,
      "GRAFTON": 7557,
      "SCHILLER": 7558,
      "1DN": 7559,
      "450": 7560,
      "5RA": 7561,
      "5HS": 7562,
      "9EX": 7563,
      "BIT": 7564,
      "1445": 7565,
      "DE3": 7566,
      "288": 7567,
      "CAIRN": 7568,
      "CM18": 7569,
      "1509": 7570,
      "6JT": 7571,
      "7PF": 7572,
      "5RF": 7573,
      "FOOT": 7574,
      "166TH": 7575,
      "WAGNER": 7576,
      "3EB": 7577,
      "7EY": 7578,
      "8NP": 7579,
      "8HH": 7580,
      "945": 7581,
      "SOUTHGATE": 7582,
      "WOBURN": 7583,
      "COACH": 7584,
      "DN2": 7585,
      "RH17": 7586,
      "4QS": 7587,
      "118TH": 7588,
      "6LB": 7589,
      "PINEWOOD": 7590,
      "CRESTWOOD": 7591,
      "ORANGE": 7592,
      "WINDERMERE": 7593,
      "4NY": 7594,
      "4NR": 7595,
      "6EH": 7596,
      "6HE": 7597,
      "727": 7598,
      "9NR": 7599,
      "STEN": 7600,
      "LONSDALE": 7601,
      "NEWBERRY": 7602,
      "CT16": 7603,
      "6JJ": 7604,
      "4LX": 7605,
      "0NX": 7606,
      "RAILWAY": 7607,
      "5ET": 7608,
      "613": 7609,
      "6BH": 7610,
      "9DS": 7611,
      "MCLEAN": 7612,
      "FITCH": 7613,
      "BRIXTON": 7614,
      "DENTON": 7615,
      "4BW": 7616,
      "6BX": 7617,
      "6LJ": 7618,
      "6LQ": 7619,
      "3HH": 7620,
      "5HP": 7621,
      "5EX": 7622,
      "8HN": 7623,
      "9HF": 7624,
      "1530": 7625,
      "SHADY": 7626,
      "286": 7627,
      "DN37": 7628,
      "HEATON": 7629,
      "SHEEN": 7630,
      "TQ14": 7631,
      "6QB": 7632,
      "5DQ": 7633,
      "1DZ": 7634,
      "9DX": 7635,
      "0DB": 7636,
      "129TH": 7637,
      "CLIFFORD": 7638,
      "0HA": 7639,
      "2NW": 7640,
      "6EY": 7641,
      "7ED": 7642,
      "1516": 7643,
      "CATH": 7644,
      "CF63": 7645,
      "MK11": 7646,
      "WC1A": 7647,
      "NP7": 7648,
      "3BB": 7649,
      "9AX": 7650,
      "JOH": 7651,
      "7QW": 7652,
      "4BL": 7653,
      "6DJ": 7654,
      "YSTWYTH": 7655,
      "WHISPERING": 7656,
      "3RH": 7657,
      "IDA": 7658,
      "1040": 7659,
      "132ND": 7660,
      "DEMING": 7661,
      "WYS": 7662,
      "CM0": 7663,
      "TQ4": 7664,
      "0RN": 7665,
      "PEMBROKE": 7666,
      "HAPPFIELD": 7667,
      "3NY": 7668,
      "5HE": 7669,
      "6HL": 7670,
      "7PE": 7671,
      "9LE": 7672,
      "BWORTH": 7673,
      "1525": 7674,
      "1645": 7675,
      "HAROLD": 7676,
      "CROMAR": 7677,
      "ABERYSTWYTH": 7678,
      "1NP": 7679,
      "7JB": 7680,
      "3BX": 7681,
      "6DF": 7682,
      "7LZ": 7683,
      "JOHNS": 7684,
      "3EZ": 7685,
      "4DN": 7686,
      "5EZ": 7687,
      "6HS": 7688,
      "9EF": 7689,
      "295": 7690,
      "CA1": 7691,
      "1106": 7692,
      "1305": 7693,
      "160TH": 7694,
      "1505": 7695,
      "7AS": 7696,
      "6JY": 7697,
      "5QG": 7698,
      "0JT": 7699,
      "7DH": 7700,
      "8DJ": 7701,
      "8LD": 7702,
      "BRDG": 7703,
      "0EH": 7704,
      "0EB": 7705,
      "3HW": 7706,
      "7NU": 7707,
      "8ET": 7708,
      "8PE": 7709,
      "RETT": 7710,
      "561": 7711,
      "HOM": 7712,
      "BIGH": 7713,
      "1NY": 7714,
      "5AZ": 7715,
      "6QE": 7716,
      "9LR": 7717,
      "4NQ": 7718,
      "4PL": 7719,
      "5GA": 7720,
      "8HT": 7721,
      "8EQ": 7722,
      "936": 7723,
      "9AW": 7724,
      "JON": 7725,
      "1017": 7726,
      "143RD": 7727,
      "141ST": 7728,
      "SHURST": 7729,
      "TWE": 7730,
      "461": 7731,
      "BH13": 7732,
      "1201": 7733,
      "NP16": 7734,
      "1409": 7735,
      "9JG": 7736,
      "5QH": 7737,
      "6QG": 7738,
      "2DF": 7739,
      "3RG": 7740,
      "LIVERSEDGE": 7741,
      "TAMAR": 7742,
      "TODMORDEN": 7743,
      "0NS": 7744,
      "0DR": 7745,
      "355": 7746,
      "3LY": 7747,
      "6NR": 7748,
      "7HU": 7749,
      "836": 7750,
      "SWOOD": 7751,
      "UPLAND": 7752,
      "1024": 7753,
      "1119": 7754,
      "1418": 7755,
      "MONTE": 7756,
      "1007": 7757,
      "7JJ": 7758,
      "THORNHILL": 7759,
      "5QP": 7760,
      "1801": 7761,
      "6DB": 7762,
      "1SU": 7763,
      "2100": 7764,
      "7BU": 7765,
      "7LU": 7766,
      "835": 7767,
      "924": 7768,
      "BLESIDE": 7769,
      "OTH": 7770,
      "INGAT": 7771,
      "1720": 7772,
      "SY23": 7773,
      "1405": 7774,
      "2QN": 7775,
      "3RF": 7776,
      "0BT": 7777,
      "4NB": 7778,
      "INGATESTONE": 7779,
      "1SW": 7780,
      "3RE": 7781,
      "3EU": 7782,
      "4HG": 7783,
      "6HP": 7784,
      "7HY": 7785,
      "7HW": 7786,
      "BAB": 7787,
      "JA": 7788,
      "ARCADIA": 7789,
      "1035": 7790,
      "ANK": 7791,
      "1216": 7792,
      "1316": 7793,
      "GL11": 7794,
      "MK15": 7795,
      "1AX": 7796,
      "2JZ": 7797,
      "1QX": 7798,
      "8QR": 7799,
      "1701": 7800,
      "2UL": 7801,
      "2SF": 7802,
      "840": 7803,
      "8NG": 7804,
      "9NS": 7805,
      "CH42": 7806,
      "465": 7807,
      "1JY": 7808,
      "4JX": 7809,
      "3QP": 7810,
      "9LB": 7811,
      "5LP": 7812,
      "9DF": 7813,
      "6PX": 7814,
      "1UH": 7815,
      "FOURTH": 7816,
      "2LY": 7817,
      "2DU": 7818,
      "360": 7819,
      "6ET": 7820,
      "623": 7821,
      "9BU": 7822,
      "1121": 7823,
      "GREENHILL": 7824,
      "SHEEP": 7825,
      "4JS": 7826,
      "6JR": 7827,
      "2HX": 7828,
      "2000": 7829,
      "0PD": 7830,
      "2PR": 7831,
      "5BU": 7832,
      "NE16": 7833,
      "1019": 7834,
      "1212": 7835,
      "17A": 7836,
      "9QN": 7837,
      "ADELA": 7838,
      "4NF": 7839,
      "MORTIMER": 7840,
      "SEDGWICK": 7841,
      "0PR": 7842,
      "2RE": 7843,
      "4NW": 7844,
      "4HP": 7845,
      "8AW": 7846,
      "9SA": 7847,
      "9DD": 7848,
      "CH47": 7849,
      "1117": 7850,
      "1512": 7851,
      "375": 7852,
      "LIBER": 7853,
      "WATERFORD": 7854,
      "3BL": 7855,
      "0JR": 7856,
      "6LW": 7857,
      "0AS": 7858,
      "6AY": 7859,
      "KESWICK": 7860,
      "BN23": 7861,
      "STEYN": 7862,
      "1306": 7863,
      "7BL": 7864,
      "7BQ": 7865,
      "5BT": 7866,
      "1RR": 7867,
      "4EW": 7868,
      "1217": 7869,
      "SP4": 7870,
      "2JQ": 7871,
      "3JG": 7872,
      "0JW": 7873,
      "4DF": 7874,
      "8DQ": 7875,
      "STEPHEN": 7876,
      "0HZ": 7877,
      "6EF": 7878,
      "HARWICH": 7879,
      "372": 7880,
      "KT23": 7881,
      "8QX": 7882,
      "7NH": 7883,
      "6PB": 7884,
      "913": 7885,
      "9BN": 7886,
      "1245": 7887,
      "1319": 7888,
      "1825": 7889,
      "MAX": 7890,
      "WYCH": 7891,
      "TS6": 7892,
      "CONISTON": 7893,
      "2HW": 7894,
      "7LT": 7895,
      "8RR": 7896,
      "PIERCE": 7897,
      "1HT": 7898,
      "1TL": 7899,
      "3NS": 7900,
      "9QU": 7901,
      "18A": 7902,
      "1815": 7903,
      "SS17": 7904,
      "DENBIGH": 7905,
      "NP12": 7906,
      "WV12": 7907,
      "5JN": 7908,
      "9QS": 7909,
      "1RW": 7910,
      "8LZ": 7911,
      "6PT": 7912,
      "BALTIMORE": 7913,
      "1UN": 7914,
      "1TE": 7915,
      "2101": 7916,
      "7SA": 7917,
      "8HJ": 7918,
      "ROX": 7919,
      "1140": 7920,
      "1330": 7921,
      "289": 7922,
      "GUISBOROUGH": 7923,
      "1006": 7924,
      "GIBB": 7925,
      "2TA": 7926,
      "7RS": 7927,
      "8HE": 7928,
      "8SN": 7929,
      "9HT": 7930,
      "TAT": 7931,
      "WG": 7932,
      "1114": 7933,
      "1124": 7934,
      "1715": 7935,
      "HU6": 7936,
      "NORA": 7937,
      "7JE": 7938,
      "2HZ": 7939,
      "8QE": 7940,
      "8QJ": 7941,
      "HORTON": 7942,
      "4DT": 7943,
      "ARTHINGTON": 7944,
      "HEMLOCK": 7945,
      "1TS": 7946,
      "1HZ": 7947,
      "7HE": 7948,
      "OC": 7949,
      "ELLAND": 7950,
      "279": 7951,
      "STONEGATE": 7952,
      "LARS": 7953,
      "8QP": 7954,
      "MPSON": 7955,
      "1RF": 7956,
      "3RL": 7957,
      "1PF": 7958,
      "7NQ": 7959,
      "0EN": 7960,
      "2SE": 7961,
      "3ST": 7962,
      "3NE": 7963,
      "5HZ": 7964,
      "731": 7965,
      "9PU": 7966,
      "9EG": 7967,
      "9EQ": 7968,
      "GWY": 7969,
      "174TH": 7970,
      "CES": 7971,
      "BRIXHAM": 7972,
      "WS4": 7973,
      "CM21": 7974,
      "6JB": 7975,
      "3QT": 7976,
      "5QT": 7977,
      "0JY": 7978,
      "7LX": 7979,
      "BRANCH": 7980,
      "2PL": 7981,
      "4ER": 7982,
      "8PA": 7983,
      "DOD": 7984,
      "1424": 7985,
      "GU6": 7986,
      "EHEAD": 7987,
      "MERLIN": 7988,
      "KILBURN": 7989,
      "OPAL": 7990,
      "4JG": 7991,
      "2NB": 7992,
      "2HS": 7993,
      "GEORG": 7994,
      "0NF": 7995,
      "750": 7996,
      "FELL": 7997,
      "1230": 7998,
      "DEWEY": 7999,
      "SPIT": 8000,
      "CB11": 8001,
      "HOLLAND": 8002,
      "MILLERS": 8003,
      "BROOKWOOD": 8004,
      "5JS": 8005,
      "MIDLAND": 8006,
      "4PX": 8007,
      "1LX": 8008,
      "2301": 8009,
      "8LJ": 8010,
      "0PS": 8011,
      "PITTS": 8012,
      "HEBDEN": 8013,
      "1TD": 8014,
      "5EP": 8015,
      "629": 8016,
      "7ER": 8017,
      "723": 8018,
      "JUL": 8019,
      "1224": 8020,
      "1314": 8021,
      "192ND": 8022,
      "LOYD": 8023,
      "BRIDLE": 8024,
      "RUBY": 8025,
      "2JW": 8026,
      "WV5": 8027,
      "7JT": 8028,
      "PENZ": 8029,
      "7QJ": 8030,
      "4DQ": 8031,
      "2RR": 8032,
      "STONEHOUSE": 8033,
      "SALTBURN": 8034,
      "ADELAIDE": 8035,
      "2120": 8036,
      "7EL": 8037,
      "726": 8038,
      "732": 8039,
      "8SE": 8040,
      "8HD": 8041,
      "9HY": 8042,
      "ANNE": 8043,
      "1517": 8044,
      "LS23": 8045,
      "CROUCH": 8046,
      "CALDI": 8047,
      "VISTA": 8048,
      "4JY": 8049,
      "2EJ": 8050,
      "4QR": 8051,
      "FFORDD": 8052,
      "PIONEER": 8053,
      "STEYNING": 8054,
      "0BE": 8055,
      "5HL": 8056,
      "7SH": 8057,
      "829": 8058,
      "9DY": 8059,
      "CKER": 8060,
      "1009": 8061,
      "1406": 8062,
      "FRONT": 8063,
      "5QS": 8064,
      "KINGSWOOD": 8065,
      "EXETER": 8066,
      "5PD": 8067,
      "0BS": 8068,
      "DOWNING": 8069,
      "GRAHAM": 8070,
      "WINDLE": 8071,
      "LARKHALL": 8072,
      "4BY": 8073,
      "729": 8074,
      "CRAY": 8075,
      "GLAN": 8076,
      "SPE": 8077,
      "NE10": 8078,
      "1022": 8079,
      "1130": 8080,
      "1317": 8081,
      "1004": 8082,
      "1508": 8083,
      "BATHGATE": 8084,
      "1LZ": 8085,
      "6BP": 8086,
      "1901": 8087,
      "5NL": 8088,
      "WYNDHAM": 8089,
      "CHARLESTON": 8090,
      "1PR": 8091,
      "3EQ": 8092,
      "3SB": 8093,
      "4HF": 8094,
      "5PL": 8095,
      "7NR": 8096,
      "8BY": 8097,
      "8EF": 8098,
      "940": 8099,
      "WEATHER": 8100,
      "1810": 8101,
      "1818": 8102,
      "WINTER": 8103,
      "STOCKWELL": 8104,
      "9JX": 8105,
      "6JD": 8106,
      "4BZ": 8107,
      "4LQ": 8108,
      "0BL": 8109,
      "3PX": 8110,
      "5NH": 8111,
      "ELA": 8112,
      "OIT": 8113,
      "1630": 8114,
      "1910": 8115,
      "21A": 8116,
      "CRAVEN": 8117,
      "HUBBARD": 8118,
      "WF15": 8119,
      "CHIP": 8120,
      "7JA": 8121,
      "1309": 8122,
      "1408": 8123,
      "3LX": 8124,
      "3QG": 8125,
      "5BW": 8126,
      "5QN": 8127,
      "SNOW": 8128,
      "QUEENSTOWN": 8129,
      "176TH": 8130,
      "BERKLEY": 8131,
      "PALMERSTON": 8132,
      "5NN": 8133,
      "737": 8134,
      "8PB": 8135,
      "NINGHAM": 8136,
      "PSY": 8137,
      "WAD": 8138,
      "ALLS": 8139,
      "PL2": 8140,
      "REDRUTH": 8141,
      "3QS": 8142,
      "9QT": 8143,
      "8QT": 8144,
      "0RB": 8145,
      "9NQ": 8146,
      "TWEED": 8147,
      "PENZANCE": 8148,
      "0ET": 8149,
      "2YL": 8150,
      "5PE": 8151,
      "OME": 8152,
      "OSAGE": 8153,
      "ENFIELD": 8154,
      "ETLAND": 8155,
      "1018": 8156,
      "ALLE": 8157,
      "1811": 8158,
      "EDER": 8159,
      "299": 8160,
      "TA21": 8161,
      "1NF": 8162,
      "SUND": 8163,
      "7JR": 8164,
      "LINGFIELD": 8165,
      "6JQ": 8166,
      "2EQ": 8167,
      "7PT": 8168,
      "9PF": 8169,
      "PORLEY": 8170,
      "3NQ": 8171,
      "TARPORLEY": 8172,
      "1PP": 8173,
      "3NN": 8174,
      "4HQ": 8175,
      "7HS": 8176,
      "TET": 8177,
      "THAT": 8178,
      "AMBLESIDE": 8179,
      "ALFRED": 8180,
      "1122": 8181,
      "1210": 8182,
      "1412": 8183,
      "1419": 8184,
      "1518": 8185,
      "NP18": 8186,
      "1308": 8187,
      "9QR": 8188,
      "9LP": 8189,
      "5LZ": 8190,
      "DINGWALL": 8191,
      "CALDICOT": 8192,
      "0NT": 8193,
      "0HH": 8194,
      "637": 8195,
      "6PH": 8196,
      "713": 8197,
      "9EP": 8198,
      "9RS": 8199,
      "GORE": 8200,
      "LYON": 8201,
      "HOLBROOK": 8202,
      "3JT": 8203,
      "6QJ": 8204,
      "1PQ": 8205,
      "8NX": 8206,
      "0EE": 8207,
      "2TE": 8208,
      "3LN": 8209,
      "3SJ": 8210,
      "6DU": 8211,
      "728": 8212,
      "8RH": 8213,
      "FOW": 8214,
      "IRO": 8215,
      "CH61": 8216,
      "19A": 8217,
      "RUSKIN": 8218,
      "BARNES": 8219,
      "SHEPHER": 8220,
      "4JZ": 8221,
      "4QG": 8222,
      "BIRK": 8223,
      "0AJ": 8224,
      "PATTON": 8225,
      "STREAMWOOD": 8226,
      "0EJ": 8227,
      "1NE": 8228,
      "7EP": 8229,
      "8NR": 8230,
      "922": 8231,
      "9HG": 8232,
      "AMENT": 8233,
      "1118": 8234,
      "1624": 8235,
      "ELLS": 8236,
      "NEWTOWN": 8237,
      "LL29": 8238,
      "39TH": 8239,
      "BN12": 8240,
      "SK23": 8241,
      "3RP": 8242,
      "0RJ": 8243,
      "CUNNINGHAM": 8244,
      "KEENEY": 8245,
      "0DE": 8246,
      "5DU": 8247,
      "6HH": 8248,
      "827": 8249,
      "8HR": 8250,
      "923": 8251,
      "KNE": 8252,
      "THIR": 8253,
      "193RD": 8254,
      "27TH": 8255,
      "BAI": 8256,
      "4QE": 8257,
      "KY7": 8258,
      "6QD": 8259,
      "KINGSBRIDGE": 8260,
      "9BB": 8261,
      "6LT": 8262,
      "6RF": 8263,
      "6NB": 8264,
      "GRASMERE": 8265,
      "WHYTE": 8266,
      "3RU": 8267,
      "4EG": 8268,
      "528": 8269,
      "6PL": 8270,
      "6NA": 8271,
      "7NE": 8272,
      "7NP": 8273,
      "8ST": 8274,
      "LID": 8275,
      "1036": 8276,
      "1318": 8277,
      "RABEE": 8278,
      "1008": 8279,
      "1307": 8280,
      "LARRABEE": 8281,
      "5QE": 8282,
      "2PF": 8283,
      "8RL": 8284,
      "MUSS": 8285,
      "3PD": 8286,
      "MORNING": 8287,
      "1604": 8288,
      "6RU": 8289,
      "OUL": 8290,
      "ELOT": 8291,
      "1340": 8292,
      "CA11": 8293,
      "MEMOR": 8294,
      "BEC": 8295,
      "HILLTOP": 8296,
      "BROCKLEY": 8297,
      "CM4": 8298,
      "1407": 8299,
      "3QL": 8300,
      "4QX": 8301,
      "IV1": 8302,
      "8NJ": 8303,
      "0EX": 8304,
      "5HX": 8305,
      "634": 8306,
      "646": 8307,
      "6PP": 8308,
      "6HG": 8309,
      "8BN": 8310,
      "297": 8311,
      "CF36": 8312,
      "NP26": 8313,
      "BRIGHT": 8314,
      "2JF": 8315,
      "5JZ": 8316,
      "9JL": 8317,
      "9QB": 8318,
      "8LF": 8319,
      "0DX": 8320,
      "5RX": 8321,
      "8NH": 8322,
      "0LN": 8323,
      "2121": 8324,
      "5RD": 8325,
      "548": 8326,
      "828": 8327,
      "IK": 8328,
      "133RD": 8329,
      "1824": 8330,
      "MAES": 8331,
      "WYE": 8332,
      "WC2N": 8333,
      "150TH": 8334,
      "6JH": 8335,
      "TQ9": 8336,
      "4PS": 8337,
      "0JE": 8338,
      "5LX": 8339,
      "6LG": 8340,
      "BENTON": 8341,
      "3SU": 8342,
      "3TQ": 8343,
      "3HX": 8344,
      "4TL": 8345,
      "6LS": 8346,
      "7LL": 8347,
      "8EW": 8348,
      "8UA": 8349,
      "TILL": 8350,
      "135TH": 8351,
      "CA3": 8352,
      "POT": 8353,
      "GLADE": 8354,
      "EC2R": 8355,
      "HOLT": 8356,
      "0JP": 8357,
      "9BW": 8358,
      "8LR": 8359,
      "2500": 8360,
      "9RR": 8361,
      "PELHAM": 8362,
      "8NL": 8363,
      "CURTAIN": 8364,
      "VAUX": 8365,
      "1SR": 8366,
      "5RE": 8367,
      "8DG": 8368,
      "9RA": 8369,
      "BIS": 8370,
      "BEND": 8371,
      "ENGO": 8372,
      "1433": 8373,
      "1312": 8374,
      "BA5": 8375,
      "MARENGO": 8376,
      "4PJ": 8377,
      "7QS": 8378,
      "8LP": 8379,
      "0DT": 8380,
      "4PB": 8381,
      "632": 8382,
      "6HY": 8383,
      "7DS": 8384,
      "SEWARD": 8385,
      "WS8": 8386,
      "2QF": 8387,
      "7AQ": 8388,
      "SPRINGS": 8389,
      "3QY": 8390,
      "9QL": 8391,
      "4QH": 8392,
      "2501": 8393,
      "8RF": 8394,
      "0BP": 8395,
      "WC1V": 8396,
      "PONTIAC": 8397,
      "WANDSWORTH": 8398,
      "0LU": 8399,
      "3NU": 8400,
      "4ES": 8401,
      "6EX": 8402,
      "8EZ": 8403,
      "JOLI": 8404,
      "1514": 8405,
      "1617": 8406,
      "1710": 8407,
      "1725": 8408,
      "2020": 8409,
      "1830": 8410,
      "2QS": 8411,
      "5JR": 8412,
      "9JP": 8413,
      "GLENLAKE": 8414,
      "9BX": 8415,
      "5LD": 8416,
      "4NH": 8417,
      "7NL": 8418,
      "158TH": 8419,
      "POUND": 8420,
      "WAIOLA": 8421,
      "HOMEST": 8422,
      "JOLIET": 8423,
      "5PH": 8424,
      "826": 8425,
      "831": 8426,
      "929": 8427,
      "ACORN": 8428,
      "CAND": 8429,
      "1721": 8430,
      "SHALL": 8431,
      "BURNE": 8432,
      "PE25": 8433,
      "CAMBER": 8434,
      "QUO": 8435,
      "QUOIS": 8436,
      "BELOIT": 8437,
      "HX7": 8438,
      "2RF": 8439,
      "HATCH": 8440,
      "THACKER": 8441,
      "IROQUOIS": 8442,
      "1PU": 8443,
      "3PR": 8444,
      "6HD": 8445,
      "7LS": 8446,
      "EMP": 8447,
      "IRA": 8448,
      "ALMA": 8449,
      "1431": 8450,
      "1821": 8451,
      "BH16": 8452,
      "LIAMENT": 8453,
      "2QG": 8454,
      "9JS": 8455,
      "1506": 8456,
      "PARLIAMENT": 8457,
      "6QP": 8458,
      "1DQ": 8459,
      "6NG": 8460,
      "9ED": 8461,
      "1915": 8462,
      "1817": 8463,
      "PLAN": 8464,
      "OAKFIELD": 8465,
      "1JZ": 8466,
      "3JZ": 8467,
      "4QT": 8468,
      "4PN": 8469,
      "6BZ": 8470,
      "7RG": 8471,
      "KINROSS": 8472,
      "5NX": 8473,
      "BERKSHIRE": 8474,
      "SALTASH": 8475,
      "3PL": 8476,
      "8SB": 8477,
      "9EY": 8478,
      "VILL": 8479,
      "LEWOOD": 8480,
      "LEWI": 8481,
      "1711": 8482,
      "TWR": 8483,
      "RYN": 8484,
      "BUTTS": 8485,
      "HOLDEN": 8486,
      "NYSON": 8487,
      "6BQ": 8488,
      "1PW": 8489,
      "4RT": 8490,
      "TENNYSON": 8491,
      "PITTSBURGH": 8492,
      "0HU": 8493,
      "1TX": 8494,
      "3TJ": 8495,
      "6TD": 8496,
      "8DS": 8497,
      "WER": 8498,
      "STRI": 8499,
      "THOM": 8500,
      "1636": 8501,
      "DANE": 8502,
      "KT24": 8503,
      "SP11": 8504,
      "WC2A": 8505,
      "5JD": 8506,
      "9JB": 8507,
      "9PS": 8508,
      "7NB": 8509,
      "RADCLIFFE": 8510,
      "HEBBURN": 8511,
      "CAMBERWELL": 8512,
      "0NW": 8513,
      "2SD": 8514,
      "5UE": 8515,
      "6EE": 8516,
      "8RA": 8517,
      "8RS": 8518,
      "9PL": 8519,
      "KIT": 8520,
      "ROB": 8521,
      "CHARD": 8522,
      "1214": 8523,
      "293": 8524,
      "GU3": 8525,
      "SUTHER": 8526,
      "8JF": 8527,
      "7JQ": 8528,
      "LONGMEADOW": 8529,
      "7BF": 8530,
      "KY8": 8531,
      "NICHO": 8532,
      "5EJ": 8533,
      "8NU": 8534,
      "8TL": 8535,
      "RN": 8536,
      "1145": 8537,
      "GRET": 8538,
      "2QJ": 8539,
      "WHITTON": 8540,
      "8BS": 8541,
      "5LQ": 8542,
      "7LW": 8543,
      "7PX": 8544,
      "3RR": 8545,
      "5PY": 8546,
      "148TH": 8547,
      "BURNSIDE": 8548,
      "2111": 8549,
      "3SA": 8550,
      "SQU": 8551,
      "1240": 8552,
      "137TH": 8553,
      "CUSTER": 8554,
      "2QR": 8555,
      "9QF": 8556,
      "1RJ": 8557,
      "7LD": 8558,
      "BELLSHILL": 8559,
      "7RL": 8560,
      "7NJ": 8561,
      "VAUXHALL": 8562,
      "2TJ": 8563,
      "628": 8564,
      "627": 8565,
      "6DN": 8566,
      "7RE": 8567,
      "738": 8568,
      "DDEN": 8569,
      "1023": 8570,
      "1029": 8571,
      "1519": 8572,
      "1635": 8573,
      "DRIFT": 8574,
      "1819": 8575,
      "NWICK": 8576,
      "EH22": 8577,
      "HEXHAM": 8578,
      "CARN": 8579,
      "4JQ": 8580,
      "8QH": 8581,
      "6PY": 8582,
      "BONNIE": 8583,
      "HORSESHOE": 8584,
      "STEPHENSON": 8585,
      "1SB": 8586,
      "5NW": 8587,
      "544": 8588,
      "6RA": 8589,
      "7HL": 8590,
      "9NG": 8591,
      "HEDGE": 8592,
      "1136": 8593,
      "1222": 8594,
      "124TH": 8595,
      "1426": 8596,
      "1616": 8597,
      "WOODHALL": 8598,
      "294": 8599,
      "CAS": 8600,
      "TS22": 8601,
      "1304": 8602,
      "6QW": 8603,
      "PRESTWICK": 8604,
      "5EW": 8605,
      "644": 8606,
      "8HY": 8607,
      "ACE": 8608,
      "BLAND": 8609,
      "1422": 8610,
      "NEWHAVEN": 8611,
      "2JY": 8612,
      "WV8": 8613,
      "LONGFORD": 8614,
      "6JL": 8615,
      "BANKMENT": 8616,
      "8RN": 8617,
      "DOWNHAM": 8618,
      "HARRIS": 8619,
      "EMBANKMENT": 8620,
      "PATRICIA": 8621,
      "NICHOLAS": 8622,
      "1TW": 8623,
      "1HW": 8624,
      "7HX": 8625,
      "832": 8626,
      "WHIN": 8627,
      "ONE": 8628,
      "LAMB": 8629,
      "1028": 8630,
      "1322": 8631,
      "OL14": 8632,
      "EHURST": 8633,
      "BH5": 8634,
      "WILKE": 8635,
      "0LT": 8636,
      "0AQ": 8637,
      "MUND": 8638,
      "VINCENT": 8639,
      "UTICA": 8640,
      "556": 8641,
      "7PR": 8642,
      "8EG": 8643,
      "9ND": 8644,
      "ELE": 8645,
      "FEATHER": 8646,
      "191ST": 8647,
      "FORGE": 8648,
      "DENCE": 8649,
      "PLETON": 8650,
      "1NX": 8651,
      "SYDNEY": 8652,
      "MILES": 8653,
      "4QF": 8654,
      "6QL": 8655,
      "8BZ": 8656,
      "7LF": 8657,
      "CHERRYWOOD": 8658,
      "HOMESTEAD": 8659,
      "3TE": 8660,
      "7EU": 8661,
      "CHEN": 8662,
      "SEQUO": 8663,
      "1427": 8664,
      "1925": 8665,
      "OX15": 8666,
      "TS14": 8667,
      "9JD": 8668,
      "1507": 8669,
      "6DW": 8670,
      "5RJ": 8671,
      "HAZELWOOD": 8672,
      "LIBERTY": 8673,
      "0BN": 8674,
      "541": 8675,
      "641": 8676,
      "6HZ": 8677,
      "6HW": 8678,
      "813": 8679,
      "834": 8680,
      "THILL": 8681,
      "1219": 8682,
      "1229": 8683,
      "INGLEY": 8684,
      "1441": 8685,
      "1712": 8686,
      "CARO": 8687,
      "PASS": 8688,
      "WILBURY": 8689,
      "8JU": 8690,
      "7JS": 8691,
      "1404": 8692,
      "STANHOPE": 8693,
      "2QQ": 8694,
      "FRON": 8695,
      "FY7": 8696,
      "7QN": 8697,
      "4RP": 8698,
      "SCHOLARS": 8699,
      "8RG": 8700,
      "0BQ": 8701,
      "5RP": 8702,
      "TOWNS": 8703,
      "2200": 8704,
      "5SL": 8705,
      "5HU": 8706,
      "5HG": 8707,
      "6EQ": 8708,
      "7PU": 8709,
      "837": 8710,
      "8NS": 8711,
      "9LL": 8712,
      "9NU": 8713,
      "MICK": 8714,
      "1218": 8715,
      "1234": 8716,
      "1522": 8717,
      "GL54": 8718,
      "CT3": 8719,
      "PL5": 8720,
      "LUKE": 8721,
      "1103": 8722,
      "5JP": 8723,
      "1504": 8724,
      "3QH": 8725,
      "9LW": 8726,
      "7PJ": 8727,
      "4NX": 8728,
      "2SP": 8729,
      "3RY": 8730,
      "3QU": 8731,
      "4RY": 8732,
      "UT": 8733,
      "1031": 8734,
      "1640": 8735,
      "1717": 8736,
      "1724": 8737,
      "PRESERVE": 8738,
      "9RP": 8739,
      "BEAUFORT": 8740,
      "MANNING": 8741,
      "PASTURE": 8742,
      "0EF": 8743,
      "638": 8744,
      "7LE": 8745,
      "1716": 8746,
      "OLTON": 8747,
      "WOODBINE": 8748,
      "COVER": 8749,
      "BAKE": 8750,
      "DENMARK": 8751,
      "BUT": 8752,
      "9QY": 8753,
      "BELLWOOD": 8754,
      "CHINNOR": 8755,
      "4LU": 8756,
      "935": 8757,
      "CRIEFF": 8758,
      "ADMIR": 8759,
      "1435": 8760,
      "1627": 8761,
      "1921": 8762,
      "1822": 8763,
      "FIRE": 8764,
      "MART": 8765,
      "DN10": 8766,
      "WF6": 8767,
      "HAYMARKET": 8768,
      "7BP": 8769,
      "2RW": 8770,
      "ADMIRAL": 8771,
      "1TB": 8772,
      "1TJ": 8773,
      "8NT": 8774,
      "NE31": 8775,
      "1436": 8776,
      "1523": 8777,
      "CB21": 8778,
      "HX5": 8779,
      "8PY": 8780,
      "4DZ": 8781,
      "7LB": 8782,
      "0LX": 8783,
      "INDIANWOOD": 8784,
      "1UJ": 8785,
      "ROBINHOOD": 8786,
      "0BY": 8787,
      "4SU": 8788,
      "8HU": 8789,
      "8LU": 8790,
      "9HS": 8791,
      "PSON": 8792,
      "RANT": 8793,
      "TCE": 8794,
      "NE13": 8795,
      "1434": 8796,
      "1911": 8797,
      "1812": 8798,
      "CECIL": 8799,
      "CROXTED": 8800,
      "SOME": 8801,
      "CW6": 8802,
      "5JU": 8803,
      "ALDINE": 8804,
      "MAINS": 8805,
      "0JH": 8806,
      "2RQ": 8807,
      "1PY": 8808,
      "3PF": 8809,
      "3NF": 8810,
      "YORKSHIRE": 8811,
      "SOLENT": 8812,
      "0EL": 8813,
      "0EP": 8814,
      "0HL": 8815,
      "1TA": 8816,
      "1SX": 8817,
      "3PU": 8818,
      "4HZ": 8819,
      "6LL": 8820,
      "6NS": 8821,
      "7AT": 8822,
      "741": 8823,
      "7TB": 8824,
      "9SG": 8825,
      "SGATE": 8826,
      "1524": 8827,
      "1816": 8828,
      "LOMOND": 8829,
      "UPPR": 8830,
      "COTTLES": 8831,
      "6JN": 8832,
      "3QJ": 8833,
      "9QX": 8834,
      "0QA": 8835,
      "8LT": 8836,
      "1UG": 8837,
      "9NF": 8838,
      "SUMMIT": 8839,
      "186TH": 8840,
      "NOYES": 8841,
      "KENDAL": 8842,
      "1RU": 8843,
      "734": 8844,
      "8PR": 8845,
      "937": 8846,
      "1437": 8847,
      "1432": 8848,
      "1324": 8849,
      "1335": 8850,
      "23A": 8851,
      "DAW": 8852,
      "WINSLEY": 8853,
      "BLACKTHORN": 8854,
      "6JF": 8855,
      "4PD": 8856,
      "6PD": 8857,
      "5NF": 8858,
      "2115": 8859,
      "4QU": 8860,
      "4SD": 8861,
      "7EZ": 8862,
      "8PU": 8863,
      "TOL": 8864,
      "UPR": 8865,
      "SELEY": 8866,
      "1326": 8867,
      "292": 8868,
      "BA6": 8869,
      "WISE": 8870,
      "PL12": 8871,
      "CALDWELL": 8872,
      "NP11": 8873,
      "VIDENCE": 8874,
      "7JU": 8875,
      "STANSTED": 8876,
      "3RQ": 8877,
      "8LW": 8878,
      "PROVIDENCE": 8879,
      "SUTHERLAND": 8880,
      "3SD": 8881,
      "6PE": 8882,
      "639": 8883,
      "6HQ": 8884,
      "EV": 8885,
      "FEDER": 8886,
      "LEES": 8887,
      "INDE": 8888,
      "1633": 8889,
      "1719": 8890,
      "LINS": 8891,
      "CUPAR": 8892,
      "850": 8893,
      "8GB": 8894,
      "9TB": 8895,
      "PAV": 8896,
      "SCOMBE": 8897,
      "ADAY": 8898,
      "LEDON": 8899,
      "CHANT": 8900,
      "1026": 8901,
      "165TH": 8902,
      "ARDEN": 8903,
      "SS13": 8904,
      "UB9": 8905,
      "FARADAY": 8906,
      "7JH": 8907,
      "1QF": 8908,
      "HORPE": 8909,
      "5LG": 8910,
      "7PY": 8911,
      "0QF": 8912,
      "9RB": 8913,
      "TLETON": 8914,
      "LITTLETON": 8915,
      "1UA": 8916,
      "0EY": 8917,
      "5RH": 8918,
      "739": 8919,
      "7LN": 8920,
      "926": 8921,
      "1619": 8922,
      "CASS": 8923,
      "PO18": 8924,
      "CRU": 8925,
      "SL8": 8926,
      "STEV": 8927,
      "PLOUGH": 8928,
      "9QD": 8929,
      "GALA": 8930,
      "8RQ": 8931,
      "7RX": 8932,
      "LEWISHAM": 8933,
      "0BH": 8934,
      "2QU": 8935,
      "4HL": 8936,
      "6EN": 8937,
      "6BN": 8938,
      "6SD": 8939,
      "9NT": 8940,
      "ESTATE": 8941,
      "ELBURGH": 8942,
      "1513": 8943,
      "1331": 8944,
      "SHAR": 8945,
      "296": 8946,
      "298": 8947,
      "QUAKER": 8948,
      "661": 8949,
      "VIENNA": 8950,
      "MORETON": 8951,
      "FAIRFAX": 8952,
      "9JZ": 8953,
      "7QE": 8954,
      "6DZ": 8955,
      "9PW": 8956,
      "MULFORD": 8957,
      "JANSSEN": 8958,
      "MUSSELBURGH": 8959,
      "1EY": 8960,
      "648": 8961,
      "8PP": 8962,
      "MEA": 8963,
      "TOLL": 8964,
      "1345": 8965,
      "1919": 8966,
      "2315": 8967,
      "DNO": 8968,
      "BH20": 8969,
      "MK19": 8970,
      "PHIL": 8971,
      "1QW": 8972,
      "ML4": 8973,
      "1808": 8974,
      "2RN": 8975,
      "1RG": 8976,
      "4RX": 8977,
      "1909": 8978,
      "6PJ": 8979,
      "HIND": 8980,
      "SWANAGE": 8981,
      "DROVE": 8982,
      "4TJ": 8983,
      "8RY": 8984,
      "1041": 8985,
      "1629": 8986,
      "1336": 8987,
      "1930": 8988,
      "GU17": 8989,
      "WIKE": 8990,
      "BN8": 8991,
      "SY11": 8992,
      "4PQ": 8993,
      "2RT": 8994,
      "ADDINGTON": 8995,
      "BROUGHTON": 8996,
      "GIPSY": 8997,
      "ANDREW": 8998,
      "5HF": 8999,
      "6SJ": 9000,
      "8NE": 9001,
      "927": 9002,
      "AMI": 9003,
      "ALRESFORD": 9004,
      "1113": 9005,
      "1423": 9006,
      "1531": 9007,
      "MAU": 9008,
      "7JY": 9009,
      "5QD": 9010,
      "5QZ": 9011,
      "1705": 9012,
      "9PQ": 9013,
      "LIGHTWATER": 9014,
      "TETBURY": 9015,
      "2112": 9016,
      "6SF": 9017,
      "746": 9018,
      "9RY": 9019,
      "DSWORTH": 9020,
      "1123": 9021,
      "1235": 9022,
      "1618": 9023,
      "FISH": 9024,
      "ELLER": 9025,
      "PR26": 9026,
      "BANGOR": 9027,
      "7JW": 9028,
      "2QX": 9029,
      "NIFER": 9030,
      "3RW": 9031,
      "6PS": 9032,
      "7RQ": 9033,
      "9RF": 9034,
      "PENDENCE": 9035,
      "JENNIFER": 9036,
      "SEQUOIA": 9037,
      "INDEPENDENCE": 9038,
      "0RD": 9039,
      "4LS": 9040,
      "1526": 9041,
      "1631": 9042,
      "1924": 9043,
      "9JN": 9044,
      "8PF": 9045,
      "3PG": 9046,
      "0PF": 9047,
      "BODMIN": 9048,
      "CHILTERN": 9049,
      "BILLINGSHURST": 9050,
      "2LU": 9051,
      "8PH": 9052,
      "9HJ": 9053,
      "LONN": 9054,
      "1233": 9055,
      "1718": 9056,
      "WAITE": 9057,
      "WAYE": 9058,
      "ABY": 9059,
      "365": 9060,
      "DY12": 9061,
      "HOMER": 9062,
      "1805": 9063,
      "1806": 9064,
      "1RQ": 9065,
      "BUCKLAND": 9066,
      "CLIVE": 9067,
      "6NJ": 9068,
      "0DA": 9069,
      "0NR": 9070,
      "2ST": 9071,
      "2SZ": 9072,
      "7HF": 9073,
      "839": 9074,
      "1226": 9075,
      "1637": 9076,
      "CKLE": 9077,
      "22A": 9078,
      "CAE": 9079,
      "3JS": 9080,
      "0JG": 9081,
      "8LX": 9082,
      "1908": 9083,
      "6RJ": 9084,
      "0EA": 9085,
      "1EX": 9086,
      "642": 9087,
      "7SB": 9088,
      "8PL": 9089,
      "8SY": 9090,
      "9LY": 9091,
      "STAR": 9092,
      "INGBRIDGE": 9093,
      "1916": 9094,
      "OLET": 9095,
      "FIRS": 9096,
      "BRAMPTON": 9097,
      "BOTT": 9098,
      "CROOK": 9099,
      "EC3A": 9100,
      "1208": 9101,
      "7QD": 9102,
      "0BB": 9103,
      "9NX": 9104,
      "2700": 9105,
      "TADCASTER": 9106,
      "BRITTANY": 9107,
      "2SN": 9108,
      "ENA": 9109,
      "1013": 9110,
      "364": 9111,
      "BARLEY": 9112,
      "1QP": 9113,
      "7QP": 9114,
      "1708": 9115,
      "1809": 9116,
      "0QT": 9117,
      "6RB": 9118,
      "BADGER": 9119,
      "COLONY": 9120,
      "CHAMBERLA": 9121,
      "MONTEREY": 9122,
      "0SA": 9123,
      "0ED": 9124,
      "0HG": 9125,
      "1TN": 9126,
      "AMA": 9127,
      "1428": 9128,
      "1529": 9129,
      "1628": 9130,
      "1626": 9131,
      "BRIAN": 9132,
      "EH17": 9133,
      "EH47": 9134,
      "BROOKLANDS": 9135,
      "GOLDEN": 9136,
      "GOLDHURST": 9137,
      "FEDERAL": 9138,
      "1TH": 9139,
      "542": 9140,
      "7SR": 9141,
      "FILL": 9142,
      "RIG": 9143,
      "RAW": 9144,
      "CHESTERFIELD": 9145,
      "COLUM": 9146,
      "BROX": 9147,
      "MEMORIAL": 9148,
      "0ER": 9149,
      "5TB": 9150,
      "928": 9151,
      "NANT": 9152,
      "1623": 9153,
      "1323": 9154,
      "1918": 9155,
      "1823": 9156,
      "24A": 9157,
      "TERRA": 9158,
      "BOOTH": 9159,
      "TS24": 9160,
      "8JW": 9161,
      "0JN": 9162,
      "4LW": 9163,
      "GRENSHAW": 9164,
      "2SS": 9165,
      "2TP": 9166,
      "5UD": 9167,
      "9PH": 9168,
      "1413": 9169,
      "SS12": 9170,
      "HARV": 9171,
      "GL10": 9172,
      "CF71": 9173,
      "1205": 9174,
      "TA8": 9175,
      "LITH": 9176,
      "0JF": 9177,
      "9BL": 9178,
      "IV3": 9179,
      "5PZ": 9180,
      "3PT": 9181,
      "6RT": 9182,
      "DANIEL": 9183,
      "EMPIRE": 9184,
      "0LA": 9185,
      "0PB": 9186,
      "838": 9187,
      "8RU": 9188,
      "9SD": 9189,
      "RODNEY": 9190,
      "1034": 9191,
      "1535": 9192,
      "13A": 9193,
      "OL15": 9194,
      "1835": 9195,
      "DERWENT": 9196,
      "LIPHOOK": 9197,
      "COCKER": 9198,
      "BAKEWELL": 9199,
      "1SE": 9200,
      "1605": 9201,
      "3SL": 9202,
      "460": 9203,
      "6NW": 9204,
      "6HN": 9205,
      "847": 9206,
      "9RD": 9207,
      "IGH": 9208,
      "1131": 9209,
      "1228": 9210,
      "PARKWOOD": 9211,
      "HP8": 9212,
      "130TH": 9213,
      "0BG": 9214,
      "8NZ": 9215,
      "9RE": 9216,
      "CS": 9217,
      "MET": 9218,
      "ALNWICK": 9219,
      "1527": 9220,
      "1917": 9221,
      "COYLE": 9222,
      "EASTGATE": 9223,
      "AB23": 9224,
      "LS24": 9225,
      "CONWAY": 9226,
      "MELBOURNE": 9227,
      "7JX": 9228,
      "6QS": 9229,
      "7QR": 9230,
      "LAWNS": 9231,
      "8PW": 9232,
      "1807": 9233,
      "6PG": 9234,
      "PECKHAM": 9235,
      "0SB": 9236,
      "2RY": 9237,
      "841": 9238,
      "8TG": 9239,
      "ASTON": 9240,
      "ELMORE": 9241,
      "ALMOND": 9242,
      "1241": 9243,
      "2015": 9244,
      "SY2": 9245,
      "1102": 9246,
      "8JT": 9247,
      "THORNBURY": 9248,
      "8DZ": 9249,
      "0AP": 9250,
      "6NF": 9251,
      "0AR": 9252,
      "1SH": 9253,
      "7NY": 9254,
      "8SG": 9255,
      "1133": 9256,
      "1829": 9257,
      "SHANK": 9258,
      "BRITAN": 9259,
      "SPAR": 9260,
      "GOED": 9261,
      "6JW": 9262,
      "3QQ": 9263,
      "4PT": 9264,
      "PINEHURST": 9265,
      "7LJ": 9266,
      "1PZ": 9267,
      "BUCKLEY": 9268,
      "KINFIELD": 9269,
      "0NB": 9270,
      "BLUEBELL": 9271,
      "BRITANNIA": 9272,
      "0HS": 9273,
      "2117": 9274,
      "7HQ": 9275,
      "7TL": 9276,
      "8SA": 9277,
      "931": 9278,
      "9EW": 9279,
      "HOD": 9280,
      "UDNO": 9281,
      "ELLA": 9282,
      "1135": 9283,
      "177TH": 9284,
      "1912": 9285,
      "EDALE": 9286,
      "HILLVIEW": 9287,
      "DUKINFIELD": 9288,
      "WC2R": 9289,
      "MELVILLE": 9290,
      "KY2": 9291,
      "1704": 9292,
      "JARROW": 9293,
      "FURLONG": 9294,
      "LLANDUDNO": 9295,
      "NAVIG": 9296,
      "2109": 9297,
      "5LS": 9298,
      "THAN": 9299,
      "REVERE": 9300,
      "1027": 9301,
      "1037": 9302,
      "1032": 9303,
      "1211": 9304,
      "1450": 9305,
      "1540": 9306,
      "1632": 9307,
      "456": 9308,
      "BACUP": 9309,
      "GU18": 9310,
      "BN44": 9311,
      "BLAIR": 9312,
      "1QY": 9313,
      "WORPLE": 9314,
      "HORNING": 9315,
      "1UU": 9316,
      "0SE": 9317,
      "0NA": 9318,
      "2SY": 9319,
      "4EQ": 9320,
      "6ES": 9321,
      "656": 9322,
      "6NN": 9323,
      "IGHT": 9324,
      "1327": 9325,
      "1836": 9326,
      "5JX": 9327,
      "5QA": 9328,
      "2RB": 9329,
      "FK5": 9330,
      "8RW": 9331,
      "9RJ": 9332,
      "9RQ": 9333,
      "6NQ": 9334,
      "2TG": 9335,
      "ENHURST": 9336,
      "SOUTHFIELD": 9337,
      "1614": 9338,
      "1923": 9339,
      "FORDINGBRIDGE": 9340,
      "CLOS": 9341,
      "GU31": 9342,
      "COMMUN": 9343,
      "7QG": 9344,
      "2LZ": 9345,
      "9PJ": 9346,
      "0NH": 9347,
      "LIVINGSTONE": 9348,
      "BAGSHOT": 9349,
      "KNEBWORTH": 9350,
      "COMMUNITY": 9351,
      "4BU": 9352,
      "846": 9353,
      "CHEA": 9354,
      "2215": 9355,
      "DE74": 9356,
      "MONKS": 9357,
      "7JF": 9358,
      "0JL": 9359,
      "0LG": 9360,
      "1UT": 9361,
      "HANWORTH": 9362,
      "0NJ": 9363,
      "COUNTY": 9364,
      "ARMSTRONG": 9365,
      "NICHOLS": 9366,
      "0PE": 9367,
      "1TG": 9368,
      "5Z": 9369,
      "5QU": 9370,
      "8SS": 9371,
      "ILE": 9372,
      "STIT": 9373,
      "1033": 9374,
      "1223": 9375,
      "1429": 9376,
      "1528": 9377,
      "2110": 9378,
      "TERRY": 9379,
      "TS16": 9380,
      "WILLE": 9381,
      "BELLA": 9382,
      "3JQ": 9383,
      "5JW": 9384,
      "PENI": 9385,
      "8QG": 9386,
      "1706": 9387,
      "0QD": 9388,
      "BOLDON": 9389,
      "FILLMORE": 9390,
      "0HB": 9391,
      "2116": 9392,
      "4ST": 9393,
      "6ST": 9394,
      "938": 9395,
      "1537": 9396,
      "1536": 9397,
      "1814": 9398,
      "187TH": 9399,
      "2320": 9400,
      "PEPPER": 9401,
      "GL12": 9402,
      "6JU": 9403,
      "4QJ": 9404,
      "0QS": 9405,
      "5RL": 9406,
      "6RG": 9407,
      "COWPER": 9408,
      "BLANCHAN": 9409,
      "WEATHERSFIELD": 9410,
      "CHEAP": 9411,
      "0LL": 9412,
      "5TW": 9413,
      "5TX": 9414,
      "6SS": 9415,
      "647": 9416,
      "6SU": 9417,
      "9PR": 9418,
      "NALL": 9419,
      "28A": 9420,
      "HU12": 9421,
      "2305": 9422,
      "3RT": 9423,
      "6LP": 9424,
      "7RZ": 9425,
      "5RW": 9426,
      "HORNINGLOW": 9427,
      "549": 9428,
      "9HZ": 9429,
      "INTH": 9430,
      "1236": 9431,
      "122ND": 9432,
      "GOSWELL": 9433,
      "CUM": 9434,
      "8JS": 9435,
      "5QW": 9436,
      "0AF": 9437,
      "0PG": 9438,
      "2701": 9439,
      "2UG": 9440,
      "IRONWOOD": 9441,
      "3TL": 9442,
      "4HX": 9443,
      "744": 9444,
      "8HW": 9445,
      "GATES": 9446,
      "VAR": 9447,
      "View": 9448,
      "1232": 9449,
      "1333": 9450,
      "ATT": 9451,
      "BN18": 9452,
      "TS8": 9453,
      "RH14": 9454,
      "RM20": 9455,
      "PARIS": 9456,
      "1RN": 9457,
      "HELSTON": 9458,
      "0DS": 9459,
      "0HT": 9460,
      "1SN": 9461,
      "1FB": 9462,
      "3SN": 9463,
      "4TA": 9464,
      "8SH": 9465,
      "8QU": 9466,
      "SWA": 9467,
      "ARQUIL": 9468,
      "SEVEN": 9469,
      "1328": 9470,
      "1332": 9471,
      "1714": 9472,
      "TERR": 9473,
      "HECK": 9474,
      "MOFF": 9475,
      "BN41": 9476,
      "CLAU": 9477,
      "1302": 9478,
      "2QY": 9479,
      "8QS": 9480,
      "0PX": 9481,
      "BLOOMFIELD": 9482,
      "MISSION": 9483,
      "ARQUILLA": 9484,
      "0SR": 9485,
      "2125": 9486,
      "4EZ": 9487,
      "5ST": 9488,
      "5HW": 9489,
      "6EZ": 9490,
      "7NN": 9491,
      "LIE": 9492,
      "PEND": 9493,
      "READ": 9494,
      "125TH": 9495,
      "GHAN": 9496,
      "172ND": 9497,
      "CAWL": 9498,
      "SO24": 9499,
      "LN8": 9500,
      "DUKES": 9501,
      "0JS": 9502,
      "9PN": 9503,
      "5PQ": 9504,
      "1905": 9505,
      "BALHAM": 9506,
      "WISNER": 9507,
      "BROCKENHURST": 9508,
      "PORTHCAWL": 9509,
      "TOWNSEND": 9510,
      "2107": 9511,
      "4SH": 9512,
      "4TE": 9513,
      "6SP": 9514,
      "7SE": 9515,
      "7HZ": 9516,
      "CHART": 9517,
      "1237": 9518,
      "1730": 9519,
      "1735": 9520,
      "TERACE": 9521,
      "PRUD": 9522,
      "BA20": 9523,
      "SK16": 9524,
      "CF39": 9525,
      "STOCKBRIDGE": 9526,
      "4QY": 9527,
      "7QQ": 9528,
      "9DZ": 9529,
      "4RN": 9530,
      "0BZ": 9531,
      "0DQ": 9532,
      "5RR": 9533,
      "0HR": 9534,
      "4PU": 9535,
      "660": 9536,
      "9EZ": 9537,
      "WESTCHESTER": 9538,
      "1231": 9539,
      "366": 9540,
      "1709": 9541,
      "JERSEY": 9542,
      "PRUDHOE": 9543,
      "6PR": 9544,
      "932": 9545,
      "BISS": 9546,
      "CH46": 9547,
      "1533": 9548,
      "1313": 9549,
      "1831": 9550,
      "CKLAND": 9551,
      "2323": 9552,
      "452": 9553,
      "CT4": 9554,
      "AUBURN": 9555,
      "ROSEMARY": 9556,
      "ROYD": 9557,
      "ADEMY": 9558,
      "178TH": 9559,
      "BRAMBLE": 9560,
      "ACADEMY": 9561,
      "SARAH": 9562,
      "FORRESTVILLE": 9563,
      "COCKERMOUTH": 9564,
      "NAVIGATION": 9565,
      "BISSELL": 9566,
      "0LS": 9567,
      "2UD": 9568,
      "3800": 9569,
      "4SF": 9570,
      "8RD": 9571,
      "MINE": 9572,
      "1227": 9573,
      "152ND": 9574,
      "1622": 9575,
      "TERRAC": 9576,
      "PE32": 9577,
      "MONTCLARE": 9578,
      "3000": 9579,
      "1907": 9580,
      "BONE": 9581,
      "0NZ": 9582,
      "SIX": 9583,
      "LAMBETH": 9584,
      "PLUMSTEAD": 9585,
      "0BU": 9586,
      "1SF": 9587,
      "2140": 9588,
      "2118": 9589,
      "4RE": 9590,
      "934": 9591,
      "9TY": 9592,
      "1641": 9593,
      "1329": 9594,
      "1341": 9595,
      "1002": 9596,
      "TQ7": 9597,
      "1RT": 9598,
      "0LZ": 9599,
      "FRESH": 9600,
      "0RQ": 9601,
      "FLINT": 9602,
      "0TQ": 9603,
      "6TE": 9604,
      "950": 9605,
      "939": 9606,
      "946": 9607,
      "HOUGH": 9608,
      "NHAM": 9609,
      "STREL": 9610,
      "1532": 9611,
      "EASTER": 9612,
      "HU4": 9613,
      "TSSE": 9614,
      "5QJ": 9615,
      "0JZ": 9616,
      "1RX": 9617,
      "6NX": 9618,
      "FOXGLO": 9619,
      "BRUCE": 9620,
      "BALDWIN": 9621,
      "0HY": 9622,
      "0EQ": 9623,
      "2SG": 9624,
      "2119": 9625,
      "2SQ": 9626,
      "3SE": 9627,
      "3SH": 9628,
      "TOM": 9629,
      "363": 9630,
      "SKY": 9631,
      "OLDS": 9632,
      "ASHINGTON": 9633,
      "CARRINGTON": 9634,
      "SP6": 9635,
      "MONDWIKE": 9636,
      "MILE": 9637,
      "HX4": 9638,
      "1804": 9639,
      "2RX": 9640,
      "5PX": 9641,
      "5RB": 9642,
      "HECKMONDWIKE": 9643,
      "6RH": 9644,
      "8FH": 9645,
      "JAY": 9646,
      "FRINTON": 9647,
      "8QN": 9648,
      "IVAN": 9649,
      "ANDERSON": 9650,
      "THURLOW": 9651,
      "MOFFAT": 9652,
      "6SE": 9653,
      "651": 9654,
      "742": 9655,
      "8UD": 9656,
      "ELDON": 9657,
      "2010": 9658,
      "1827": 9659,
      "PAS": 9660,
      "BH11": 9661,
      "9JW": 9662,
      "4QW": 9663,
      "0LP": 9664,
      "BARNSLEY": 9665,
      "EC4V": 9666,
      "MAXWELL": 9667,
      "1UB": 9668,
      "1TF": 9669,
      "1TU": 9670,
      "2106": 9671,
      "2105": 9672,
      "4SX": 9673,
      "655": 9674,
      "8SD": 9675,
      "WBERRY": 9676,
      "NE27": 9677,
      "DN18": 9678,
      "EC4N": 9679,
      "4QB": 9680,
      "7QY": 9681,
      "3PW": 9682,
      "3NL": 9683,
      "COLUMBUS": 9684,
      "0ES": 9685,
      "0NU": 9686,
      "2108": 9687,
      "IB": 9688,
      "LAH": 9689,
      "NE37": 9690,
      "1723": 9691,
      "1840": 9692,
      "2525": 9693,
      "565": 9694,
      "GU32": 9695,
      "8QF": 9696,
      "IVYBRIDGE": 9697,
      "6PW": 9698,
      "3PQ": 9699,
      "5RG": 9700,
      "ARROWHEAD": 9701,
      "9SH": 9702,
      "9SS": 9703,
      "AZ": 9704,
      "STAND": 9705,
      "1634": 9706,
      "1922": 9707,
      "2025": 9708,
      "1826": 9709,
      "2311": 9710,
      "2620": 9711,
      "HIGHBURY": 9712,
      "PEEL": 9713,
      "PA15": 9714,
      "LOWS": 9715,
      "MOAT": 9716,
      "SG3": 9717,
      "LARBERT": 9718,
      "8PQ": 9719,
      "0LJ": 9720,
      "136TH": 9721,
      "HANNA": 9722,
      "BOWER": 9723,
      "2TF": 9724,
      "4900": 9725,
      "8TD": 9726,
      "9UB": 9727,
      "WADE": 9728,
      "WANT": 9729,
      "XTER": 9730,
      "2310": 9731,
      "HU2": 9732,
      "TQ5": 9733,
      "NICE": 9734,
      "0PY": 9735,
      "7NF": 9736,
      "GORSE": 9737,
      "8UH": 9738,
      "NE32": 9739,
      "1639": 9740,
      "1928": 9741,
      "1940": 9742,
      "1935": 9743,
      "CF48": 9744,
      "TAFT": 9745,
      "0JQ": 9746,
      "7PS": 9747,
      "4RL": 9748,
      "VOIR": 9749,
      "0DD": 9750,
      "0EW": 9751,
      "3TS": 9752,
      "8SP": 9753,
      "KNOTT": 9754,
      "1127": 9755,
      "1650": 9756,
      "1722": 9757,
      "OL13": 9758,
      "1828": 9759,
      "KY16": 9760,
      "KINGSMEAD": 9761,
      "0JD": 9762,
      "EBB": 9763,
      "0RR": 9764,
      "SILVERDALE": 9765,
      "WHEELER": 9766,
      "MANNINGTREE": 9767,
      "LLOYD": 9768,
      "WESTOVER": 9769,
      "1129": 9770,
      "1638": 9771,
      "ELLEN": 9772,
      "371": 9773,
      "BERNICE": 9774,
      "TS12": 9775,
      "1206": 9776,
      "CM5": 9777,
      "CLAIR": 9778,
      "LINCOLNWOOD": 9779,
      "WATERS": 9780,
      "6LZ": 9781,
      "TRUND": 9782,
      "0PQ": 9783,
      "9NZ": 9784,
      "6NZ": 9785,
      "BOXWOOD": 9786,
      "PARSONAGE": 9787,
      "UTION": 9788,
      "0NN": 9789,
      "6SX": 9790,
      "ETOWN": 9791,
      "1929": 9792,
      "2316": 9793,
      "60301": 9794,
      "1003": 9795,
      "KY6": 9796,
      "3RZ": 9797,
      "9RT": 9798,
      "SIMPSON": 9799,
      "1TR": 9800,
      "4PR": 9801,
      "5NY": 9802,
      "5TJ": 9803,
      "7TR": 9804,
      "1250": 9805,
      "MAG": 9806,
      "EH32": 9807,
      "CUT": 9808,
      "7QF": 9809,
      "1707": 9810,
      "PRIOR": 9811,
      "FRANCES": 9812,
      "3PZ": 9813,
      "LOANE": 9814,
      "FRONTAGE": 9815,
      "FOXGLOVE": 9816,
      "0DN": 9817,
      "3TD": 9818,
      "3700": 9819,
      "7SU": 9820,
      "IST": 9821,
      "IERS": 9822,
      "ROPE": 9823,
      "1050": 9824,
      "1926": 9825,
      "1833": 9826,
      "27A": 9827,
      "367": 9828,
      "575": 9829,
      "FARRING": 9830,
      "BARBERRY": 9831,
      "HR2": 9832,
[...]
