{
  "version": "1.0",
  "truncation": null,
  "padding": {
    "strategy": {
      "Fixed": 25
    },
    "direction": "Right",
    "pad_to_multiple_of": null,
    "pad_id": 0,
    "pad_type_id": 0,
    "pad_token": "[PAD]"
  },
  "added_tokens": [
    {
      "id": 0,
      "content": "[CLS]",
      "single_word": false,
      "lstrip": false,
      "rstrip": false,
      "normalized": false,
      "special": true
    },
    {
      "id": 1,
      "content": "[SEP]",
      "single_word": false,
      "lstrip": false,
      "rstrip": false,
      "normalized": false,
      "special": true
    },
    {
      "id": 2,
      "content": "[MASK]",
      "single_word": false,
      "lstrip": false,
      "rstrip": false,
      "normalized": false,
      "special": true
    },
    {
      "id": 3,
      "content": "[PAD]",
      "single_word": false,
      "lstrip": false,
      "rstrip": false,
      "normalized": false,
      "special": true
    }
  ],
  "normalizer": null,
  "pre_tokenizer": {
    "type": "Whitespace"
  },
  "post_processor": {
    "type": "TemplateProcessing",
    "single": [
      {
        "SpecialToken": {
          "id": "[CLS]",
          "type_id": 0
        }
      },
      {
        "Sequence": {
          "id": "A",
          "type_id": 0
        }
      },
      {
        "SpecialToken": {
          "id": "[SEP]",
          "type_id": 0
        }
      }
    ],
    "pair": [
      {
        "SpecialToken": {
          "id": "[CLS]",
          "type_id": 0
        }
      },
      {
        "Sequence": {
          "id": "A",
          "type_id": 0
        }
      },
      {
        "SpecialToken": {
          "id": "[SEP]",
          "type_id": 0
        }
      },
      {
        "Sequence": {
          "id": "B",
          "type_id": 1
        }
      },
      {
        "SpecialToken": {
          "id": "[SEP]",
          "type_id": 1
        }
      }
    ],
    "special_tokens": {
      "[CLS]": {
        "id": "[CLS]",
        "ids": [
          0
        ],
        "tokens": [
          "[CLS]"
        ]
      },
      "[SEP]": {
        "id": "[SEP]",
        "ids": [
          1
        ],
        "tokens": [
          "[SEP]"
        ]
      }
    }
  },
  "decoder": null,
  "model": {
    "type": "BPE",
    "dropout": null,
    "unk_token": null,
    "continuing_subword_prefix": null,
    "end_of_word_suffix": null,
    "fuse_unk": false,
    "vocab": {
      "[UNK]": 0,
      "[CLS]": 1,
      "[SEP]": 2,
      "[PAD]": 3,
      "[MASK]": 4,
      "&": 5,
      "'": 6,
      "(": 7,
      ")": 8,
      "-": 9,
      ".": 10,
      "/": 11,
      "0": 12,
      "1": 13,
      "2": 14,
      "3": 15,
      "4": 16,
      "5": 17,
      "6": 18,
      "7": 19,
      "8": 20,
      "9": 21,
      "A": 22,
      "B": 23,
      "C": 24,
      "D": 25,
      "E": 26,
      "F": 27,
      "G": 28,
      "H": 29,
      "I": 30,
      "J": 31,
      "K": 32,
      "L": 33,
      "M": 34,
      "N": 35,
      "O": 36,
      "P": 37,
      "Q": 38,
      "R": 39,
      "S": 40,
      "T": 41,
      "U": 42,
      "V": 43,
      "W": 44,
      "X": 45,
      "Y": 46,
      "Z": 47,
      "a": 48,
      "b": 49,
      "c": 50,
      "d": 51,
      "e": 52,
      "f": 53,
      "g": 54,
      "h": 55,
      "i": 56,
      "j": 57,
      "k": 58,
      "l": 59,
      "m": 60,
      "n": 61,
      "o": 62,
      "p": 63,
      "q": 64,
      "r": 65,
      "s": 66,
      "t": 67,
      "u": 68,
      "v": 69,
      "w": 70,
      "x": 71,
      "y": 72,
      "z": 73,
      "in": 74,
      "Co": 75,
      "SA": 76,
      "USA": 77,
      "60": 78,
      "nt": 79,
      "ll": 80,
      "ok": 81,
      "unt": 82,
      "ing": 83,
      "Count": 84,
      "is": 85,
      "County": 86,
      "Cook": 87,
      "ois": 88,
      "Ill": 89,
      "inois": 90,
      "Illinois": 91,
      "te": 92,
      "ni": 93,
      "Uni": 94,
      "om": 95,
      "King": 96,
      "dom": 97,
      "ted": 98,
      "United": 99,
      "Kingdom": 100,
      "ST": 101,
      "EN": 102,
      "ON": 103,
      "TH": 104,
      "AV": 105,
      "UE": 106,
      "AVEN": 107,
      "RO": 108,
      "AVENUE": 109,
      "RE": 110,
      "ic": 111,
      "ag": 112,
      "OR": 113,
      "Ch": 114,
      "ago": 115,
      "Chic": 116,
      "Chicago": 117,
      "606": 118,
      "OU": 119,
      "ER": 120,
      "AD": 121,
      "ET": 122,
      "LE": 123,
      "STRE": 124,
      "ROAD": 125,
      "IN": 126,
      "LA": 127,
      "STREET": 128,
      "10": 129,
      "AR": 130,
      "Pa": 131,
      "OUTH": 132,
      "EST": 133,
      "es": 134,
      "SOUTH": 135,
      "NE": 136,
      "RI": 137,
      "11": 138,
      "55": 139,
      "ORTH": 140,
      "DON": 141,
      "604": 142,
      "CH": 143,
      "WEST": 144,
      "EL": 145,
      "NORTH": 146,
      "ey": 147,
      "LON": 148,
      "am": 149,
      "ain": 150,
      "ta": 151,
      "AM": 152,
      "LONDON": 153,
      "inn": 154,
      "ul": 155,
      "TON": 156,
      "Minn": 157,
      "600": 158,
      "Sain": 159,
      "Saint": 160,
      "eso": 161,
      "sey": 162,
      "Minneso": 163,
      "Minnesota": 164,
      "Ram": 165,
      "Ramsey": 166,
      "Paul": 167,
      "12": 168,
      "AL": 169,
      "SE": 170,
      "AN": 171,
      "VE": 172,
      "14": 173,
      "15": 174,
      "ING": 175,
      "13": 176,
      "ve": 177,
      "16": 178,
      "IL": 179,
      "17": 180,
      "20": 181,
      "GH": 182,
      "19": 183,
      "DRI": 184,
      "WA": 185,
      "an": 186,
      "DRIVE": 187,
      "18": 188,
      "UR": 189,
      "OL": 190,
      "OD": 191,
      "rk": 192,
      "LANE": 193,
      "Park": 194,
      "6063": 195,
      "25": 196,
      "LO": 197,
      "CE": 198,
      "SH": 199,
      "RA": 200,
      "or": 201,
      "23": 202,
      "CK": 203,
      "FOR": 204,
      "EA": 205,
      "LEY": 206,
      "ue": 207,
      "30": 208,
      "22": 209,
      "5510": 210,
      "GE": 211,
      "ND": 212,
      "FORD": 213,
      "WO": 214,
      "ven": 215,
      "et": 216,
      "on": 217,
      "Aven": 218,
      "Avenue": 219,
      "OUR": 220,
      "6064": 221,
      "ED": 222,
      "ARD": 223,
      "24": 224,
      "HAM": 225,
      "WOOD": 226,
      "th": 227,
      "ro": 228,
      "SW": 229,
      "AT": 230,
      "re": 231,
      "28": 232,
      "CO": 233,
      "DE": 234,
      "29": 235,
      "26": 236,
      "BUR": 237,
      "PLA": 238,
      "FI": 239,
      "ELD": 240,
      "St": 241,
      "HI": 242,
      "ar": 243,
      "53": 244,
      "5511": 245,
      "FIELD": 246,
      "ENT": 247,
      "Stre": 248,
      "ton": 249,
      "PLACE": 250,
      "HA": 251,
      "ESTER": 252,
      "EAST": 253,
      "ILL": 254,
      "TW": 255,
      "WAY": 256,
      "21": 257,
      "27": 258,
      "MA": 259,
      "COUR": 260,
      "ES": 261,
      "COURT": 262,
      "80": 263,
      "40": 264,
      "BRI": 265,
      "RD": 266,
      "od": 267,
      "ARK": 268,
      "ood": 269,
      "est": 270,
      "43": 271,
      "Street": 272,
      "wood": 273,
      "IR": 274,
      "ie": 275,
      "50": 276,
      "DA": 277,
      "70": 278,
      "STON": 279,
      "IS": 280,
      "DGE": 281,
      "ELL": 282,
      "CA": 283,
      "CLO": 284,
      "Nor": 285,
      "KE": 286,
      "33": 287,
      "LAND": 288,
      "56": 289,
      "BR": 290,
      "CLOSE": 291,
      "INGTON": 292,
      "45": 293,
      "ig": 294,
      "PARK": 295,
      "ur": 296,
      "HIGH": 297,
      "ak": 298,
      "igh": 299,
      "AB": 300,
      "North": 301,
      "VER": 302,
      "SS": 303,
      "He": 304,
      "ME": 305,
      "and": 306,
      "HAR": 307,
      "rl": 308,
      "6046": 309,
      "NW": 310,
      "ts": 311,
      "id": 312,
      "38": 313,
      "ill": 314,
      "ights": 315,
      "Heights": 316,
      "NEW": 317,
      "6065": 318,
      "TER": 319,
      "44": 320,
      "LS": 321,
      "77": 322,
      "UN": 323,
      "PTON": 324,
      "6000": 325,
      "39": 326,
      "um": 327,
      "ge": 328,
      "BO": 329,
      "IT": 330,
      "PE": 331,
      "RY": 332,
      "PR": 333,
      "BE": 334,
      "LL": 335,
      "BA": 336,
      "BY": 337,
      "LIN": 338,
      "36": 339,
      "Oak": 340,
      "GRE": 341,
      "34": 342,
      "PO": 343,
      "35": 344,
      "MON": 345,
      "37": 346,
      "6006": 347,
      "art": 348,
      "90": 349,
      "ORT": 350,
      "CESTER": 351,
      "le": 352,
      "CR": 353,
      "46": 354,
      "HILL": 355,
      "GU": 356,
      "ch": 357,
      "GL": 358,
      "BRIDGE": 359,
      "DER": 360,
      "EH": 361,
      "ent": 362,
      "WY": 363,
      "SL": 364,
      "HU": 365,
      "PA": 366,
      "HE": 367,
      "st": 368,
      "DEN": 369,
      "LY": 370,
      "BURY": 371,
      "CRO": 372,
      "OW": 373,
      "48": 374,
      "CRE": 375,
      "31": 376,
      "6060": 377,
      "ROU": 378,
      "LOW": 379,
      "PORT": 380,
      "Ap": 381,
      "ment": 382,
      "artment": 383,
      "Apartment": 384,
      "32": 385,
      "49": 386,
      "BER": 387,
      "47": 388,
      "OX": 389,
      "LEI": 390,
      "6040": 391,
      "59": 392,
      "IE": 393,
      "ver": 394,
      "ENS": 395,
      "CENT": 396,
      "CHESTER": 397,
      "ington": 398,
      "605": 399,
      "MAR": 400,
      "Pal": 401,
      "ATE": 402,
      "FF": 403,
      "WI": 404,
      "er": 405,
      "ast": 406,
      "MO": 407,
      "MAN": 408,
      "UP": 409,
      "ROUGH": 410,
      "WAL": 411,
      "East": 412,
      "BN": 413,
      "CAST": 414,
      "GREEN": 415,
      "ROA": 416,
      "idge": 417,
      "La": 418,
      "YNE": 419,
      "41": 420,
      "ION": 421,
      "Ro": 422,
      "COL": 423,
      "SK": 424,
      "52": 425,
      "SO": 426,
      "57": 427,
      "TT": 428,
      "RAOD": 429,
      "42": 430,
      "6080": 431,
      "GB": 432,
      "THE": 433,
      "ID": 434,
      "CT": 435,
      "el": 436,
      "NN": 437,
      "CV": 438,
      "OLD": 439,
      "Gro": 440,
      "BRO": 441,
      "TWP": 442,
      "at": 443,
      "CL": 444,
      "76": 445,
      "Grove": 446,
      "58": 447,
      "West": 448,
      "iew": 449,
      "ad": 450,
      "OCK": 451,
      "KT": 452,
      "Sch": 453,
      "RU": 454,
      "El": 455,
      "KING": 456,
      "ans": 457,
      "DN": 458,
      "CF": 459,
      "GATE": 460,
      "AK": 461,
      "WELL": 462,
      "110": 463,
      "SON": 464,
      "Ho": 465,
      "CAM": 466,
      "view": 467,
      "bur": 468,
      "INE": 469,
      "LES": 470,
      "TE": 471,
      "IA": 472,
      "BOROUGH": 473,
      "60617": 474,
      "MER": 475,
      "HP": 476,
      "TS": 477,
      "ALL": 478,
      "AMPTON": 479,
      "60629": 480,
      "Arl": 481,
      "Arlington": 482,
      "ros": 483,
      "60628": 484,
      "For": 485,
      "RH": 486,
      "GRO": 487,
      "WIN": 488,
      "GR": 489,
      "OAK": 490,
      "aum": 491,
      "Schaum": 492,
      "burg": 493,
      "Schaumburg": 494,
      "6010": 495,
      "EDS": 496,
      "GARD": 497,
      "LEEDS": 498,
      "EC": 499,
      "ine": 500,
      "RM": 501,
      "Forest": 502,
      "6019": 503,
      "51": 504,
      "BURGH": 505,
      "BU": 506,
      "BOUR": 507,
      "ROW": 508,
      "al": 509,
      "120": 510,
      "DY": 511,
      "CHUR": 512,
      "BH": 513,
      "54": 514,
      "60620": 515,
      "CHURCH": 516,
      "il": 517,
      "len": 518,
      "UB": 519,
      "BAN": 520,
      "WORTH": 521,
      "tes": 522,
      "rland": 523,
      "Glen": 524,
      "6047": 525,
      "Orland": 526,
      "HO": 527,
      "WS": 528,
      "Hill": 529,
      "CM": 530,
      "CRES": 531,
      "MOUTH": 532,
      "GROVE": 533,
      "ILTON": 534,
      "THAM": 535,
      "IFF": 536,
      "55106": 537,
      "LEICESTER": 538,
      "ou": 539,
      "60634": 540,
      "LN": 541,
      "EDIN": 542,
      "ff": 543,
      "ASH": 544,
      "66": 545,
      "Pl": 546,
      "Hills": 547,
      "EDINBURGH": 548,
      "PP": 549,
      "ENHAM": 550,
      "NU": 551,
      "55104": 552,
      "VARD": 553,
      "6016": 554,
      "IDE": 555,
      "NS": 556,
      "wn": 557,
      "74": 558,
      "130": 559,
      "FA": 560,
      "60619": 561,
      "STONE": 562,
      "BOU": 563,
      "WAR": 564,
      "60618": 565,
      "MK": 566,
      "Palat": 567,
      "Palatine": 568,
      "SG": 569,
      "55113": 570,
      "60638": 571,
      "rook": 572,
      "Sou": 573,
      "South": 574,
      "END": 575,
      "60477": 576,
      "QU": 577,
      "yn": 578,
      "pe": 579,
      "ice": 580,
      "TA": 581,
      "DALE": 582,
      "60411": 583,
      "LEVARD": 584,
      "BOULEVARD": 585,
      "Unit": 586,
      "Pros": 587,
      "Sk": 588,
      "5512": 589,
      "GAN": 590,
      "ct": 591,
      "CRESCENT": 592,
      "pect": 593,
      "Prospect": 594,
      "CASTLE": 595,
      "UPON": 596,
      "6020": 597,
      "6070": 598,
      "STOCK": 599,
      "60632": 600,
      "TR": 601,
      "GARDENS": 602,
      "STE": 603,
      "WE": 604,
      "ol": 605,
      "okie": 606,
      "Skokie": 607,
      "CARD": 608,
      "PL": 609,
      "BOURNE": 610,
      "MONT": 611,
      "Ridge": 612,
      "it": 613,
      "Lawn": 614,
      "ley": 615,
      "60453": 616,
      "ATION": 617,
      "age": 618,
      "Des": 619,
      "ORN": 620,
      "aines": 621,
      "Plaines": 622,
      "CAR": 623,
      "os": 624,
      "CLE": 625,
      "ORE": 626,
      "60639": 627,
      "AU": 628,
      "60643": 629,
      "ay": 630,
      "ALE": 631,
      "ELM": 632,
      "CLA": 633,
      "SP": 634,
      "MB": 635,
      "man": 636,
      "Ev": 637,
      "89": 638,
      "6030": 639,
      "anston": 640,
      "AY": 641,
      "79": 642,
      "Evanston": 643,
      "Mo": 644,
      "100": 645,
      "60647": 646,
      "CARDIFF": 647,
      "60004": 648,
      "inley": 649,
      "Tinley": 650,
      "Vill": 651,
      "Village": 652,
      "AW": 653,
      "NOR": 654,
      "55117": 655,
      "65": 656,
      "TFORD": 657,
      "OK": 658,
      "6009": 659,
      "WHI": 660,
      "3RD": 661,
      "THER": 662,
      "60402": 663,
      "60641": 664,
      "UL": 665,
      "ran": 666,
      "607": 667,
      "ter": 668,
      "ri": 669,
      "ffman": 670,
      "CIR": 671,
      "sta": 672,
      "Glenview": 673,
      "Ri": 674,
      "Hoffman": 675,
      "64": 676,
      "Esta": 677,
      "Estates": 678,
      "PER": 679,
      "COM": 680,
      "KEN": 681,
      "NT": 682,
      "River": 683,
      "60630": 684,
      "67": 685,
      "60623": 686,
      "RIDGE": 687,
      "IEW": 688,
      "SIDE": 689,
      "55112": 690,
      "Mount": 691,
      "STR": 692,
      "VIEW": 693,
      "CON": 694,
      "69": 695,
      "AGE": 696,
      "78": 697,
      "68": 698,
      "RAL": 699,
      "60056": 700,
      "HARROW": 701,
      "LI": 702,
      "Road": 703,
      "OUGH": 704,
      "WIL": 705,
      "WD": 706,
      "YDON": 707,
      "RACE": 708,
      "60804": 709,
      "Cice": 710,
      "Cicero": 711,
      "MILTON": 712,
      "BI": 713,
      "DI": 714,
      "DU": 715,
      "60609": 716,
      "CAL": 717,
      "Cal": 718,
      "60062": 719,
      "ABER": 720,
      "WOL": 721,
      "60651": 722,
      "CB": 723,
      "HD": 724,
      "CROYDON": 725,
      "60608": 726,
      "61": 727,
      "en": 728,
      "SEA": 729,
      "VIL": 730,
      "Ber": 731,
      "Dri": 732,
      "Drive": 733,
      "umet": 734,
      "Calumet": 735,
      "WR": 736,
      "AND": 737,
      "75": 738,
      "wyn": 739,
      "Berwyn": 740,
      "PRE": 741,
      "3A": 742,
      "60067": 743,
      "FAR": 744,
      "mo": 745,
      "55110": 746,
      "60016": 747,
      "60462": 748,
      "BAR": 749,
      "amwood": 750,
      "Streamwood": 751,
      "6015": 752,
      "60625": 753,
      "STREE": 754,
      "WN": 755,
      "55105": 756,
      "60193": 757,
      "VENT": 758,
      "NEWCASTLE": 759,
      "1N": 760,
      "PLE": 761,
      "HAMPTON": 762,
      "YNES": 763,
      "GBR": 764,
      "COR": 765,
      "ester": 766,
      "MEAD": 767,
      "INGHAM": 768,
      "60107": 769,
      "CAMBRIDGE": 770,
      "NER": 771,
      "60652": 772,
      "88": 773,
      "60007": 774,
      "ity": 775,
      "KEYNES": 776,
      "HOL": 777,
      "GO": 778,
      "STATION": 779,
      "55119": 780,
      "COVENT": 781,
      "62": 782,
      "WC": 783,
      "SOUTHAMPTON": 784,
      "CHAM": 785,
      "COVENTRY": 786,
      "55109": 787,
      "RAY": 788,
      "Elk": 789,
      "63": 790,
      "Bur": 791,
      "60025": 792,
      "60068": 793,
      "brook": 794,
      "ld": 795,
      "PH": 796,
      "BLA": 797,
      "DR": 798,
      "SU": 799,
      "ICK": 800,
      "HOU": 801,
      "Northbrook": 802,
      "SFIELD": 803,
      "2A": 804,
      "60120": 805,
      "land": 806,
      "WF": 807,
      "87": 808,
      "NP": 809,
      "MEL": 810,
      "COLN": 811,
      "Wh": 812,
      "CAN": 813,
      "60614": 814,
      "82": 815,
      "60636": 816,
      "LINCOLN": 817,
      "SHAM": 818,
      "ridge": 819,
      "STER": 820,
      "MIT": 821,
      "1B": 822,
      "LU": 823,
      "MOND": 824,
      "608": 825,
      "DEEN": 826,
      "TERRACE": 827,
      "1J": 828,
      "601": 829,
      "HEA": 830,
      "ETER": 831,
      "BRIGH": 832,
      "TYNE": 833,
      "BEL": 834,
      "ABERDEEN": 835,
      "SY": 836,
      "85": 837,
      "DS": 838,
      "Palos": 839,
      "ield": 840,
      "CHI": 841,
      "MILL": 842,
      "NORTHAMPTON": 843,
      "DG": 844,
      "55116": 845,
      "SW1": 846,
      "WICK": 847,
      "City": 848,
      "LEIGH": 849,
      "VI": 850,
      "EP": 851,
      "55102": 852,
      "72": 853,
      "60409": 854,
      "Be": 855,
      "HAY": 856,
      "COTT": 857,
      "NG": 858,
      "60707": 859,
      "MOR": 860,
      "CASTER": 861,
      "6013": 862,
      "TRE": 863,
      "SEY": 864,
      "HEAD": 865,
      "ow": 866,
      "CIRCLE": 867,
      "WARR": 868,
      "1ST": 869,
      "CHA": 870,
      "1A": 871,
      "HL": 872,
      "55126": 873,
      "ALBAN": 874,
      "BROOK": 875,
      "4A": 876,
      "Har": 877,
      "ERN": 878,
      "Whe": 879,
      "NA": 880,
      "PETER": 881,
      "RICH": 882,
      "HN": 883,
      "PRESTON": 884,
      "MORE": 885,
      "ide": 886,
      "Wheel": 887,
      "OM": 888,
      "DERBY": 889,
      "86": 890,
      "WATER": 891,
      "MAL": 892,
      "60525": 893,
      "KIL": 894,
      "60622": 895,
      "140": 896,
      "84": 897,
      "60655": 898,
      "VILLE": 899,
      "CU": 900,
      "2J": 901,
      "WV": 902,
      "60076": 903,
      "Wil": 904,
      "lo": 905,
      "6017": 906,
      "ROSE": 907,
      "60657": 908,
      "EC1": 909,
      "ette": 910,
      "60090": 911,
      "BLACK": 912,
      "STOCKPORT": 913,
      "BRIGHTON": 914,
      "8J": 915,
      "SHI": 916,
      "99": 917,
      "CTOR": 918,
      "Wheeling": 919,
      "OP": 920,
      "60631": 921,
      "HY": 922,
      "MARK": 923,
      "73": 924,
      "DAR": 925,
      "CW": 926,
      "7J": 927,
      "60646": 928,
      "BED": 929,
      "60426": 930,
      "60438": 931,
      "SLOUGH": 932,
      "CR0": 933,
      "3J": 934,
      "SPR": 935,
      "150": 936,
      "PU": 937,
      "60644": 938,
      "ITY": 939,
      "iles": 940,
      "SCH": 941,
      "Niles": 942,
      "OLE": 943,
      "SHE": 944,
      "range": 945,
      "Lans": 946,
      "Lansing": 947,
      "field": 948,
      "ry": 949,
      "95": 950,
      "THAMES": 951,
      "PB": 952,
      "LAR": 953,
      "4J": 954,
      "60201": 955,
      "60827": 956,
      "SE1": 957,
      "60714": 958,
      "HUR": 959,
      "TING": 960,
      "1Q": 961,
      "HER": 962,
      "MAPLE": 963,
      "2N": 964,
      "FT": 965,
      "60169": 966,
      "CENTRAL": 967,
      "3B": 968,
      "ban": 969,
      "HG": 970,
      "OXFORD": 971,
      "ERS": 972,
      "BROAD": 973,
      "60637": 974,
      "83": 975,
      "107": 976,
      "60074": 977,
      "MAIN": 978,
      "COMBE": 979,
      "109": 980,
      "Holl": 981,
      "rest": 982,
      "mette": 983,
      "Wilmette": 984,
      "60091": 985,
      "DONCASTER": 986,
      "Lan": 987,
      "LONG": 988,
      "RED": 989,
      "HEATH": 990,
      "FR": 991,
      "BROM": 992,
      "OWN": 993,
      "Grange": 994,
      "HALL": 995,
      "STAN": 996,
      "Lane": 997,
      "60649": 998,
      "2Q": 999,
      "HAL": 1000,
      "60459": 1001,
      "FAIR": 1002,
      "5J": 1003,
      "PEN": 1004,
      "Burban": 1005,
      "Burbank": 1006,
      "MIN": 1007,
      "CRA": 1008,
      "SFORD": 1009,
      "GLOU": 1010,
      "QUE": 1011,
      "WOLVER": 1012,
      "NEY": 1013,
      "Mor": 1014,
      "GLOUCESTER": 1015,
      "THOR": 1016,
      "Hom": 1017,
      "8A": 1018,
      "60473": 1019,
      "9J": 1020,
      "WARRINGTON": 1021,
      "60467": 1022,
      "SAND": 1023,
      "106": 1024,
      "LING": 1025,
      "TY": 1026,
      "60621": 1027,
      "WASH": 1028,
      "60018": 1029,
      "WOLVERHAMPTON": 1030,
      "Holland": 1031,
      "60005": 1032,
      "Crest": 1033,
      "9A": 1034,
      "DO": 1035,
      "ROM": 1036,
      "SHER": 1037,
      "FY": 1038,
      "MI": 1039,
      "FORE": 1040,
      "ALD": 1041,
      "60624": 1042,
      "ML": 1043,
      "Morton": 1044,
      "96": 1045,
      "97": 1046,
      "108": 1047,
      "105": 1048,
      "DD": 1049,
      "lling": 1050,
      "BEDFORD": 1051,
      "RICHMOND": 1052,
      "VEN": 1053,
      "BURN": 1054,
      "Harv": 1055,
      "60053": 1056,
      "NY": 1057,
      "00": 1058,
      "60452": 1059,
      "Harvey": 1060,
      "MARKET": 1061,
      "6A": 1062,
      "60612": 1063,
      "reen": 1064,
      "HULL": 1065,
      "GLEN": 1066,
      "Country": 1067,
      "7A": 1068,
      "2B": 1069,
      "SPRING": 1070,
      "LAKE": 1071,
      "IAN": 1072,
      "JO": 1073,
      "WOR": 1074,
      "5A": 1075,
      "HUD": 1076,
      "60645": 1077,
      "EC1V": 1078,
      "60302": 1079,
      "6J": 1080,
      "60445": 1081,
      "60466": 1082,
      "Al": 1083,
      "side": 1084,
      "60640": 1085,
      "3L": 1086,
      "3Q": 1087,
      "Le": 1088,
      "POOL": 1089,
      "9Q": 1090,
      "STEAD": 1091,
      "Cl": 1092,
      "gin": 1093,
      "2H": 1094,
      "LIS": 1095,
      "Dol": 1096,
      "FER": 1097,
      "LANDS": 1098,
      "RS": 1099,
      "Dolton": 1100,
      "60443": 1101,
      "2E": 1102,
      "TREE": 1103,
      "60419": 1104,
      "MID": 1105,
      "CHER": 1106,
      "pr": 1107,
      "TQ": 1108,
      "CHE": 1109,
      "ROY": 1110,
      "THORN": 1111,
      "7B": 1112,
      "mont": 1113,
      "MAY": 1114,
      "98": 1115,
      "Spr": 1116,
      "STA": 1117,
      "INT": 1118,
      "60659": 1119,
      "ir": 1120,
      "ENCE": 1121,
      "55127": 1122,
      "WARE": 1123,
      "4Q": 1124,
      "PAR": 1125,
      "LEA": 1126,
      "ELT": 1127,
      "5B": 1128,
      "Spring": 1129,
      "HURST": 1130,
      "KY": 1131,
      "60202": 1132,
      "PETERBOROUGH": 1133,
      "60439": 1134,
      "MBLEY": 1135,
      "60656": 1136,
      "DERSFIELD": 1137,
      "HUDDERSFIELD": 1138,
      "WEMBLEY": 1139,
      "BRENT": 1140,
      "104": 1141,
      "HX": 1142,
      "CLS": 1143,
      "ham": 1144,
      "ISON": 1145,
      "Ever": 1146,
      "Elgin": 1147,
      "3D": 1148,
      "CLSE": 1149,
      "NW10": 1150,
      "green": 1151,
      "Evergreen": 1152,
      "60010": 1153,
      "KED": 1154,
      "60616": 1155,
      "EU": 1156,
      "CROSS": 1157,
      "ake": 1158,
      "ETT": 1159,
      "60706": 1160,
      "200": 1161,
      "5Q": 1162,
      "FOREST": 1163,
      "DAG": 1164,
      "BRA": 1165,
      "8Q": 1166,
      "ac": 1167,
      "SALL": 1168,
      "NEWPORT": 1169,
      "MP": 1170,
      "RIE": 1171,
      "6Q": 1172,
      "WINCHESTER": 1173,
      "60093": 1174,
      "4P": 1175,
      "60803": 1176,
      "Me": 1177,
      "60194": 1178,
      "GLE": 1179,
      "60805": 1180,
      "7Q": 1181,
      "Ha": 1182,
      "DAGENHAM": 1183,
      "DUN": 1184,
      "ewood": 1185,
      "60154": 1186,
      "chester": 1187,
      "Westchester": 1188,
      "WATFORD": 1189,
      "BATH": 1190,
      "60430": 1191,
      "170": 1192,
      "GA": 1193,
      "Mat": 1194,
      "AVN": 1195,
      "1L": 1196,
      "HR": 1197,
      "93": 1198,
      "KINGS": 1199,
      "71": 1200,
      "ETON": 1201,
      "TF": 1202,
      "Mead": 1203,
      "Brook": 1204,
      "EG": 1205,
      "ART": 1206,
      "0J": 1207,
      "BOURNEMOUTH": 1208,
      "MAC": 1209,
      "55108": 1210,
      "116": 1211,
      "Homewood": 1212,
      "115": 1213,
      "Meadow": 1214,
      "ip": 1215,
      "WESTERN": 1216,
      "ale": 1217,
      "WHIT": 1218,
      "ROMFORD": 1219,
      "NSLOW": 1220,
      "HOUNSLOW": 1221,
      "GREAT": 1222,
      "Rolling": 1223,
      "NES": 1224,
      "ub": 1225,
      "GRAN": 1226,
      "55107": 1227,
      "SPA": 1228,
      "6B": 1229,
      "WALSALL": 1230,
      "4B": 1231,
      "BIR": 1232,
      "teson": 1233,
      "Matteson": 1234,
      "May": 1235,
      "ALBANS": 1236,
      "BRE": 1237,
      "60613": 1238,
      "BERT": 1239,
      "Elm": 1240,
      "Meadows": 1241,
      "60513": 1242,
      "Springs": 1243,
      "Brookfield": 1244,
      "VICTOR": 1245,
      "EY": 1246,
      "ILD": 1247,
      "111": 1248,
      "92": 1249,
      "9L": 1250,
      "CI": 1251,
      "COLCHESTER": 1252,
      "HOR": 1253,
      "94": 1254,
      "SWORTH": 1255,
      "urt": 1256,
      "AVE": 1257,
      "SW19": 1258,
      "sip": 1259,
      "2L": 1260,
      "CHELM": 1261,
      "EE": 1262,
      "SUN": 1263,
      "CHELMSFORD": 1264,
      "Elmwood": 1265,
      "Maywood": 1266,
      "GN": 1267,
      "OT": 1268,
      "HAYES": 1269,
      "CLAR": 1270,
      "CROFT": 1271,
      "TRA": 1272,
      "MEADOW": 1273,
      "Bl": 1274,
      "2D": 1275,
      "NUT": 1276,
      "LAW": 1277,
      "55130": 1278,
      "180": 1279,
      "HUN": 1280,
      "60077": 1281,
      "Bu": 1282,
      "BEA": 1283,
      "ARDS": 1284,
      "GAR": 1285,
      "117": 1286,
      "8B": 1287,
      "ian": 1288,
      "Fran": 1289,
      "Frank": 1290,
      "llwood": 1291,
      "Ma": 1292,
      "PRIN": 1293,
      "60153": 1294,
      "ick": 1295,
      "PON": 1296,
      "60478": 1297,
      "VICTORIA": 1298,
      "lin": 1299,
      "Lin": 1300,
      "BAY": 1301,
      "NR": 1302,
      "Court": 1303,
      "Franklin": 1304,
      "EX": 1305,
      "UX": 1306,
      "CITY": 1307,
      "60131": 1308,
      "FLE": 1309,
      "TLE": 1310,
      "60008": 1311,
      "zel": 1312,
      "Hazel": 1313,
      "MS": 1314,
      "8P": 1315,
      "LAN": 1316,
      "119": 1317,
      "KIR": 1318,
      "HAW": 1319,
      "OVER": 1320,
      "BANK": 1321,
      "MOOR": 1322,
      "Club": 1323,
      "101": 1324,
      "4L": 1325,
      "112": 1326,
      "VALE": 1327,
      "2P": 1328,
      "NI": 1329,
      "WORCESTER": 1330,
      "5D": 1331,
      "MIDD": 1332,
      "155": 1333,
      "WIGAN": 1334,
      "MERE": 1335,
      "TRIN": 1336,
      "GUILD": 1337,
      "QUA": 1338,
      "7D": 1339,
      "ADE": 1340,
      "103": 1341,
      "60626": 1342,
      "MIL": 1343,
      "AVER": 1344,
      "PLY": 1345,
      "CHELT": 1346,
      "CHELTENHAM": 1347,
      "rose": 1348,
      "230": 1349,
      "118": 1350,
      "55103": 1351,
      "WYN": 1352,
      "Bellwood": 1353,
      "PRI": 1354,
      "Alsip": 1355,
      "4D": 1356,
      "WYCOMBE": 1357,
      "60164": 1358,
      "PLYMOUTH": 1359,
      "1D": 1360,
      "RICK": 1361,
      "PRA": 1362,
      "GUILDFORD": 1363,
      "UM": 1364,
      "114": 1365,
      "60104": 1366,
      "BROMLEY": 1367,
      "ard": 1368,
      "FLEET": 1369,
      "EB": 1370,
      "MARSH": 1371,
      "Lemont": 1372,
      "ASHLAND": 1373,
      "2R": 1374,
      "STED": 1375,
      "KINGSTON": 1376,
      "6D": 1377,
      "Wester": 1378,
      "Western": 1379,
      "SAINT": 1380,
      "COT": 1381,
      "ADD": 1382,
      "300": 1383,
      "ha": 1384,
      "EDG": 1385,
      "ERI": 1386,
      "DOR": 1387,
      "way": 1388,
      "1R": 1389,
      "113": 1390,
      "Mel": 1391,
      "60160": 1392,
      "Melrose": 1393,
      "ett": 1394,
      "FRAN": 1395,
      "FK": 1396,
      "9B": 1397,
      "Is": 1398,
      "OUNT": 1399,
      "YN": 1400,
      "IV": 1401,
      "125": 1402,
      "WALK": 1403,
      "PIN": 1404,
      "JOHN": 1405,
      "8D": 1406,
      "col": 1407,
      "Lincol": 1408,
      "Lincoln": 1409,
      "TU": 1410,
      "60406": 1411,
      "102": 1412,
      "5L": 1413,
      "NW3": 1414,
      "CHAR": 1415,
      "GRD": 1416,
      "60615": 1417,
      "7L": 1418,
      "SW6": 1419,
      "lett": 1420,
      "QUARE": 1421,
      "SQUARE": 1422,
      "7P": 1423,
      "60463": 1424,
      "KIRK": 1425,
      "WAKE": 1426,
      "NW6": 1427,
      "0Q": 1428,
      "60546": 1429,
      "Island": 1430,
      "REHAM": 1431,
      "RIST": 1432,
      "arr": 1433,
      "Riverside": 1434,
      "60304": 1435,
      "WINDS": 1436,
      "Bart": 1437,
      "GER": 1438,
      "Bridge": 1439,
      "Blue": 1440,
      "dale": 1441,
      "FARN": 1442,
      "Bartlett": 1443,
      "NW2": 1444,
      "TRAIL": 1445,
      "128": 1446,
      "3R": 1447,
      "6L": 1448,
      "BECK": 1449,
      "7TH": 1450,
      "Mid": 1451,
      "WINDSOR": 1452,
      "0L": 1453,
      "9D": 1454,
      "EW": 1455,
      "558": 1456,
      "CHRIST": 1457,
      "WIR": 1458,
      "VERN": 1459,
      "TCH": 1460,
      "NDALE": 1461,
      "POOLE": 1462,
      "WIRRAL": 1463,
      "arrington": 1464,
      "WAKEFIELD": 1465,
      "DING": 1466,
      "WASHINGTON": 1467,
      "1P": 1468,
      "SIL": 1469,
      "MITCHAM": 1470,
      "8L": 1471,
      "OLDHAM": 1472,
      "81": 1473,
      "LER": 1474,
      "124": 1475,
      "Bridgeview": 1476,
      "EDGWARE": 1477,
      "60653": 1478,
      "OS": 1479,
      "BUCK": 1480,
      "250": 1481,
      "60429": 1482,
      "9P": 1483,
      "BISH": 1484,
      "60455": 1485,
      "ia": 1486,
      "NW1": 1487,
      "PK": 1488,
      "Flo": 1489,
      "Floor": 1490,
      "SW11": 1491,
      "501": 1492,
      "60103": 1493,
      "145": 1494,
      "ich": 1495,
      "60465": 1496,
      "LOCK": 1497,
      "HJ": 1498,
      "IM": 1499,
      "AYLES": 1500,
      "SQ": 1501,
      "BISHOP": 1502,
      "Norridge": 1503,
      "4R": 1504,
      "GARDEN": 1505,
      "LOR": 1506,
      "FRE": 1507,
      "SCHO": 1508,
      "BROUGH": 1509,
      "0A": 1510,
      "WILL": 1511,
      "WILLOW": 1512,
      "190": 1513,
      "ace": 1514,
      "ess": 1515,
      "60133": 1516,
      "BN1": 1517,
      "GEOR": 1518,
      "126": 1519,
      "ORCH": 1520,
      "60660": 1521,
      "WICH": 1522,
      "ROCH": 1523,
      "240": 1524,
      "ka": 1525,
      "Han": 1526,
      "NO": 1527,
      "LANG": 1528,
      "STEVEN": 1529,
      "SL1": 1530,
      "55101": 1531,
      "over": 1532,
      "Hanover": 1533,
      "GIN": 1534,
      "129": 1535,
      "Mar": 1536,
      "SW16": 1537,
      "thian": 1538,
      "lothian": 1539,
      "Midlothian": 1540,
      "Mark": 1541,
      "8R": 1542,
      "HOVE": 1543,
      "Markham": 1544,
      "MU": 1545,
      "MAID": 1546,
      "Barrington": 1547,
      "WLEY": 1548,
      "WELLINGTON": 1549,
      "5P": 1550,
      "IRIE": 1551,
      "MITAGE": 1552,
      "ESTON": 1553,
      "PRAIRIE": 1554,
      "ROS": 1555,
      "BERRY": 1556,
      "MINSTER": 1557,
      "PORTS": 1558,
      "STEVENAGE": 1559,
      "MAIDSTONE": 1560,
      "HEL": 1561,
      "148": 1562,
      "HA8": 1563,
      "EF": 1564,
      "BELL": 1565,
      "PAL": 1566,
      "PRK": 1567,
      "LOWER": 1568,
      "0B": 1569,
      "In": 1570,
      "0D": 1571,
      "223": 1572,
      "ALTRIN": 1573,
      "ALTRINCHAM": 1574,
      "ROCK": 1575,
      "WELLING": 1576,
      "60428": 1577,
      "FAL": 1578,
      "LEAM": 1579,
      "NELL": 1580,
      "127": 1581,
      "144": 1582,
      "BEE": 1583,
      "ZIE": 1584,
      "orth": 1585,
      "AUST": 1586,
      "WEL": 1587,
      "6P": 1588,
      "HA3": 1589,
      "HB": 1590,
      "3P": 1591,
      "MANOR": 1592,
      "BIRCH": 1593,
      "FAX": 1594,
      "WES": 1595,
      "EMER": 1596,
      "122": 1597,
      "PAT": 1598,
      "BN3": 1599,
      "LINGTON": 1600,
      "ORY": 1601,
      "60558": 1602,
      "ERTON": 1603,
      "149": 1604,
      "HA1": 1605,
      "ISLE": 1606,
      "LOU": 1607,
      "MEN": 1608,
      "DLEY": 1609,
      "SOUTHPORT": 1610,
      "123": 1611,
      "PORTSMOUTH": 1612,
      "136": 1613,
      "SW17": 1614,
      "LEAMINGTON": 1615,
      "ORCHARD": 1616,
      "EJ": 1617,
      "146": 1618,
      "WARWICK": 1619,
      "135": 1620,
      "ELFORD": 1621,
      "GEORGE": 1622,
      "au": 1623,
      "REG": 1624,
      "HH": 1625,
      "500": 1626,
      "as": 1627,
      "CAMPB": 1628,
      "CAMPBELL": 1629,
      "SPRINGFIELD": 1630,
      "AYLESBURY": 1631,
      "534": 1632,
      "TD": 1633,
      "MAI": 1634,
      "BRIDG": 1635,
      "PARKWAY": 1636,
      "201": 1637,
      "SID": 1638,
      "CALDER": 1639,
      "STRA": 1640,
      "60712": 1641,
      "Lincolnwood": 1642,
      "BEN": 1643,
      "7R": 1644,
      "147": 1645,
      "1X": 1646,
      "GRAY": 1647,
      "RUG": 1648,
      "moor": 1649,
      "NIA": 1650,
      "BAL": 1651,
      "HARRO": 1652,
      "ins": 1653,
      "FEL": 1654,
      "CF11": 1655,
      "Winn": 1656,
      "etka": 1657,
      "Winnetka": 1658,
      "VAN": 1659,
      "121": 1660,
      "GHT": 1661,
      "0R": 1662,
      "60633": 1663,
      "HARROGATE": 1664,
      "5R": 1665,
      "91": 1666,
      "RISE": 1667,
      "400": 1668,
      "SCHOOL": 1669,
      "WSBURY": 1670,
      "BRAD": 1671,
      "HAT": 1672,
      "60026": 1673,
      "ALBANY": 1674,
      "TWICK": 1675,
      "BLACKPOOL": 1676,
      "TEN": 1677,
      "SW7": 1678,
      "MAINE": 1679,
      "BOR": 1680,
      "VA": 1681,
      "HAMILTON": 1682,
      "SOM": 1683,
      "ETTER": 1684,
      "GRI": 1685,
      "HA2": 1686,
      "RIVER": 1687,
      "UXBRIDGE": 1688,
      "MAIDEN": 1689,
      "LACE": 1690,
      "HT": 1691,
      "INGS": 1692,
      "REX": 1693,
      "TELFORD": 1694,
      "WOKING": 1695,
      "TWICKENHAM": 1696,
      "AVON": 1697,
      "156": 1698,
      "RUGBY": 1699,
      "KO": 1700,
      "HS": 1701,
      "KN": 1702,
      "TAL": 1703,
      "9R": 1704,
      "60526": 1705,
      "VIN": 1706,
      "OMA": 1707,
      "SUR": 1708,
      "HQ": 1709,
      "SE18": 1710,
      "oe": 1711,
      "INDI": 1712,
      "BURTON": 1713,
      "132": 1714,
      "TIN": 1715,
      "143": 1716,
      "alo": 1717,
      "ffalo": 1718,
      "Buffalo": 1719,
      "139": 1720,
      "LEM": 1721,
      "LOOM": 1722,
      "KEDZIE": 1723,
      "HOW": 1724,
      "ory": 1725,
      "Sum": 1726,
      "KIN": 1727,
      "138": 1728,
      "CLIFF": 1729,
      "EPSOM": 1730,
      "VAL": 1731,
      "137": 1732,
      "HEN": 1733,
      "60642": 1734,
      "PPLE": 1735,
      "133": 1736,
      "HF": 1737,
      "Rich": 1738,
      "SW15": 1739,
      "HOUSE": 1740,
      "MAIDENHEAD": 1741,
      "HARD": 1742,
      "PINE": 1743,
      "INDIAN": 1744,
      "HEMP": 1745,
      "PEL": 1746,
      "POR": 1747,
      "Hick": 1748,
      "Hickory": 1749,
      "60089": 1750,
      "SHIRE": 1751,
      "EQ": 1752,
      "ELER": 1753,
      "AMS": 1754,
      "LOUIS": 1755,
      "SE15": 1756,
      "UNION": 1757,
      "GREENWOOD": 1758,
      "TL": 1759,
      "IZ": 1760,
      "STOCKTON": 1761,
      "MOUNT": 1762,
      "Riverdale": 1763,
      "DARE": 1764,
      "SKI": 1765,
      "60471": 1766,
      "ne": 1767,
      "TRI": 1768,
      "BOURN": 1769,
      "ROCHDALE": 1770,
      "134": 1771,
      "ILWORTH": 1772,
      "UKE": 1773,
      "EDGE": 1774,
      "STOUR": 1775,
      "BROADWAY": 1776,
      "220": 1777,
      "3N": 1778,
      "Richton": 1779,
      "CLARE": 1780,
      "HEMPSTEAD": 1781,
      "TO": 1782,
      "WAUKE": 1783,
      "TOR": 1784,
      "LINA": 1785,
      "60457": 1786,
      "SW18": 1787,
      "AS": 1788,
      "Sau": 1789,
      "PAU": 1790,
      "142": 1791,
      "NESS": 1792,
      "KENILWORTH": 1793,
      "THORPE": 1794,
      "CRAM": 1795,
      "PINNER": 1796,
      "FRI": 1797,
      "IC": 1798,
      "LAT": 1799,
      "DARTFORD": 1800,
      "BEECH": 1801,
      "ARTH": 1802,
      "ENDEN": 1803,
      "Summ": 1804,
      "THORNTON": 1805,
      "son": 1806,
      "6R": 1807,
      "OLK": 1808,
      "HORN": 1809,
      "SL6": 1810,
      "TRU": 1811,
      "MAD": 1812,
      "CALI": 1813,
      "SHIELD": 1814,
      "WC1N": 1815,
      "KOL": 1816,
      "WALTON": 1817,
      "HIN": 1818,
      "800": 1819,
      "Lake": 1820,
      "HEMEL": 1821,
      "FARM": 1822,
      "Fl": 1823,
      "ANT": 1824,
      "oss": 1825,
      "DOWN": 1826,
      "EZ": 1827,
      "SET": 1828,
      "TEES": 1829,
      "COTE": 1830,
      "CR4": 1831,
      "FORNIA": 1832,
      "CALIFORNIA": 1833,
      "GRAND": 1834,
      "SHIELDS": 1835,
      "Gr": 1836,
      "CHIGAN": 1837,
      "MICHIGAN": 1838,
      "LESFIELD": 1839,
      "AUSTIN": 1840,
      "159": 1841,
      "FTON": 1842,
      "Sauk": 1843,
      "SOUTHALL": 1844,
      "700": 1845,
      "PAULINA": 1846,
      "ILLINGHAM": 1847,
      "MIDDLES": 1848,
      "DUDLEY": 1849,
      "ONS": 1850,
      "Summit": 1851,
      "MIDDLESBROUGH": 1852,
      "PRINCE": 1853,
      "60070": 1854,
      "LINTON": 1855,
      "60607": 1856,
      "ev": 1857,
      "CRAWLEY": 1858,
      "Ros": 1859,
      "XLEY": 1860,
      "0P": 1861,
      "KEELER": 1862,
      "LOUGH": 1863,
      "SHORE": 1864,
      "SAL": 1865,
      "3AF": 1866,
      "LE2": 1867,
      "LOUGHBOROUGH": 1868,
      "HA0": 1869,
      "TCHIN": 1870,
      "LAWR": 1871,
      "154": 1872,
      "131": 1873,
      "LAWRENCE": 1874,
      "7AW": 1875,
      "60422": 1876,
      "BERLEY": 1877,
      "PULA": 1878,
      "PULASKI": 1879,
      "225": 1880,
      "SB": 1881,
      "ACK": 1882,
      "DVE": 1883,
      "CLI": 1884,
      "HALSTED": 1885,
      "LIT": 1886,
      "SD": 1887,
      "Bo": 1888,
      "4N": 1889,
      "60173": 1890,
      "AVNUE": 1891,
      "FIN": 1892,
      "air": 1893,
      "HAMLIN": 1894,
      "XTON": 1895,
      "FL": 1896,
      "2NX": 1897,
      "NW9": 1898,
      "PUR": 1899,
      "Floss": 1900,
      "Flossmoor": 1901,
      "HIGHWAY": 1902,
      "STNER": 1903,
      "FELTHAM": 1904,
      "KOSTNER": 1905,
      "RIDGEWAY": 1906,
      "Lyn": 1907,
      "GRAV": 1908,
      "SN": 1909,
      "60464": 1910,
      "HELENS": 1911,
      "VING": 1912,
      "LOV": 1913,
      "160": 1914,
      "CER": 1915,
      "MARY": 1916,
      "IRE": 1917,
      "ROCHESTER": 1918,
      "CORN": 1919,
      "TG": 1920,
      "DAM": 1921,
      "AVNU": 1922,
      "GREENFORD": 1923,
      "141": 1924,
      "UB3": 1925,
      "REL": 1926,
      "west": 1927,
      "AVENU": 1928,
      "HZ": 1929,
      "BON": 1930,
      "60458": 1931,
      "LAWNDALE": 1932,
      "60610": 1933,
      "GRANGE": 1934,
      "SG1": 1935,
      "SHAW": 1936,
      "LE4": 1937,
      "BRENTFORD": 1938,
      "1U": 1939,
      "DV": 1940,
      "FAIRFIELD": 1941,
      "BELMONT": 1942,
      "KI": 1943,
      "GERR": 1944,
      "HON": 1945,
      "CIS": 1946,
      "HW": 1947,
      "Lynwood": 1948,
      "DRV": 1949,
      "PARKSIDE": 1950,
      "GOL": 1951,
      "TTER": 1952,
      "60130": 1953,
      "THRO": 1954,
      "DRA": 1955,
      "CAGO": 1956,
      "CHICAGO": 1957,
      "KENNE": 1958,
      "KILDARE": 1959,
      "152": 1960,
      "CLESFIELD": 1961,
      "GERRARDS": 1962,
      "PINGTON": 1963,
      "9N": 1964,
      "MACCLESFIELD": 1965,
      "KETTER": 1966,
      "KETTERING": 1967,
      "ULDING": 1968,
      "OAKLEY": 1969,
      "SPAULDING": 1970,
      "CANN": 1971,
      "SALIS": 1972,
      "ALDER": 1973,
      "WORTHING": 1974,
      "ORPINGTON": 1975,
      "KAR": 1976,
      "WENT": 1977,
      "BAT": 1978,
      "TB": 1979,
      "8N": 1980,
      "FIELDS": 1981,
      "SALISBURY": 1982,
      "157": 1983,
      "TTON": 1984,
      "301": 1985,
      "TED": 1986,
      "QUEEN": 1987,
      "INES": 1988,
      "CUP": 1989,
      "INVER": 1990,
      "MERRI": 1991,
      "CHOR": 1992,
      "HIGHLAND": 1993,
      "WHITE": 1994,
      "HALI": 1995,
      "LINE": 1996,
      "BEXLEY": 1997,
      "Boul": 1998,
      "PEA": 1999,
      "SW1E": 2000,
      "MARTIN": 2001,
      "BB": 2002,
      "GRA": 2003,
      "CY": 2004,
      "evard": 2005,
      "Boulevard": 2006,
      "GRIMS": 2007,
      "CERO": 2008,
      "MADISON": 2009,
      "Place": 2010,
      "CICERO": 2011,
      "2F": 2012,
      "HA9": 2013,
      "NORMAN": 2014,
      "BRENTWOOD": 2015,
      "CANTER": 2016,
      "WST": 2017,
      "STATE": 2018,
      "TW8": 2019,
      "TRENT": 2020,
      "LANGLEY": 2021,
      "CREST": 2022,
      "CANTERBURY": 2023,
      "lake": 2024,
      "Northlake": 2025,
      "KARLOV": 2026,
      "HERMITAGE": 2027,
      "Ju": 2028,
      "CHFIELD": 2029,
      "5RS": 2030,
      "QUAY": 2031,
      "CKLEY": 2032,
      "UND": 2033,
      "Ly": 2034,
      "GG": 2035,
      "HALIFAX": 2036,
      "FRANCIS": 2037,
      "coe": 2038,
      "CRAN": 2039,
      "LAS": 2040,
      "HUNTING": 2041,
      "GRAVES": 2042,
      "Glencoe": 2043,
      "60482": 2044,
      "HARDING": 2045,
      "ETH": 2046,
      "GRAVESEND": 2047,
      "SUM": 2048,
      "SL9": 2049,
      "KEDVALE": 2050,
      "KENT": 2051,
      "TROY": 2052,
      "153": 2053,
      "HARLEM": 2054,
      "CORPOR": 2055,
      "GRAYS": 2056,
      "205": 2057,
      "CORPORATION": 2058,
      "900": 2059,
      "MALDEN": 2060,
      "Crestwood": 2061,
      "EMERALD": 2062,
      "DAMEN": 2063,
      "BUCKINGHAM": 2064,
      "ons": 2065,
      "5N": 2066,
      "LOO": 2067,
      "TRIPP": 2068,
      "MAPLEWOOD": 2069,
      "TI": 2070,
      "UD": 2071,
      "UPPER": 2072,
      "CIRCU": 2073,
      "60022": 2074,
      "WIS": 2075,
      "CEDAR": 2076,
      "BITON": 2077,
      "270": 2078,
      "TOW": 2079,
      "SR": 2080,
      "SURBITON": 2081,
      "WAUKEE": 2082,
      "CH1": 2083,
      "RON": 2084,
      "MILWAUKEE": 2085,
      "HART": 2086,
      "ESIAN": 2087,
      "ARTESIAN": 2088,
      "vern": 2089,
      "CHORLEY": 2090,
      "NAT": 2091,
      "ENTER": 2092,
      "HAN": 2093,
      "550": 2094,
      "SF": 2095,
      "YBRIDGE": 2096,
      "AVERS": 2097,
      "WELLINGBOROUGH": 2098,
      "HUNTINGDON": 2099,
      "CLAREMONT": 2100,
      "BECKENHAM": 2101,
      "Parkway": 2102,
      "HITCHIN": 2103,
      "GRIMSBY": 2104,
      "SJ": 2105,
      "WYER": 2106,
      "7N": 2107,
      "WARD": 2108,
      "ISLEWORTH": 2109,
      "204": 2110,
      "60305": 2111,
      "401": 2112,
      "LEE": 2113,
      "CAMBERLEY": 2114,
      "Worth": 2115,
      "ENTO": 2116,
      "CHEST": 2117,
      "ABBO": 2118,
      "KENNETH": 2119,
      "TW3": 2120,
      "LTON": 2121,
      "INDIANA": 2122,
      "60425": 2123,
      "UB6": 2124,
      "Northwest": 2125,
      "LIP": 2126,
      "Sh": 2127,
      "Lyons": 2128,
      "Glenwood": 2129,
      "158": 2130,
      "FARNHAM": 2131,
      "SACRAM": 2132,
      "SACRAMENTO": 2133,
      "WELWYN": 2134,
      "60534": 2135,
      "206": 2136,
      "SW2": 2137,
      "224": 2138,
      "CHESTNUT": 2139,
      "IER": 2140,
      "LAWN": 2141,
      "FAREHAM": 2142,
      "VON": 2143,
      "ELY": 2144,
      "LICHFIELD": 2145,
      "TJ": 2146,
      "CHATHAM": 2147,
      "DRAKE": 2148,
      "RAC": 2149,
      "CLARK": 2150,
      "ROCKWELL": 2151,
      "Invern": 2152,
      "Inverness": 2153,
      "JE": 2154,
      "STANMORE": 2155,
      "BL": 2156,
      "BEVER": 2157,
      "LE3": 2158,
      "VEY": 2159,
      "ILK": 2160,
      "WATERLOO": 2161,
      "HA5": 2162,
      "TW7": 2163,
      "CLEVE": 2164,
      "83RD": 2165,
      "NEA": 2166,
      "iller": 2167,
      "NORTHFIELD": 2168,
      "208": 2169,
      "ISLAND": 2170,
      "LINDEN": 2171,
      "Rose": 2172,
      "KILBOURN": 2173,
      "FO": 2174,
      "WIND": 2175,
      "SAWYER": 2176,
      "THORNE": 2177,
      "WILLI": 2178,
      "2ND": 2179,
      "NW11": 2180,
      "LEYDEN": 2181,
      "60415": 2182,
      "EASTBOURNE": 2183,
      "9X": 2184,
      "OLT": 2185,
      "REY": 2186,
      "CIRCULAR": 2187,
      "SBOROUGH": 2188,
      "WOLCOTT": 2189,
      "LITTLE": 2190,
      "168": 2191,
      "MARSHFIELD": 2192,
      "WENTWORTH": 2193,
      "KIMB": 2194,
      "6N": 2195,
      "NEWTON": 2196,
      "EK": 2197,
      "221": 2198,
      "BR1": 2199,
      "151": 2200,
      "SHEAD": 2201,
      "209": 2202,
      "GY": 2203,
      "IG": 2204,
      "ORK": 2205,
      "SOUTHEND": 2206,
      "60176": 2207,
      "ger": 2208,
      "Schiller": 2209,
      "207": 2210,
      "WASHTEN": 2211,
      "WASHTENAW": 2212,
      "VIS": 2213,
      "BRAIN": 2214,
      "Bro": 2215,
      "Ed": 2216,
      "BRAN": 2217,
      "TN": 2218,
      "DNS": 2219,
      "EH6": 2220,
      "HARRI": 2221,
      "HOYNE": 2222,
      "BROMPTON": 2223,
      "Broad": 2224,
      "ITT": 2225,
      "WALNUT": 2226,
      "GON": 2227,
      "BULL": 2228,
      "MASON": 2229,
      "Just": 2230,
      "COLLE": 2231,
      "cle": 2232,
      "DEVON": 2233,
      "Justice": 2234,
      "ERY": 2235,
      "63RD": 2236,
      "FRA": 2237,
      "SSENDEN": 2238,
      "SW4": 2239,
      "BRESSENDEN": 2240,
      "79TH": 2241,
      "GOLF": 2242,
      "TTE": 2243,
      "LE5": 2244,
      "FIR": 2245,
      "NUNEA": 2246,
      "NUNEATON": 2247,
      "GOR": 2248,
      "BANBURY": 2249,
      "59TH": 2250,
      "WHIPPLE": 2251,
      "LLERTON": 2252,
      "Grand": 2253,
      "PR1": 2254,
      "YE": 2255,
      "290": 2256,
      "QUEENS": 2257,
      "SSE": 2258,
      "CHAPEL": 2259,
      "TZ": 2260,
      "RAD": 2261,
      "164": 2262,
      "166": 2263,
      "RUSS": 2264,
      "GILLINGHAM": 2265,
      "SW1V": 2266,
      "COLLEGE": 2267,
      "AMIE": 2268,
      "FRANCISCO": 2269,
      "STOURBRIDGE": 2270,
      "60155": 2271,
      "Broadview": 2272,
      "165": 2273,
      "DN4": 2274,
      "BR3": 2275,
      "60501": 2276,
      "SE13": 2277,
      "SE6": 2278,
      "Rob": 2279,
      "CAT": 2280,
      "LOWE": 2281,
      "0N": 2282,
      "OUSE": 2283,
      "HA7": 2284,
      "801": 2285,
      "HORSHAM": 2286,
      "MORGAN": 2287,
      "SUMMER": 2288,
      "DRAY": 2289,
      "MBER": 2290,
      "Ste": 2291,
      "61ST": 2292,
      "TP": 2293,
      "175": 2294,
      "FOX": 2295,
      "CR2": 2296,
      "CLIFTON": 2297,
      "LARD": 2298,
      "GATESHEAD": 2299,
      "for": 2300,
      "330": 2301,
      "CREEK": 2302,
      "DINGTON": 2303,
      "280": 2304,
      "LARAMIE": 2305,
      "SK8": 2306,
      "HOME": 2307,
      "60171": 2308,
      "GRDNS": 2309,
      "BASH": 2310,
      "EASTLEIGH": 2311,
      "BN2": 2312,
      "GDNS": 2313,
      "BRADFORD": 2314,
      "323": 2315,
      "GRDS": 2316,
      "60162": 2317,
      "UA": 2318,
      "GOD": 2319,
      "7th": 2320,
      "BILL": 2321,
      "ISLIP": 2322,
      "YORK": 2323,
      "178": 2324,
      "THOMA": 2325,
      "THOMAS": 2326,
      "MING": 2327,
      "FUL": 2328,
      "CV6": 2329,
      "nd": 2330,
      "WABASH": 2331,
      "Ar": 2332,
      "701": 2333,
      "STRATFORD": 2334,
      "HAWK": 2335,
      "ESS": 2336,
      "CHAL": 2337,
      "CHRISTCHURCH": 2338,
      "Hillside": 2339,
      "ROE": 2340,
      "YS": 2341,
      "BASIL": 2342,
      "BARRY": 2343,
      "FFORD": 2344,
      "CUN": 2345,
      "KT3": 2346,
      "87TH": 2347,
      "RACINE": 2348,
      "FU": 2349,
      "324": 2350,
      "226": 2351,
      "SE17": 2352,
      "350": 2353,
      "Will": 2354,
      "BOREHAM": 2355,
      "SX": 2356,
      "KID": 2357,
      "CLID": 2358,
      "EUCLID": 2359,
      "169": 2360,
      "sh": 2361,
      "HOLY": 2362,
      "ZART": 2363,
      "ELIZ": 2364,
      "MOZART": 2365,
      "CF14": 2366,
      "SE22": 2367,
      "CHERRY": 2368,
      "ABETH": 2369,
      "ELIZABETH": 2370,
      "GU1": 2371,
      "VALLEY": 2372,
      "BOREHAMWOOD": 2373,
      "CF10": 2374,
      "MELTON": 2375,
      "AMON": 2376,
      "222": 2377,
      "RUISLIP": 2378,
      "176": 2379,
      "SLEY": 2380,
      "ADLE": 2381,
      "DA1": 2382,
      "RUSH": 2383,
      "SDALE": 2384,
      "CHAN": 2385,
      "SE9": 2386,
      "SW9": 2387,
      "UNI": 2388,
      "OKE": 2389,
      "4PW": 2390,
      "229": 2391,
      "OG": 2392,
      "NEL": 2393,
      "LYN": 2394,
      "BEACON": 2395,
      "CREWE": 2396,
      "HOLM": 2397,
      "SHRE": 2398,
      "ENDON": 2399,
      "HEY": 2400,
      "BASILDON": 2401,
      "8EL": 2402,
      "Willow": 2403,
      "CHEADLE": 2404,
      "PATRICK": 2405,
      "BURG": 2406,
      "SWAN": 2407,
      "IRVING": 2408,
      "84TH": 2409,
      "PONTY": 2410,
      "HORNCHURCH": 2411,
      "SIT": 2412,
      "mp": 2413,
      "203": 2414,
      "PHILL": 2415,
      "Cir": 2416,
      "SIDCUP": 2417,
      "Circle": 2418,
      "CHICHESTER": 2419,
      "TUR": 2420,
      "228": 2421,
      "SE5": 2422,
      "SK9": 2423,
      "FINCH": 2424,
      "CANNOCK": 2425,
      "SHREWSBURY": 2426,
      "ck": 2427,
      "FRIAR": 2428,
      "6X": 2429,
      "Minne": 2430,
      "TALMAN": 2431,
      "PRINC": 2432,
      "PRINCETON": 2433,
      "RIDGELAND": 2434,
      "305": 2435,
      "HARLOW": 2436,
      "UNTON": 2437,
      "SANT": 2438,
      "LYONS": 2439,
      "KEY": 2440,
      "FE": 2441,
      "SE24": 2442,
      "ICH": 2443,
      "HOWARD": 2444,
      "FOLK": 2445,
      "CLY": 2446,
      "High": 2447,
      "NORTHWICH": 2448,
      "JU": 2449,
      "179": 2450,
      "RING": 2451,
      "LS1": 2452,
      "PROS": 2453,
      "PROSPE": 2454,
      "202": 2455,
      "73RD": 2456,
      "MOW": 2457,
      "WD6": 2458,
      "KES": 2459,
      "WALLACE": 2460,
      "SL3": 2461,
      "MENARD": 2462,
      "HOLLY": 2463,
      "PROSPECT": 2464,
      "ELMWOOD": 2465,
      "BARN": 2466,
      "343": 2467,
      "JACK": 2468,
      "IANA": 2469,
      "523": 2470,
      "EVER": 2471,
      "KILPATRICK": 2472,
      "CRT": 2473,
      "CARP": 2474,
      "DAN": 2475,
      "DRAYTON": 2476,
      "ond": 2477,
      "IDAN": 2478,
      "WARREN": 2479,
      "VERNON": 2480,
      "BRAINTREE": 2481,
      "ELEY": 2482,
      "167": 2483,
      "CM1": 2484,
      "308": 2485,
      "SW12": 2486,
      "227": 2487,
      "Harwood": 2488,
      "ADDISON": 2489,
      "218": 2490,
      "COMMER": 2491,
      "RM9": 2492,
      "HOMAN": 2493,
      "LOOMIS": 2494,
      "SI": 2495,
      "CR7": 2496,
      "LYNN": 2497,
      "TAN": 2498,
      "STAL": 2499,
      "TINGBOURNE": 2500,
      "SITTINGBOURNE": 2501,
      "Th": 2502,
      "SE28": 2503,
      "SHERIDAN": 2504,
      "SUNNY": 2505,
      "CARPENTER": 2506,
      "HONORE": 2507,
      "AH": 2508,
      "BR2": 2509,
      "STORT": 2510,
      "RH10": 2511,
      "304": 2512,
      "HA4": 2513,
      "STORTFORD": 2514,
      "NN4": 2515,
      "BRIDGEND": 2516,
      "WA14": 2517,
      "YR": 2518,
      "SE16": 2519,
      "NORTHOLT": 2520,
      "306": 2521,
      "FLIN": 2522,
      "CM2": 2523,
      "BURNHAM": 2524,
      "TOWN": 2525,
      "ORIA": 2526,
      "DUR": 2527,
      "OTT": 2528,
      "WELLS": 2529,
      "NORTHWOOD": 2530,
      "901": 2531,
      "BERK": 2532,
      "PURLEY": 2533,
      "CLAIRE": 2534,
      "Northfield": 2535,
      "FD": 2536,
      "GI": 2537,
      "FERRI": 2538,
      "524": 2539,
      "JAM": 2540,
      "EH3": 2541,
      "2X": 2542,
      "NW4": 2543,
      "HATFIELD": 2544,
      "HARRISON": 2545,
      "340": 2546,
      "SCOTT": 2547,
      "82ND": 2548,
      "SW8": 2549,
      "64TH": 2550,
      "CHRISTIANA": 2551,
      "255": 2552,
      "ANDER": 2553,
      "8X": 2554,
      "ney": 2555,
      "NORWOOD": 2556,
      "FARNBOROUGH": 2557,
      "217": 2558,
      "ERLEY": 2559,
      "75TH": 2560,
      "RUSSELL": 2561,
      "HYDE": 2562,
      "2HQ": 2563,
      "TRUM": 2564,
      "309": 2565,
      "3X": 2566,
      "PENDEN": 2567,
      "307": 2568,
      "SANG": 2569,
      "ESTONE": 2570,
      "ALBERT": 2571,
      "AMER": 2572,
      "RM10": 2573,
      "7X": 2574,
      "STIR": 2575,
      "LEAV": 2576,
      "rkel": 2577,
      "Berkel": 2578,
      "Berkeley": 2579,
      "RINGTON": 2580,
      "SL4": 2581,
      "FRO": 2582,
      "RM8": 2583,
      "WIMB": 2584,
      "MALL": 2585,
      "58TH": 2586,
      "LAU": 2587,
      "NORTHGATE": 2588,
      "4X": 2589,
      "ATES": 2590,
      "WREX": 2591,
      "WREXHAM": 2592,
      "TWICH": 2593,
      "PALAT": 2594,
      "PALATINE": 2595,
      "TX": 2596,
      "MONROE": 2597,
      "ALEX": 2598,
      "353": 2599,
      "MARQUE": 2600,
      "NN3": 2601,
      "MARQUETTE": 2602,
      "REDHILL": 2603,
      "SANDY": 2604,
      "LISLE": 2605,
      "STAINES": 2606,
      "AB15": 2607,
      "TRUMBULL": 2608,
      "370": 2609,
      "NAN": 2610,
      "325": 2611,
      "PALOS": 2612,
      "380": 2613,
      "55TH": 2614,
      "EC3": 2615,
      "DOW": 2616,
      "PEORIA": 2617,
      "SAY": 2618,
      "DOVER": 2619,
      "LUTHER": 2620,
      "CORBY": 2621,
      "RICKMAN": 2622,
      "COU": 2623,
      "WILMS": 2624,
      "STIRLING": 2625,
      "WILMSLOW": 2626,
      "HAVEN": 2627,
      "23RD": 2628,
      "60192": 2629,
      "LEAVITT": 2630,
      "PLAIN": 2631,
      "216": 2632,
      "ODGE": 2633,
      "JACKSON": 2634,
      "SZ": 2635,
      "LIME": 2636,
      "WRI": 2637,
      "GNE": 2638,
      "ARCHER": 2639,
      "AL1": 2640,
      "LYM": 2641,
      "177": 2642,
      "CV3": 2643,
      "ford": 2644,
      "TAUNTON": 2645,
      "MC": 2646,
      "RICKMANSWORTH": 2647,
      "SEELEY": 2648,
      "BIN": 2649,
      "EC2A": 2650,
      "CHASE": 2651,
      "CLARENCE": 2652,
      "REI": 2653,
      "UNDER": 2654,
      "FERRIBY": 2655,
      "ENG": 2656,
      "SW20": 2657,
      "CR8": 2658,
      "CARLISLE": 2659,
      "PR2": 2660,
      "CB1": 2661,
      "LOCKWOOD": 2662,
      "TEDDINGTON": 2663,
      "SCUN": 2664,
      "SCUNTHORPE": 2665,
      "KENTON": 2666,
      "MD": 2667,
      "MEWS": 2668,
      "CALUM": 2669,
      "CALUMET": 2670,
      "TRY": 2671,
      "KA": 2672,
      "DAL": 2673,
      "EVE": 2674,
      "RUN": 2675,
      "CIAL": 2676,
      "Field": 2677,
      "JOR": 2678,
      "COMMERCIAL": 2679,
      "71ST": 2680,
      "LUN": 2681,
      "609": 2682,
      "8U": 2683,
      "OLL": 2684,
      "MAYFIELD": 2685,
      "YL": 2686,
      "TW1": 2687,
      "ODY": 2688,
      "WA15": 2689,
      "KEYSTONE": 2690,
      "GRACE": 2691,
      "QUIN": 2692,
      "WA5": 2693,
      "SER": 2694,
      "NORMAL": 2695,
      "ANDOVER": 2696,
      "241": 2697,
      "WARDS": 2698,
      "SANGAMON": 2699,
      "CRS": 2700,
      "HINCKLEY": 2701,
      "231": 2702,
      "KER": 2703,
      "BELLE": 2704,
      "9DN": 2705,
      "MBARD": 2706,
      "Countryside": 2707,
      "219": 2708,
      "SHOT": 2709,
      "BA1": 2710,
      "525": 2711,
      "ORNE": 2712,
      "TW9": 2713,
      "443": 2714,
      "235": 2715,
      "WOODLAND": 2716,
      "LEAF": 2717,
      "FALKIRK": 2718,
      "THROOP": 2719,
      "ELLIS": 2720,
      "NE1": 2721,
      "ORI": 2722,
      "21ST": 2723,
      "DOCTOR": 2724,
      "Wood": 2725,
      "JEFF": 2726,
      "WIT": 2727,
      "MEADE": 2728,
      "ly": 2729,
      "FERM": 2730,
      "PARNELL": 2731,
      "DUNFERM": 2732,
      "DUNFERMLINE": 2733,
      "CLEVELAND": 2734,
      "INGDON": 2735,
      "LEYS": 2736,
      "FINCHLEY": 2737,
      "CRECENT": 2738,
      "60461": 2739,
      "ERITH": 2740,
      "ICKER": 2741,
      "WHITEH": 2742,
      "FULLERTON": 2743,
      "FRANK": 2744,
      "57TH": 2745,
      "BA2": 2746,
      "LEATHER": 2747,
      "LS17": 2748,
      "DAV": 2749,
      "5X": 2750,
      "TW13": 2751,
      "0X": 2752,
      "WOODLAWN": 2753,
      "KT12": 2754,
      "LOMBARD": 2755,
      "95TH": 2756,
      "3AA": 2757,
      "WHITT": 2758,
      "9AA": 2759,
      "WRIGHT": 2760,
      "KEA": 2761,
      "DREX": 2762,
      "JR": 2763,
      "Oly": 2764,
      "mpia": 2765,
      "Fields": 2766,
      "DREXEL": 2767,
      "Olympia": 2768,
      "KOLMAR": 2769,
      "PR8": 2770,
      "SE19": 2771,
      "405": 2772,
      "543": 2773,
      "72ND": 2774,
      "5NU": 2775,
      "GU21": 2776,
      "2U": 2777,
      "7JP": 2778,
      "UB4": 2779,
      "ARY": 2780,
      "406": 2781,
      "Stick": 2782,
      "Stickney": 2783,
      "MELROSE": 2784,
      "own": 2785,
      "390": 2786,
      "WL": 2787,
      "PARADE": 2788,
      "HAWTHORNE": 2789,
      "HARTLE": 2790,
      "ite": 2791,
      "NORMANDY": 2792,
      "24TH": 2793,
      "GU14": 2794,
      "INVERNESS": 2795,
      "BRAY": 2796,
      "NEWLAND": 2797,
      "HARTLEPOOL": 2798,
      "9U": 2799,
      "LAFLIN": 2800,
      "LS8": 2801,
      "ADA": 2802,
      "PLAC": 2803,
      "PPING": 2804,
      "SL2": 2805,
      "Lar": 2806,
      "BRIAR": 2807,
      "CLIFFE": 2808,
      "MAJOR": 2809,
      "303": 2810,
      "ASCOT": 2811,
      "arl": 2812,
      "RH1": 2813,
      "PLC": 2814,
      "WIMBORNE": 2815,
      "FOSTER": 2816,
      "REGENT": 2817,
      "COTTAGE": 2818,
      "MIDDLE": 2819,
      "WATERLOOVILLE": 2820,
      "OAKWOOD": 2821,
      "Sher": 2822,
      "ELLO": 2823,
      "NORTHWEST": 2824,
      "236": 2825,
      "SUNSET": 2826,
      "TW4": 2827,
      "74TH": 2828,
      "NOTT": 2829,
      "186": 2830,
      "Burr": 2831,
      "ERICA": 2832,
      "60480": 2833,
      "TW11": 2834,
      "ISLEY": 2835,
      "HARVEY": 2836,
      "KT6": 2837,
      "LEATHERHEAD": 2838,
      "ELSTON": 2839,
      "408": 2840,
      "85TH": 2841,
      "CHARLES": 2842,
      "OLI": 2843,
      "211": 2844,
      "LAM": 2845,
      "WC1B": 2846,
      "BLE": 2847,
      "GD": 2848,
      "Robb": 2849,
      "LEMONT": 2850,
      "51ST": 2851,
      "Pos": 2852,
      "TERS": 2853,
      "Posen": 2854,
      "RAVEN": 2855,
      "WD3": 2856,
      "ALDING": 2857,
      "237": 2858,
      "232": 2859,
      "BEXLEYHEATH": 2860,
      "LAVER": 2861,
      "etown": 2862,
      "WILSON": 2863,
      "6U": 2864,
      "NN1": 2865,
      "VERS": 2866,
      "60469": 2867,
      "3BQ": 2868,
      "NELS": 2869,
      "BEVERLEY": 2870,
      "4U": 2871,
      "ETTE": 2872,
      "SE23": 2873,
      "302": 2874,
      "554": 2875,
      "76TH": 2876,
      "SPALDING": 2877,
      "Robbins": 2878,
      "NN8": 2879,
      "CM23": 2880,
      "SHEY": 2881,
      "OLA": 2882,
      "OAKS": 2883,
      "60605": 2884,
      "UB1": 2885,
      "eur": 2886,
      "409": 2887,
      "pent": 2888,
      "60163": 2889,
      "Larpent": 2890,
      "Larpenteur": 2891,
      "HA6": 2892,
      "VW": 2893,
      "be": 2894,
      "SE3": 2895,
      "Hometown": 2896,
      "245": 2897,
      "2EL": 2898,
      "LE12": 2899,
      "CF5": 2900,
      "MOODY": 2901,
      "ENGLAND": 2902,
      "ERSON": 2903,
      "BRIERLEY": 2904,
      "60472": 2905,
      "COMMON": 2906,
      "xington": 2907,
      "Lexington": 2908,
      "JAMES": 2909,
      "ORLAND": 2910,
      "60456": 2911,
      "DEWSBURY": 2912,
      "BR6": 2913,
      "450": 2914,
      "HARPENDEN": 2915,
      "OX2": 2916,
      "GHTS": 2917,
      "SILVER": 2918,
      "47TH": 2919,
      "LE10": 2920,
      "ILKLEY": 2921,
      "COW": 2922,
      "KIDDER": 2923,
      "PR4": 2924,
      "WILLIAM": 2925,
      "185": 2926,
      "163": 2927,
      "HARVARD": 2928,
      "BSON": 2929,
      "1BD": 2930,
      "PAISLEY": 2931,
      "BILLERICA": 2932,
      "BILLERICAY": 2933,
      "490": 2934,
      "GF": 2935,
      "MONTIC": 2936,
      "MONTICELLO": 2937,
      "81ST": 2938,
      "AMERSHAM": 2939,
      "KT2": 2940,
      "LAVERGNE": 2941,
      "KEATING": 2942,
      "MALVERN": 2943,
      "234": 2944,
      "WA4": 2945,
      "JUST": 2946,
      "LESIDE": 2947,
      "KIDDERMINSTER": 2948,
      "CTON": 2949,
      "ARTHUR": 2950,
      "WILTON": 2951,
      "215": 2952,
      "233": 2953,
      "404": 2954,
      "SK4": 2955,
      "210": 2956,
      "HAYWARDS": 2957,
      "WESLEY": 2958,
      "NELSON": 2959,
      "453": 2960,
      "BUSHEY": 2961,
      "344": 2962,
      "COE": 2963,
      "TW2": 2964,
      "IP": 2965,
      "RM6": 2966,
      "UB5": 2967,
      "OF": 2968,
      "60TH": 2969,
      "WC2E": 2970,
      "WEN": 2971,
      "RAIN": 2972,
      "HICK": 2973,
      "BEACONSFIELD": 2974,
      "4LN": 2975,
      "DENE": 2976,
      "ASHTON": 2977,
      "NAR": 2978,
      "ap": 2979,
      "55114": 2980,
      "77TH": 2981,
      "BLOOM": 2982,
      "LET": 2983,
      "View": 2984,
      "HERTFORD": 2985,
      "HAZ": 2986,
      "KNOX": 2987,
      "3U": 2988,
      "LESTONE": 2989,
      "PLEA": 2990,
      "3DQ": 2991,
      "DEAN": 2992,
      "MONTROSE": 2993,
      "OSE": 2994,
      "SO15": 2995,
      "SE25": 2996,
      "ell": 2997,
      "3BZ": 2998,
      "REIGATE": 2999,
      "PIT": 3000,
      "SEL": 3001,
      "174": 3002,
      "DORCHESTER": 3003,
      "EH4": 3004,
      "60475": 3005,
      "LECLAIRE": 3006,
      "9HA": 3007,
      "Su": 3008,
      "BEY": 3009,
      "CV2": 3010,
      "MELVIN": 3011,
      "212": 3012,
      "50TH": 3013,
      "SS9": 3014,
      "LYTHAM": 3015,
      "CLINTON": 3016,
      "OZ": 3017,
      "CENTER": 3018,
      "COUNT": 3019,
      "PE1": 3020,
      "633": 3021,
      "Steger": 3022,
      "TORQUAY": 3023,
      "EM": 3024,
      "PERRY": 3025,
      "DIVER": 3026,
      "CAER": 3027,
      "ASHFORD": 3028,
      "1NQ": 3029,
      "Cle": 3030,
      "DIVERSEY": 3031,
      "ABINGDON": 3032,
      "1BZ": 3033,
      "DEL": 3034,
      "DAVEN": 3035,
      "MCV": 3036,
      "78TH": 3037,
      "MCVICKER": 3038,
      "MELVINA": 3039,
      "STEWAR": 3040,
      "RM16": 3041,
      "MAK": 3042,
      "SK7": 3043,
      "YD": 3044,
      "DY5": 3045,
      "PLEASANT": 3046,
      "WEYBRIDGE": 3047,
      "407": 3048,
      "243": 3049,
      "WHITTLE": 3050,
      "7HA": 3051,
      "LS29": 3052,
      "ce": 3053,
      "HERE": 3054,
      "2FP": 3055,
      "WITNEY": 3056,
      "SUNNYSIDE": 3057,
      "ITH": 3058,
      "STOW": 3059,
      "HEYWOOD": 3060,
      "APP": 3061,
      "SOMER": 3062,
      "HG1": 3063,
      "WA3": 3064,
      "EH12": 3065,
      "IGN": 3066,
      "RAND": 3067,
      "ALMING": 3068,
      "KOLIN": 3069,
      "GODALMING": 3070,
      "FERN": 3071,
      "ELK": 3072,
      "DRO": 3073,
      "AL5": 3074,
      "DICK": 3075,
      "GLAD": 3076,
      "SHIP": 3077,
      "7U": 3078,
      "NW7": 3079,
      "SK11": 3080,
      "BURNT": 3081,
      "LEX": 3082,
      "GRN": 3083,
      "ORIOLE": 3084,
      "SOUTHSEA": 3085,
      "TW12": 3086,
      "GU15": 3087,
      "CV32": 3088,
      "LESEY": 3089,
      "NAGLE": 3090,
      "AWA": 3091,
      "FB": 3092,
      "RUTHER": 3093,
      "VISION": 3094,
      "UB8": 3095,
      "DIVISION": 3096,
      "ENI": 3097,
      "CERMAK": 3098,
      "TINE": 3099,
      "haha": 3100,
      "Minnehaha": 3101,
      "MARLOW": 3102,
      "CV5": 3103,
      "CF24": 3104,
      "CUL": 3105,
      "ITOR": 3106,
      "SHA": 3107,
      "SE4": 3108,
      "NW5": 3109,
      "GREENLEAF": 3110,
      "FFIELD": 3111,
      "YLER": 3112,
      "CUYLER": 3113,
      "STEWART": 3114,
      "LETON": 3115,
      "MONITOR": 3116,
      "TAIN": 3117,
      "HP13": 3118,
      "RIVERSIDE": 3119,
      "JUSTINE": 3120,
      "SW3": 3121,
      "705": 3122,
      "BLUE": 3123,
      "EC2": 3124,
      "ADLIN": 3125,
      "PR7": 3126,
      "UB2": 3127,
      "SO31": 3128,
      "BRU": 3129,
      "TSFORD": 3130,
      "UB7": 3131,
      "SWADLIN": 3132,
      "NW8": 3133,
      "SWADLINCOTE": 3134,
      "HU17": 3135,
      "8AH": 3136,
      "FRANKLIN": 3137,
      "ROBIN": 3138,
      "BOG": 3139,
      "214": 3140,
      "805": 3141,
      "GOS": 3142,
      "STROU": 3143,
      "18TH": 3144,
      "TOWER": 3145,
      "WALL": 3146,
      "Burn": 3147,
      "SE14": 3148,
      "808": 3149,
      "PRIORY": 3150,
      "RHOD": 3151,
      "CRAIG": 3152,
      "244": 3153,
      "BOW": 3154,
      "BH23": 3155,
      "hall": 3156,
      "BERN": 3157,
      "ROSS": 3158,
      "OX4": 3159,
      "SK10": 3160,
      "DA8": 3161,
      "ENSKY": 3162,
      "KOM": 3163,
      "SWICK": 3164,
      "ANNES": 3165,
      "KOMENSKY": 3166,
      "EVERGREEN": 3167,
      "242": 3168,
      "LODGE": 3169,
      "ADAMS": 3170,
      "184": 3171,
      "CV8": 3172,
      "CAMORE": 3173,
      "WID": 3174,
      "SYCAMORE": 3175,
      "EAR": 3176,
      "BRYN": 3177,
      "LAMON": 3178,
      "LSDON": 3179,
      "MORAL": 3180,
      "BALMORAL": 3181,
      "HEREFORD": 3182,
      "NE3": 3183,
      "ANDRA": 3184,
      "4Y": 3185,
      "EH54": 3186,
      "WHITLEY": 3187,
      "7PN": 3188,
      "8TH": 3189,
      "PR9": 3190,
      "8JY": 3191,
      "15TH": 3192,
      "VILLA": 3193,
      "DA12": 3194,
      "NOTTINGHAM": 3195,
      "ANN": 3196,
      "HILLSIDE": 3197,
      "TAY": 3198,
      "TOU": 3199,
      "4AP": 3200,
      "MERRILL": 3201,
      "238": 3202,
      "WOODLANDS": 3203,
      "CHELL": 3204,
      "FOLKESTONE": 3205,
      "161": 3206,
      "PALACE": 3207,
      "SAYRE": 3208,
      "SE10": 3209,
      "ABBEY": 3210,
      "ROYSTON": 3211,
      "SALLE": 3212,
      "CB4": 3213,
      "PRINCES": 3214,
      "Sne": 3215,
      "Snelling": 3216,
      "239": 3217,
      "707": 3218,
      "BEAU": 3219,
      "IAL": 3220,
      "SK6": 3221,
      "PERTH": 3222,
      "ALEXANDRA": 3223,
      "LEXINGTON": 3224,
      "BOGNOR": 3225,
      "STROUD": 3226,
      "BROOM": 3227,
      "OL10": 3228,
      "ROL": 3229,
      "MAGN": 3230,
      "KT13": 3231,
      "WOLF": 3232,
      "YALE": 3233,
      "ROOD": 3234,
      "PHILLY": 3235,
      "CAERPHILLY": 3236,
      "89TH": 3237,
      "GLO": 3238,
      "LOREL": 3239,
      "LE11": 3240,
      "708": 3241,
      "SW1Y": 3242,
      "POINT": 3243,
      "SPEN": 3244,
      "worth": 3245,
      "Mary": 3246,
      "EC1N": 3247,
      "REGIS": 3248,
      "GREENVIEW": 3249,
      "CLYDE": 3250,
      "60527": 3251,
      "COULSDON": 3252,
      "ENE": 3253,
      "KS": 3254,
      "643": 3255,
      "OTS": 3256,
      "HP2": 3257,
      "CUR": 3258,
      "BOSTON": 3259,
      "CV37": 3260,
      "PONTE": 3261,
      "345": 3262,
      "GLA": 3263,
      "WA10": 3264,
      "1000": 3265,
      "ONT": 3266,
      "733": 3267,
      "SIDINGS": 3268,
      "LS28": 3269,
      "NORDI": 3270,
      "ARMITAGE": 3271,
      "BORN": 3272,
      "Ham": 3273,
      "NETT": 3274,
      "SE26": 3275,
      "CROM": 3276,
      "MIR": 3277,
      "LE1": 3278,
      "505": 3279,
      "CLAY": 3280,
      "EC3M": 3281,
      "5U": 3282,
      "HOPE": 3283,
      "WD23": 3284,
      "STAIR": 3285,
      "809": 3286,
      "60203": 3287,
      "LORD": 3288,
      "HARBOROUGH": 3289,
      "5AA": 3290,
      "425": 3291,
      "DAVENTRY": 3292,
      "NORDICA": 3293,
      "ISS": 3294,
      "GL52": 3295,
      "YATES": 3296,
      "ENSINGTON": 3297,
      "RUTHERFORD": 3298,
      "100TH": 3299,
      "PALMER": 3300,
      "GOSPORT": 3301,
      "KT19": 3302,
      "NASH": 3303,
      "Highway": 3304,
      "KNU": 3305,
      "DBURY": 3306,
      "RH12": 3307,
      "SE8": 3308,
      "PAXTON": 3309,
      "KNUTSFORD": 3310,
      "KENSINGTON": 3311,
      "FRACT": 3312,
      "RHODES": 3313,
      "PONTEFRACT": 3314,
      "807": 3315,
      "SSA": 3316,
      "441": 3317,
      "HOLYROOD": 3318,
      "MNR": 3319,
      "ME5": 3320,
      "KIMBALL": 3321,
      "CHALK": 3322,
      "AL3": 3323,
      "25TH": 3324,
      "BYRON": 3325,
      "Rice": 3326,
      "ETO": 3327,
      "KNI": 3328,
      "COB": 3329,
      "MK40": 3330,
      "173": 3331,
      "DOU": 3332,
      "26TH": 3333,
      "ren": 3334,
      "709": 3335,
      "VINE": 3336,
      "EDWARD": 3337,
      "MOLESEY": 3338,
      "16TH": 3339,
      "OIS": 3340,
      "ELIA": 3341,
      "TW5": 3342,
      "CHEZ": 3343,
      "NATCHEZ": 3344,
      "UNIVERS": 3345,
      "UNIVERSITY": 3346,
      "GU9": 3347,
      "BROOKE": 3348,
      "OLIA": 3349,
      "88TH": 3350,
      "LN6": 3351,
      "MAGNOLIA": 3352,
      "LANCASTER": 3353,
      "DES": 3354,
      "706": 3355,
      "DORKING": 3356,
      "KT1": 3357,
      "GRIN": 3358,
      "0U": 3359,
      "ELLES": 3360,
      "AL7": 3361,
      "WILD": 3362,
      "BN11": 3363,
      "HIGHFIELD": 3364,
      "SG5": 3365,
      "213": 3366,
      "19TH": 3367,
      "HD1": 3368,
      "POPLA": 3369,
      "ABBOT": 3370,
      "535": 3371,
      "CHESHAM": 3372,
      "BEACH": 3373,
      "90TH": 3374,
      "DE14": 3375,
      "MOWBRAY": 3376,
      "LAWLER": 3377,
      "CO4": 3378,
      "SG12": 3379,
      "STANLEY": 3380,
      "BH21": 3381,
      "ALDERSHOT": 3382,
      "one": 3383,
      "KT4": 3384,
      "DOBSON": 3385,
      "111TH": 3386,
      "ESHER": 3387,
      "SIN": 3388,
      "DY8": 3389,
      "WD24": 3390,
      "DUND": 3391,
      "804": 3392,
      "22ND": 3393,
      "CR3": 3394,
      "NEVA": 3395,
      "OKETO": 3396,
      "WF2": 3397,
      "NATOMA": 3398,
      "310": 3399,
      "ARGY": 3400,
      "103RD": 3401,
      "249": 3402,
      "LYNE": 3403,
      "MITH": 3404,
      "HAZEL": 3405,
      "BR5": 3406,
      "ARM": 3407,
      "MANCHESTER": 3408,
      "Day": 3409,
      "AMFORD": 3410,
      "BERKHAM": 3411,
      "GL7": 3412,
      "CV34": 3413,
      "WICKHAM": 3414,
      "DE23": 3415,
      "DA16": 3416,
      "GRINSTEAD": 3417,
      "BRIGAN": 3418,
      "WS1": 3419,
      "CB24": 3420,
      "CV1": 3421,
      "SEX": 3422,
      "BURGE": 3423,
      "MITCHELL": 3424,
      "Dayton": 3425,
      "LANS": 3426,
      "MAT": 3427,
      "107TH": 3428,
      "BRAM": 3429,
      "SETT": 3430,
      "602": 3431,
      "ENCESTER": 3432,
      "CIRENCESTER": 3433,
      "TROW": 3434,
      "PE2": 3435,
      "COCK": 3436,
      "SS0": 3437,
      "CUMBER": 3438,
      "BRIGANTINE": 3439,
      "TOUHY": 3440,
      "247": 3441,
      "BORNE": 3442,
      "BERKHAMSTED": 3443,
      "JAR": 3444,
      "704": 3445,
      "833": 3446,
      "EVAN": 3447,
      "VELT": 3448,
      "RH2": 3449,
      "BICESTER": 3450,
      "31ST": 3451,
      "SO16": 3452,
      "SE11": 3453,
      "KT17": 3454,
      "GLAS": 3455,
      "3SS": 3456,
      "OUN": 3457,
      "AB10": 3458,
      "341": 3459,
      "SE12": 3460,
      "ROOSE": 3461,
      "Mont": 3462,
      "SWELL": 3463,
      "54TH": 3464,
      "ELLESMERE": 3465,
      "ROOSEVELT": 3466,
      "GOLD": 3467,
      "LOWELL": 3468,
      "HUNT": 3469,
      "CORT": 3470,
      "WALDEN": 3471,
      "CV11": 3472,
      "725": 3473,
      "STH": 3474,
      "WIDNES": 3475,
      "AIR": 3476,
      "STU": 3477,
      "80TH": 3478,
      "BURGESS": 3479,
      "EH10": 3480,
      "ME15": 3481,
      "HEATHER": 3482,
      "TAYLOR": 3483,
      "SKE": 3484,
      "ENHALL": 3485,
      "189": 3486,
      "SW10": 3487,
      "CV22": 3488,
      "GLETON": 3489,
      "91ST": 3490,
      "line": 3491,
      "806": 3492,
      "WHE": 3493,
      "CHAMPLAIN": 3494,
      "MED": 3495,
      "BATLEY": 3496,
      "603": 3497,
      "1Y": 3498,
      "veland": 3499,
      "Cleveland": 3500,
      "5th": 3501,
      "shall": 3502,
      "und": 3503,
      "ME2": 3504,
      "Marshall": 3505,
      "HATTON": 3506,
      "WESTCLIFF": 3507,
      "OAKTON": 3508,
      "ng": 3509,
      "ESIDE": 3510,
      "da": 3511,
      "ph": 3512,
      "HD8": 3513,
      "HICKORY": 3514,
      "ELMER": 3515,
      "CTORY": 3516,
      "MERRIMAC": 3517,
      "STAMFORD": 3518,
      "Ford": 3519,
      "VICAR": 3520,
      "248": 3521,
      "DICKENS": 3522,
      "BIG": 3523,
      "445": 3524,
      "509": 3525,
      "FY8": 3526,
      "POLE": 3527,
      "ONA": 3528,
      "GORDON": 3529,
      "POPLAR": 3530,
      "LE9": 3531,
      "Ind": 3532,
      "CUMBERLAND": 3533,
      "625": 3534,
      "HG2": 3535,
      "WINDMILL": 3536,
      "FN": 3537,
      "RAINHAM": 3538,
      "Indian": 3539,
      "PRIDD": 3540,
      "PONTYPRIDD": 3541,
      "RINGWOOD": 3542,
      "508": 3543,
      "MOTHER": 3544,
      "YEO": 3545,
      "LE7": 3546,
      "ERHAM": 3547,
      "MOTHERWELL": 3548,
      "AMELIA": 3549,
      "SHILL": 3550,
      "ROSCOE": 3551,
      "EMERSON": 3552,
      "NP20": 3553,
      "BIRCHWOOD": 3554,
      "GAIN": 3555,
      "HANOVER": 3556,
      "246": 3557,
      "TRINITY": 3558,
      "LINDER": 3559,
      "ROYAL": 3560,
      "GLENWOOD": 3561,
      "WC1": 3562,
      "7AX": 3563,
      "825": 3564,
      "8DA": 3565,
      "sity": 3566,
      "Univer": 3567,
      "EH1": 3568,
      "IMBER": 3569,
      "University": 3570,
      "CM7": 3571,
      "HAV": 3572,
      "555": 3573,
      "WESTGATE": 3574,
      "VES": 3575,
      "FY1": 3576,
      "AL10": 3577,
      "DA7": 3578,
      "49TH": 3579,
      "SG4": 3580,
      "KENMORE": 3581,
      "115TH": 3582,
      "GROS": 3583,
      "PI": 3584,
      "ure": 3585,
      "ROBE": 3586,
      "LATROBE": 3587,
      "FEN": 3588,
      "SW5": 3589,
      "MILLARD": 3590,
      "CONGLETON": 3591,
      "BENFLEET": 3592,
      "CHWORTH": 3593,
      "OL11": 3594,
      "LARK": 3595,
      "BOL": 3596,
      "ADY": 3597,
      "CR5": 3598,
      "FAIRVIEW": 3599,
      "GL51": 3600,
      "743": 3601,
      "HAD": 3602,
      "STOL": 3603,
      "402": 3604,
      "403": 3605,
      "GRV": 3606,
      "SW1W": 3607,
      "ML3": 3608,
      "by": 3609,
      "LEWES": 3610,
      "GRAVE": 3611,
      "NANTWICH": 3612,
      "NN11": 3613,
      "AUGU": 3614,
      "EC2N": 3615,
      "SG8": 3616,
      "53RD": 3617,
      "FOLD": 3618,
      "DISH": 3619,
      "BIL": 3620,
      "STICK": 3621,
      "NEOTS": 3622,
      "FRM": 3623,
      "NEWMARKET": 3624,
      "SO53": 3625,
      "GRANT": 3626,
      "933": 3627,
      "err": 3628,
      "ort": 3629,
      "GU22": 3630,
      "RAYLEIGH": 3631,
      "LE67": 3632,
      "WOODSIDE": 3633,
      "183": 3634,
      "HP9": 3635,
      "ARLINGTON": 3636,
      "195": 3637,
      "908": 3638,
      "HP4": 3639,
      "EVESHAM": 3640,
      "14TH": 3641,
      "KNOLL": 3642,
      "CV21": 3643,
      "GRVE": 3644,
      "CM3": 3645,
      "GL2": 3646,
      "NE4": 3647,
      "909": 3648,
      "MALDON": 3649,
      "FRETON": 3650,
      "FLET": 3651,
      "CHESS": 3652,
      "506": 3653,
      "CF64": 3654,
      "NORTON": 3655,
      "IGAN": 3656,
      "ZE": 3657,
      "STICKNEY": 3658,
      "WAT": 3659,
      "LYMINGTON": 3660,
      "LE16": 3661,
      "FH": 3662,
      "CATERHAM": 3663,
      "5BD": 3664,
      "ODELL": 3665,
      "905": 3666,
      "BLACKSTONE": 3667,
      "NARRA": 3668,
      "INGLESIDE": 3669,
      "WA8": 3670,
      "MOBI": 3671,
      "KT10": 3672,
      "MOBILE": 3673,
      "SW14": 3674,
      "SL5": 3675,
      "SCO": 3676,
      "CF83": 3677,
      "GANSETT": 3678,
      "NARRAGANSETT": 3679,
      "RIS": 3680,
      "Maryland": 3681,
      "Hamline": 3682,
      "HEIM": 3683,
      "REDCAR": 3684,
      "6TH": 3685,
      "POU": 3686,
      "311": 3687,
      "SO50": 3688,
      "RUSHDEN": 3689,
      "RAN": 3690,
      "WALLA": 3691,
      "CORNELL": 3692,
      "65TH": 3693,
      "TTERWORTH": 3694,
      "Rand": 3695,
      "60611": 3696,
      "444": 3697,
      "4AZ": 3698,
      "Fair": 3699,
      "CB23": 3700,
      "Thor": 3701,
      "531": 3702,
      "LS16": 3703,
      "TUS": 3704,
      "MULL": 3705,
      "TEM": 3706,
      "NASHVILLE": 3707,
      "DUNDEE": 3708,
      "DEER": 3709,
      "PENARTH": 3710,
      "elby": 3711,
      "PLUM": 3712,
      "BRISTOL": 3713,
      "GL50": 3714,
      "NINGTON": 3715,
      "CORD": 3716,
      "SMITH": 3717,
      "Selby": 3718,
      "ALFRETON": 3719,
      "LEYLAND": 3720,
      "PE19": 3721,
      "LUTTERWORTH": 3722,
      "FUR": 3723,
      "ROTH": 3724,
      "KINGSWAY": 3725,
      "lle": 3726,
      "Head": 3727,
      "6AA": 3728,
      "507": 3729,
      "FG": 3730,
      "ier": 3731,
      "MOSS": 3732,
      "Laure": 3733,
      "Laurel": 3734,
      "DA15": 3735,
      "VENOR": 3736,
      "Ash": 3737,
      "OCT": 3738,
      "RH16": 3739,
      "THERBY": 3740,
      "WD18": 3741,
      "HALE": 3742,
      "EH7": 3743,
      "Burnham": 3744,
      "VICARAGE": 3745,
      "FIRTH": 3746,
      "TW14": 3747,
      "BRAE": 3748,
      "162": 3749,
      "SP10": 3750,
      "wa": 3751,
      "SE27": 3752,
      "COP": 3753,
      "86TH": 3754,
      "6DH": 3755,
      "THROP": 3756,
      "9AU": 3757,
      "TW10": 3758,
      "342": 3759,
      "LAUREL": 3760,
      "HURON": 3761,
      "SE2": 3762,
      "WV6": 3763,
      "GLEBE": 3764,
      "HAVER": 3765,
      "STONEH": 3766,
      "NN5": 3767,
      "FLOR": 3768,
      "RAMS": 3769,
      "Ashland": 3770,
      "WALLASEY": 3771,
      "PR5": 3772,
      "187": 3773,
      "BH14": 3774,
      "7BD": 3775,
      "56TH": 3776,
      "CROMWELL": 3777,
      "COBHAM": 3778,
      "GS": 3779,
      "DE21": 3780,
      "DA11": 3781,
      "LS7": 3782,
      "BROWN": 3783,
      "AVIA": 3784,
      "BACH": 3785,
      "ME7": 3786,
      "RM11": 3787,
      "843": 3788,
      "ESSEX": 3789,
      "BUTTER": 3790,
      "EVANS": 3791,
      "LLA": 3792,
      "66TH": 3793,
      "DOUGLAS": 3794,
      "70TH": 3795,
      "COUNTRY": 3796,
      "BERNARD": 3797,
      "Re": 3798,
      "AL4": 3799,
      "GHAM": 3800,
      "315": 3801,
      "504": 3802,
      "GAT": 3803,
      "101ST": 3804,
      "MANN": 3805,
      "CHURCHILL": 3806,
      "SS7": 3807,
      "906": 3808,
      "BRIGHOUSE": 3809,
      "Port": 3810,
      "WA2": 3811,
      "DE56": 3812,
      "60654": 3813,
      "WS11": 3814,
      "CORNEL": 3815,
      "Portland": 3816,
      "Cent": 3817,
      "TAD": 3818,
      "AVA": 3819,
      "EASTWOOD": 3820,
      "907": 3821,
      "WA16": 3822,
      "URST": 3823,
      "EBER": 3824,
      "ME14": 3825,
      "ML1": 3826,
      "OX16": 3827,
      "MBURG": 3828,
      "ALTON": 3829,
      "188": 3830,
      "RM3": 3831,
      "VINC": 3832,
      "RECTORY": 3833,
      "CW9": 3834,
      "4th": 3835,
      "2Y": 3836,
      "AUMBURG": 3837,
      "SCHAUMBURG": 3838,
      "MUL": 3839,
      "CORNELIA": 3840,
      "GAINSBOROUGH": 3841,
      "EBERHART": 3842,
      "FORT": 3843,
      "HU15": 3844,
      "THERINE": 3845,
      "WF17": 3846,
      "OCTAVIA": 3847,
      "9Y": 3848,
      "172": 3849,
      "1100": 3850,
      "WN6": 3851,
      "RAVENS": 3852,
      "DNEY": 3853,
      "99TH": 3854,
      "DE22": 3855,
      "ANDRE": 3856,
      "BELPER": 3857,
      "MARL": 3858,
      "CW12": 3859,
      "WAVER": 3860,
      "SUTTON": 3861,
      "533": 3862,
      "536": 3863,
      "KT8": 3864,
      "CLARENDON": 3865,
      "GROSVENOR": 3866,
      "ion": 3867,
      "532": 3868,
      "ABLE": 3869,
      "RH15": 3870,
      "GRANVILLE": 3871,
      "TROWBRIDGE": 3872,
      "DA5": 3873,
      "MORA": 3874,
      "ELGIN": 3875,
      "BENNETT": 3876,
      "551": 3877,
      "545": 3878,
      "1HD": 3879,
      "HERNE": 3880,
      "PE28": 3881,
      "ARGYLE": 3882,
      "6th": 3883,
      "MK5": 3884,
      "GU51": 3885,
      "ALGON": 3886,
      "COAL": 3887,
      "HD9": 3888,
      "Bear": 3889,
      "333": 3890,
      "LESBY": 3891,
      "WV10": 3892,
      "Bir": 3893,
      "EGGLE": 3894,
      "BATTER": 3895,
      "NN10": 3896,
      "UB10": 3897,
      "WETHERBY": 3898,
      "320": 3899,
      "WS2": 3900,
      "69TH": 3901,
      "WD17": 3902,
      "SUDBURY": 3903,
      "EGGLESTON": 3904,
      "5TH": 3905,
      "TIL": 3906,
      "HILLS": 3907,
      "GHTON": 3908,
      "SWIN": 3909,
      "DIT": 3910,
      "Jess": 3911,
      "BROCK": 3912,
      "RM7": 3913,
      "CARLTON": 3914,
      "nton": 3915,
      "ESBURY": 3916,
      "MK4": 3917,
      "60172": 3918,
      "GIL": 3919,
      "TS17": 3920,
      "olph": 3921,
      "ENAH": 3922,
      "NEENAH": 3923,
      "OLCOTT": 3924,
      "BARTON": 3925,
      "CAD": 3926,
      "194": 3927,
      "REN": 3928,
      "WN2": 3929,
      "YEOVIL": 3930,
      "SAFF": 3931,
      "1LA": 3932,
      "442": 3933,
      "EH14": 3934,
      "OX14": 3935,
      "SEN": 3936,
      "CHESSINGTON": 3937,
      "ASHBY": 3938,
      "Win": 3939,
      "WING": 3940,
      "HD6": 3941,
      "PO4": 3942,
      "RUM": 3943,
      "KENWOOD": 3944,
      "HENDER": 3945,
      "KEL": 3946,
      "DURHAM": 3947,
      "BRUN": 3948,
      "EC4A": 3949,
      "KIMBARK": 3950,
      "YARD": 3951,
      "CF23": 3952,
      "White": 3953,
      "RUNCORN": 3954,
      "ALGONQUIN": 3955,
      "HENDERSON": 3956,
      "LOTUS": 3957,
      "SO23": 3958,
      "HP5": 3959,
      "WN8": 3960,
      "GGIN": 3961,
      "PAUL": 3962,
      "DE24": 3963,
      "HEI": 3964,
      "FLETCHER": 3965,
      "904": 3966,
      "HOLMFIRTH": 3967,
      "1DD": 3968,
      "PEAR": 3969,
      "arles": 3970,
      "MACK": 3971,
      "WHAR": 3972,
      "OGLESBY": 3973,
      "CAMP": 3974,
      "CHERT": 3975,
      "rd": 3976,
      "ENNES": 3977,
      "PR6": 3978,
      "8PX": 3979,
      "NN6": 3980,
      "FRASER": 3981,
      "HP12": 3982,
      "CHANGE": 3983,
      "312": 3984,
      "WD19": 3985,
      "Randolph": 3986,
      "Br": 3987,
      "IO": 3988,
      "MUN": 3989,
      "Terr": 3990,
      "STABLE": 3991,
      "LE8": 3992,
      "SPRU": 3993,
      "RH6": 3994,
      "MARCH": 3995,
      "De": 3996,
      "VIR": 3997,
      "EXCHANGE": 3998,
      "SQR": 3999,
      "ROBER": 4000,
      "261": 4001,
      "ert": 4002,
      "MARYLAND": 4003,
      "10th": 4004,
      "BH15": 4005,
      "2DB": 4006,
      "INA": 4007,
      "LOCH": 4008,
      "BALD": 4009,
      "OCON": 4010,
      "171": 4011,
      "WD25": 4012,
      "CRY": 4013,
      "537": 4014,
      "WR11": 4015,
      "62ND": 4016,
      "WRIGHTWOOD": 4017,
      "93RD": 4018,
      "OCONTO": 4019,
      "Si": 4020,
      "DERE": 4021,
      "CB6": 4022,
      "GU7": 4023,
      "Charles": 4024,
      "1QQ": 4025,
      "BRIDGWATER": 4026,
      "HEIGHTS": 4027,
      "SPRUCE": 4028,
      "WN7": 4029,
      "17TH": 4030,
      "EH48": 4031,
      "ME10": 4032,
      "BECH": 4033,
      "DN6": 4034,
      "9LT": 4035,
      "Tr": 4036,
      "449": 4037,
      "PE7": 4038,
      "PRIM": 4039,
      "BA15": 4040,
      "BELS": 4041,
      "LETCHWORTH": 4042,
      "BATTERSEA": 4043,
      "GUN": 4044,
      "RM12": 4045,
      "CW5": 4046,
      "CAVEN": 4047,
      "LS25": 4048,
      "SUP": 4049,
      "TOP": 4050,
      "DEMP": 4051,
      "346": 4052,
      "ERIOR": 4053,
      "SUPERIOR": 4054,
      "RM13": 4055,
      "LAKEWOOD": 4056,
      "MULLIGAN": 4057,
      "CAVENDISH": 4058,
      "MENT": 4059,
      "PORTE": 4060,
      "WISBECH": 4061,
      "SAFFRON": 4062,
      "2JG": 4063,
      "9TH": 4064,
      "BAD": 4065,
      "MASSA": 4066,
      "STEE": 4067,
      "OTTAWA": 4068,
      "AUGUSTA": 4069,
      "348": 4070,
      "DEMPSTER": 4071,
      "97TH": 4072,
      "TIMBER": 4073,
      "THUR": 4074,
      "CHAT": 4075,
      "THI": 4076,
      "SE7": 4077,
      "GU2": 4078,
      "NN14": 4079,
      "CHERTSEY": 4080,
      "WED": 4081,
      "HARE": 4082,
      "RH19": 4083,
      "WR1": 4084,
      "WF4": 4085,
      "92ND": 4086,
      "HP3": 4087,
      "HP6": 4088,
      "APPLE": 4089,
      "tt": 4090,
      "ERIE": 4091,
      "SO14": 4092,
      "WA1": 4093,
      "AIN": 4094,
      "CONCORD": 4095,
      "WILLENHALL": 4096,
      "CH2": 4097,
      "OL16": 4098,
      "SL7": 4099,
      "SANDBACH": 4100,
      "4BT": 4101,
      "4BE": 4102,
      "SOIT": 4103,
      "MASSASOIT": 4104,
      "BION": 4105,
      "PE11": 4106,
      "ILLIN": 4107,
      "CATHERINE": 4108,
      "TA1": 4109,
      "DE7": 4110,
      "351": 4111,
      "WS13": 4112,
      "Clair": 4113,
      "FORTH": 4114,
      "TF1": 4115,
      "BIRKEN": 4116,
      "MALLING": 4117,
      "SW13": 4118,
      "BELVE": 4119,
      "CRYSTAL": 4120,
      "109TH": 4121,
      "VINCENNES": 4122,
      "BELVEDERE": 4123,
      "GL1": 4124,
      "MARMORA": 4125,
      "BIRD": 4126,
      "DSEY": 4127,
      "HU3": 4128,
      "BIRKENHEAD": 4129,
      "IZE": 4130,
      "ILKESTON": 4131,
      "SS1": 4132,
      "SKELMER": 4133,
      "CM12": 4134,
      "SKELMERSDALE": 4135,
      "ROMSEY": 4136,
      "CEOLA": 4137,
      "OAKHAM": 4138,
      "OSCEOLA": 4139,
      "Como": 4140,
      "AVI": 4141,
      "WESTWOOD": 4142,
      "ALBION": 4143,
      "WV14": 4144,
      "Terrace": 4145,
      "BELSIZE": 4146,
      "WF1": 4147,
      "TRURO": 4148,
      "Di": 4149,
      "OLEANDER": 4150,
      "TW15": 4151,
      "TW18": 4152,
      "MY": 4153,
      "702": 4154,
      "ROUND": 4155,
      "MK42": 4156,
      "Thornton": 4157,
      "WA7": 4158,
      "Stone": 4159,
      "MARION": 4160,
      "MARLBOROUGH": 4161,
      "347": 4162,
      "MK6": 4163,
      "ILLINOIS": 4164,
      "GL53": 4165,
      "BN21": 4166,
      "LISS": 4167,
      "RAMSGATE": 4168,
      "925": 4169,
      "SLIE": 4170,
      "SLE": 4171,
      "ITE": 4172,
      "BERWYN": 4173,
      "MK41": 4174,
      "60476": 4175,
      "ME9": 4176,
      "ASHLEY": 4177,
      "WILLIAMS": 4178,
      "SAN": 4179,
      "BUREN": 4180,
      "448": 4181,
      "MICHA": 4182,
      "ME8": 4183,
      "UPMINSTER": 4184,
      "EDGEWOOD": 4185,
      "JUNI": 4186,
      "3BY": 4187,
      "COPP": 4188,
      "431": 4189,
      "LS9": 4190,
      "WR14": 4191,
      "VIRGIN": 4192,
      "CROSSE": 4193,
      "AL2": 4194,
      "LS12": 4195,
      "VIRGINIA": 4196,
      "181": 4197,
      "ELDER": 4198,
      "BA14": 4199,
      "WYND": 4200,
      "1AE": 4201,
      "446": 4202,
      "CM9": 4203,
      "GW": 4204,
      "HORLEY": 4205,
      "LITTLEHAMPTON": 4206,
      "48TH": 4207,
      "SO30": 4208,
      "PRO": 4209,
      "NN18": 4210,
      "RM1": 4211,
      "LETT": 4212,
      "ELS": 4213,
      "HARBOUR": 4214,
      "SHERMAN": 4215,
      "ADDLESTONE": 4216,
      "ABBOTS": 4217,
      "703": 4218,
      "BUXTON": 4219,
      "60165": 4220,
      "Roselle": 4221,
      "316": 4222,
      "7AB": 4223,
      "LANT": 4224,
      "AB11": 4225,
      "CW8": 4226,
      "KY11": 4227,
      "314": 4228,
      "HYTHE": 4229,
      "RH11": 4230,
      "3LQ": 4231,
      "RAM": 4232,
      "BILSTON": 4233,
      "HIGGIN": 4234,
      "NN15": 4235,
      "OTLEY": 4236,
      "SS2": 4237,
      "HARPER": 4238,
      "PORTLAND": 4239,
      "ROACH": 4240,
      "CLACTON": 4241,
      "LUNA": 4242,
      "TAR": 4243,
      "HP19": 4244,
      "538": 4245,
      "DLE": 4246,
      "MIRFIELD": 4247,
      "3rd": 4248,
      "Dale": 4249,
      "349": 4250,
      "JEFFERY": 4251,
      "VILLAGE": 4252,
      "INN": 4253,
      "MARGATE": 4254,
      "KT22": 4255,
      "GJ": 4256,
      "CONSIN": 4257,
      "WISCONSIN": 4258,
      "2EF": 4259,
      "HIR": 4260,
      "432": 4261,
      "OAKDALE": 4262,
      "SPUR": 4263,
      "GARTH": 4264,
      "336": 4265,
      "OUNTAIN": 4266,
      "LION": 4267,
      "Mc": 4268,
      "503": 4269,
      "ME1": 4270,
      "CONSTAN": 4271,
      "CV4": 4272,
      "DE55": 4273,
      "PO7": 4274,
      "447": 4275,
      "MANS": 4276,
      "Good": 4277,
      "PLEY": 4278,
      "DE1": 4279,
      "PE29": 4280,
      "OVERHILL": 4281,
      "CIA": 4282,
      "OX3": 4283,
      "OL12": 4284,
      "AB12": 4285,
      "321": 4286,
      "COVE": 4287,
      "WIG": 4288,
      "FULHAM": 4289,
      "645": 4290,
      "WESTBURY": 4291,
      "HU5": 4292,
      "3AJ": 4293,
      "EPPING": 4294,
      "KT11": 4295,
      "DART": 4296,
      "FAIRWAY": 4297,
      "SSOP": 4298,
      "455": 4299,
      "PO16": 4300,
      "DY2": 4301,
      "WV3": 4302,
      "IVES": 4303,
      "OL8": 4304,
      "803": 4305,
      "CM14": 4306,
      "Ger": 4307,
      "CH3": 4308,
      "JUNIPER": 4309,
      "PAN": 4310,
      "331": 4311,
      "PO19": 4312,
      "CV7": 4313,
      "FULTON": 4314,
      "BURNTWOOD": 4315,
      "HIGGINS": 4316,
      "313": 4317,
      "510": 4318,
      "oria": 4319,
      "KT15": 4320,
      "SS6": 4321,
      "ME19": 4322,
      "EH11": 4323,
      "MDW": 4324,
      "0HJ": 4325,
      "SEVERN": 4326,
      "539": 4327,
      "DA14": 4328,
      "SG6": 4329,
      "LORDSHIP": 4330,
      "SO41": 4331,
      "WHEEL": 4332,
      "Hod": 4333,
      "ROBERT": 4334,
      "ME4": 4335,
      "LN2": 4336,
      "TOWCESTER": 4337,
      "Hodg": 4338,
      "BOT": 4339,
      "KT5": 4340,
      "burne": 4341,
      "Sherburne": 4342,
      "PRIMROSE": 4343,
      "319": 4344,
      "GELEY": 4345,
      "GAL": 4346,
      "CALDY": 4347,
      "3LW": 4348,
      "HORSE": 4349,
      "FK2": 4350,
      "Vic": 4351,
      "RUGELEY": 4352,
      "DOG": 4353,
      "Vict": 4354,
      "WK": 4355,
      "45TH": 4356,
      "Victoria": 4357,
      "4AD": 4358,
      "br": 4359,
      "BUSH": 4360,
      "CANAL": 4361,
      "317": 4362,
      "XHAM": 4363,
      "332": 4364,
      "WOODS": 4365,
      "LUNT": 4366,
      "DRY": 4367,
      "MARINE": 4368,
      "CRANDON": 4369,
      "326": 4370,
      "Van": 4371,
      "KG": 4372,
      "INGER": 4373,
      "LUE": 4374,
      "ant": 4375,
      "DEESIDE": 4376,
      "PLAINE": 4377,
      "LUELLA": 4378,
      "LELAND": 4379,
      "CHO": 4380,
      "WF14": 4381,
      "WV1": 4382,
      "PUDSEY": 4383,
      "NESBURY": 4384,
      "MUIR": 4385,
      "CW11": 4386,
      "ail": 4387,
      "GOOD": 4388,
      "2AG": 4389,
      "DID": 4390,
      "LS11": 4391,
      "WITHAM": 4392,
      "BNK": 4393,
      "COLFAX": 4394,
      "OCKS": 4395,
      "110TH": 4396,
      "FERND": 4397,
      "IMPER": 4398,
      "OZARK": 4399,
      "410": 4400,
      "KT9": 4401,
      "MK10": 4402,
      "TQ12": 4403,
      "1EE": 4404,
      "DRUM": 4405,
      "MUR": 4406,
      "251": 4407,
      "FAY": 4408,
      "MATLOCK": 4409,
      "AKES": 4410,
      "1JF": 4411,
      "415": 4412,
      "802": 4413,
      "PR3": 4414,
      "WHARF": 4415,
      "DRIE": 4416,
      "1800": 4417,
      "HP1": 4418,
      "LIVER": 4419,
      "APPROACH": 4420,
      "SEMIN": 4421,
      "Car": 4422,
      "GP": 4423,
      "den": 4424,
      "163RD": 4425,
      "435": 4426,
      "WS14": 4427,
      "SALT": 4428,
      "Thom": 4429,
      "ACRE": 4430,
      "FJ": 4431,
      "CV31": 4432,
      "LIVING": 4433,
      "SHERWOOD": 4434,
      "UMB": 4435,
      "WS12": 4436,
      "WEB": 4437,
      "IGNTON": 4438,
      "LS27": 4439,
      "BH1": 4440,
      "LE15": 4441,
      "CW2": 4442,
      "COALVILLE": 4443,
      "38TH": 4444,
      "DY1": 4445,
      "olis": 4446,
      "AVELAND": 4447,
      "8DP": 4448,
      "apolis": 4449,
      "SAGIN": 4450,
      "335": 4451,
      "COLUMB": 4452,
      "NN2": 4453,
      "PRESS": 4454,
      "SAGINAW": 4455,
      "44TH": 4456,
      "CRAW": 4457,
      "STALYBRIDGE": 4458,
      "4HN": 4459,
      "NET": 4460,
      "334": 4461,
      "KIRKCALDY": 4462,
      "CB8": 4463,
      "CHISLE": 4464,
      "SWADE": 4465,
      "502": 4466,
      "TAGE": 4467,
      "GLOSSOP": 4468,
      "1EB": 4469,
      "199": 4470,
      "GUND": 4471,
      "IMPERIAL": 4472,
      "CHISLEHURST": 4473,
      "FS": 4474,
      "191": 4475,
      "SK14": 4476,
      "SG2": 4477,
      "MISS": 4478,
      "KY12": 4479,
      "GREG": 4480,
      "HOLME": 4481,
      "OHI": 4482,
      "SE20": 4483,
      "OHIO": 4484,
      "DIN": 4485,
      "SCOVILLE": 4486,
      "735": 4487,
      "BUFF": 4488,
      "BH12": 4489,
      "NOY": 4490,
      "SHOREHAM": 4491,
      "DEAR": 4492,
      "CF31": 4493,
      "Ke": 4494,
      "436": 4495,
      "EC1R": 4496,
      "FERNDOWN": 4497,
      "WAYNE": 4498,
      "GU34": 4499,
      "EGHAM": 4500,
      "ALO": 4501,
      "PAIGNTON": 4502,
      "HILLCREST": 4503,
      "CWM": 4504,
      "SUNBURY": 4505,
      "PRATT": 4506,
      "LS6": 4507,
      "DIDCOT": 4508,
      "2AD": 4509,
      "6Y": 4510,
      "COOK": 4511,
      "PO6": 4512,
      "PO12": 4513,
      "HOOK": 4514,
      "HD3": 4515,
      "112TH": 4516,
      "7EA": 4517,
      "WINNE": 4518,
      "PEARE": 4519,
      "PETERHEAD": 4520,
      "318": 4521,
      "ICE": 4522,
      "eff": 4523,
      "PO5": 4524,
      "1300": 4525,
      "effer": 4526,
      "3Y": 4527,
      "NE2": 4528,
      "NN7": 4529,
      "2AA": 4530,
      "635": 4531,
      "OLPH": 4532,
      "GREN": 4533,
      "SHAFT": 4534,
      "515": 4535,
      "SO40": 4536,
      "CV10": 4537,
      "ACH": 4538,
      "ARROW": 4539,
      "COAT": 4540,
      "WC1X": 4541,
      "3PB": 4542,
      "ESCAN": 4543,
      "BUFFALO": 4544,
      "WAVELAND": 4545,
      "XON": 4546,
      "NERS": 4547,
      "NN16": 4548,
      "rich": 4549,
      "Goodrich": 4550,
      "327": 4551,
      "FAYETTE": 4552,
      "Thomas": 4553,
      "SHAKES": 4554,
      "HITHE": 4555,
      "DINGS": 4556,
      "SHAKESPEARE": 4557,
      "BILLINGHAM": 4558,
      "TS10": 4559,
      "RM14": 4560,
      "HOOD": 4561,
      "BEVERLY": 4562,
      "355": 4563,
      "WV4": 4564,
      "AIRDRIE": 4565,
      "Bay": 4566,
      "FY2": 4567,
      "TEMPLE": 4568,
      "LOA": 4569,
      "SHO": 4570,
      "433": 4571,
      "GL5": 4572,
      "HX3": 4573,
      "RETFORD": 4574,
      "CROW": 4575,
      "TUDOR": 4576,
      "WESTFIELD": 4577,
      "PO9": 4578,
      "gerton": 4579,
      "Edgerton": 4580,
      "EDDY": 4581,
      "ENSON": 4582,
      "420": 4583,
      "6BJ": 4584,
      "HAVANT": 4585,
      "COLE": 4586,
      "CF3": 4587,
      "RH13": 4588,
      "6QH": 4589,
      "OL4": 4590,
      "FY4": 4591,
      "98TH": 4592,
      "FQ": 4593,
      "NN12": 4594,
      "STAFFORD": 4595,
      "LAFAYETTE": 4596,
      "SSETT": 4597,
      "MANGO": 4598,
      "WICKFORD": 4599,
      "IVY": 4600,
      "7SL": 4601,
      "no": 4602,
      "NISON": 4603,
      "COWES": 4604,
      "PE6": 4605,
      "COLD": 4606,
      "Rosemont": 4607,
      "WHITEHALL": 4608,
      "ABA": 4609,
      "BH24": 4610,
      "FRIARS": 4611,
      "ESCANABA": 4612,
      "MK14": 4613,
      "PREST": 4614,
      "1NG": 4615,
      "1400": 4616,
      "WHITSTABLE": 4617,
      "ATHER": 4618,
      "2ED": 4619,
      "BBLE": 4620,
      "SK15": 4621,
      "ack": 4622,
      "BEECHWOOD": 4623,
      "lworth": 4624,
      "nilworth": 4625,
      "60043": 4626,
      "Kenilworth": 4627,
      "PORTH": 4628,
      "Way": 4629,
      "LE17": 4630,
      "CONWY": 4631,
      "FRASERBURGH": 4632,
      "5HD": 4633,
      "POL": 4634,
      "ats": 4635,
      "105TH": 4636,
      "8AA": 4637,
      "MWS": 4638,
      "RIPLEY": 4639,
      "PO15": 4640,
      "HUM": 4641,
      "SO18": 4642,
      "MK9": 4643,
      "LONGWOOD": 4644,
      "THON": 4645,
      "CM16": 4646,
      "MICHAEL": 4647,
      "GU10": 4648,
      "845": 4649,
      "CH43": 4650,
      "PAG": 4651,
      "437": 4652,
      "LS10": 4653,
      "OX26": 4654,
      "RM17": 4655,
      "MORSE": 4656,
      "WEDNESBURY": 4657,
      "SBURY": 4658,
      "FORRE": 4659,
      "FW": 4660,
      "BURNS": 4661,
      "LS15": 4662,
      "PO8": 4663,
      "5AB": 4664,
      "mund": 4665,
      "amine": 4666,
      "CO6": 4667,
      "Edmund": 4668,
      "Jessamine": 4669,
      "ELMHURST": 4670,
      "NE6": 4671,
      "TW20": 4672,
      "SW1X": 4673,
      "ROCHFORD": 4674,
      "CRAWFORD": 4675,
      "SHAFTESBURY": 4676,
      "STEPH": 4677,
      "411": 4678,
      "THA": 4679,
      "MK18": 4680,
      "TRING": 4681,
      "ROBERTS": 4682,
      "EAD": 4683,
      "RIDGEWOOD": 4684,
      "HENRY": 4685,
      "DUNMOW": 4686,
      "198": 4687,
      "MAWR": 4688,
      "46TH": 4689,
      "SO19": 4690,
      "SOMERSET": 4691,
      "Con": 4692,
      "NE8": 4693,
      "GZ": 4694,
      "PADD": 4695,
      "PATH": 4696,
      "OX28": 4697,
      "DANTE": 4698,
      "DAVIS": 4699,
      "Mer": 4700,
      "COOM": 4701,
      "WS7": 4702,
      "HIRSCH": 4703,
      "hur": 4704,
      "CO3": 4705,
      "MILLINGTON": 4706,
      "EWING": 4707,
      "hurst": 4708,
      "PHO": 4709,
      "TTS": 4710,
      "3AE": 4711,
      "PETERSON": 4712,
      "AVALON": 4713,
      "655": 4714,
      "OL2": 4715,
      "EAU": 4716,
      "337": 4717,
      "OX11": 4718,
      "SPIN": 4719,
      "DITTON": 4720,
      "FP": 4721,
      "SHEL": 4722,
      "265": 4723,
      "HD2": 4724,
      "OGDEN": 4725,
      "SK2": 4726,
      "SK12": 4727,
      "WS15": 4728,
      "8AR": 4729,
      "DE72": 4730,
      "ELDEN": 4731,
      "CM13": 4732,
      "MEADOWS": 4733,
      "197": 4734,
      "DE13": 4735,
      "903": 4736,
      "RH4": 4737,
      "ass": 4738,
      "GREGORY": 4739,
      "4TH": 4740,
      "HP21": 4741,
      "FROME": 4742,
      "TAVI": 4743,
      "WA11": 4744,
      "AB42": 4745,
      "WR9": 4746,
      "Trail": 4747,
      "KINGTON": 4748,
      "CB7": 4749,
      "9PY": 4750,
      "CONSTANCE": 4751,
      "TAVISTOCK": 4752,
      "12TH": 4753,
      "182": 4754,
      "MANI": 4755,
      "7AE": 4756,
      "6AW": 4757,
      "WH": 4758,
      "SK13": 4759,
      "BR7": 4760,
      "DN15": 4761,
      "ITWICH": 4762,
      "DROITWICH": 4763,
      "COOMBE": 4764,
      "935": 4765,
      "PIER": 4766,
      "NE34": 4767,
      "HP11": 4768,
      "THORP": 4769,
      "ML6": 4770,
      "1700": 4771,
      "KT18": 4772,
      "PPEL": 4773,
      "CARR": 4774,
      "SHEFFIELD": 4775,
      "2QA": 4776,
      "DARTMOUTH": 4777,
      "ASHBOURNE": 4778,
      "CB22": 4779,
      "1JH": 4780,
      "ENIX": 4781,
      "PHOENIX": 4782,
      "BUN": 4783,
      "157TH": 4784,
      "NP19": 4785,
      "FLOWER": 4786,
      "TEW": 4787,
      "CLEE": 4788,
      "DOWNS": 4789,
      "LOM": 4790,
      "DE11": 4791,
      "GREY": 4792,
      "MK45": 4793,
      "CO5": 4794,
      "gh": 4795,
      "BH9": 4796,
      "cl": 4797,
      "ARUND": 4798,
      "SHING": 4799,
      "DEVONSHIRE": 4800,
      "HASS": 4801,
      "ELLE": 4802,
      "434": 4803,
      "BH8": 4804,
      "GLESWADE": 4805,
      "BIGGLESWADE": 4806,
      "DOGWOOD": 4807,
      "8DE": 4808,
      "kins": 4809,
      "HASLE": 4810,
      "ARUNDEL": 4811,
      "ESTES": 4812,
      "COO": 4813,
      "DE4": 4814,
      "BR4": 4815,
      "GOOLE": 4816,
      "MINER": 4817,
      "SK3": 4818,
      "CT9": 4819,
      "NORFOLK": 4820,
      "LANC": 4821,
      "HAWTHORN": 4822,
      "GREENOCK": 4823,
      "BH6": 4824,
      "715": 4825,
      "LAPORTE": 4826,
      "AB43": 4827,
      "ME16": 4828,
      "asso": 4829,
      "MANISTEE": 4830,
      "IV2": 4831,
      "CWMBRAN": 4832,
      "328": 4833,
      "8HP": 4834,
      "PETH": 4835,
      "35TH": 4836,
      "1125": 4837,
      "339": 4838,
      "DN22": 4839,
      "PHILLIP": 4840,
      "SPENCER": 4841,
      "LEON": 4842,
      "EH15": 4843,
      "CTY": 4844,
      "CM8": 4845,
      "CULLOM": 4846,
      "HASLEMERE": 4847,
      "TAM": 4848,
      "LOVE": 4849,
      "60521": 4850,
      "CANVEY": 4851,
      "TIPTON": 4852,
      "TEWKES": 4853,
      "LADY": 4854,
      "Ow": 4855,
      "1045": 4856,
      "DY9": 4857,
      "2PX": 4858,
      "TEWKESBURY": 4859,
      "SAU": 4860,
      "OL9": 4861,
      "OCKENDON": 4862,
      "BARRINGTON": 4863,
      "4AS": 4864,
      "7BJ": 4865,
      "CF37": 4866,
      "155TH": 4867,
      "GUNDERSON": 4868,
      "EAGLE": 4869,
      "SW1P": 4870,
      "108TH": 4871,
      "CROWN": 4872,
      "WINSTON": 4873,
      "MARSHALL": 4874,
      "TORR": 4875,
      "gar": 4876,
      "CM15": 4877,
      "STOKE": 4878,
      "WA9": 4879,
      "902": 4880,
      "MOHAWK": 4881,
      "WN4": 4882,
      "2HJ": 4883,
      "Owasso": 4884,
      "ISH": 4885,
      "nigh": 4886,
      "HU1": 4887,
      "WS10": 4888,
      "PETERSFIELD": 4889,
      "BRUNSWICK": 4890,
      "ONAH": 4891,
      "Minneapolis": 4892,
      "2QE": 4893,
      "516": 4894,
      "WEBSTER": 4895,
      "835": 4896,
      "WOODFIELD": 4897,
      "WF12": 4898,
      "WENONAH": 4899,
      "PE9": 4900,
      "GL4": 4901,
      "WS9": 4902,
      "0RG": 4903,
      "POULTON": 4904,
      "bridge": 4905,
      "615": 4906,
      "BN14": 4907,
      "LYMM": 4908,
      "Merri": 4909,
      "SHAD": 4910,
      "412": 4911,
      "610": 4912,
      "AC": 4913,
      "DELL": 4914,
      "Old": 4915,
      "sc": 4916,
      "NN17": 4917,
      "4DJ": 4918,
      "SUMMERDALE": 4919,
      "FLORENCE": 4920,
      "INS": 4921,
      "PO21": 4922,
      "DY10": 4923,
      "CHAPPEL": 4924,
      "BRIDGNORTH": 4925,
      "520": 4926,
      "BH22": 4927,
      "PL4": 4928,
      "HOCK": 4929,
      "PHI": 4930,
      "LE18": 4931,
      "7AA": 4932,
      "night": 4933,
      "711": 4934,
      "nia": 4935,
      "CT5": 4936,
      "SANDHURST": 4937,
      "104TH": 4938,
      "ana": 4939,
      "HP22": 4940,
      "BOND": 4941,
      "3AR": 4942,
      "KEITH": 4943,
      "CB2": 4944,
      "NP44": 4945,
      "2DY": 4946,
      "GILL": 4947,
      "agn": 4948,
      "10TH": 4949,
      "CAU": 4950,
      "PR25": 4951,
      "329": 4952,
      "720": 4953,
      "13TH": 4954,
      "167TH": 4955,
      "onette": 4956,
      "SWE": 4957,
      "EH2": 4958,
      "CARMEN": 4959,
      "SUSSE": 4960,
      "BREMEN": 4961,
      "Merrionette": 4962,
      "SUSSEX": 4963,
      "ENTON": 4964,
      "LAY": 4965,
      "Laf": 4966,
      "68TH": 4967,
      "PEAK": 4968,
      "FOUNTAIN": 4969,
      "BOD": 4970,
      "Eng": 4971,
      "WA13": 4972,
      "TS18": 4973,
      "4RG": 4974,
      "lewood": 4975,
      "WLK": 4976,
      "Pine": 4977,
      "DN14": 4978,
      "water": 4979,
      "514": 4980,
      "DAY": 4981,
      "HOE": 4982,
      "CHIPPING": 4983,
      "MORPETH": 4984,
      "4AA": 4985,
      "1LR": 4986,
      "5DX": 4987,
      "855": 4988,
      "FOUR": 4989,
      "GOW": 4990,
      "MINGHAM": 4991,
      "SCOT": 4992,
      "11TH": 4993,
      "HUMBER": 4994,
      "SO51": 4995,
      "0Y": 4996,
      "0RH": 4997,
      "VINGTON": 4998,
      "QUAR": 4999,
      "1AA": 5000,
      "4PF": 5001,
      "xmoor": 5002,
      "LINGFORD": 5003,
      "Dixmoor": 5004,
      "URIE": 5005,
      "HAMP": 5006,
      "32ND": 5007,
      "LEN": 5008,
      "710": 5009,
      "8Y": 5010,
      "Sta": 5011,
      "WOOL": 5012,
      "1500": 5013,
      "Birch": 5014,
      "CATAL": 5015,
      "2EA": 5016,
      "Magn": 5017,
      "HU9": 5018,
      "MK13": 5019,
      "olia": 5020,
      "3DH": 5021,
      "116TH": 5022,
      "INVERURIE": 5023,
      "Magnolia": 5024,
      "COX": 5025,
      "338": 5026,
      "FERRY": 5027,
      "QUEENSWAY": 5028,
      "NE33": 5029,
      "196": 5030,
      "CLOVER": 5031,
      "WEY": 5032,
      "GLEWOOD": 5033,
      "Suite": 5034,
      "Ne": 5035,
      "umbe": 5036,
      "EC2M": 5037,
      "1HX": 5038,
      "TW16": 5039,
      "SG14": 5040,
      "CH41": 5041,
      "ATLANT": 5042,
      "HEB": 5043,
      "Margar": 5044,
      "SURREY": 5045,
      "Margaret": 5046,
      "3EH": 5047,
      "WITH": 5048,
      "159TH": 5049,
      "322": 5050,
      "BELDEN": 5051,
      "1025": 5052,
      "SG18": 5053,
      "ATLANTIC": 5054,
      "STREAM": 5055,
      "1225": 5056,
      "WC2B": 5057,
      "TF2": 5058,
      "mond": 5059,
      "HEOL": 5060,
      "VILLAS": 5061,
      "193": 5062,
      "LS26": 5063,
      "DN5": 5064,
      "1DA": 5065,
      "COWLEY": 5066,
      "DY4": 5067,
      "BRADLEY": 5068,
      "IRN": 5069,
      "ern": 5070,
      "52ND": 5071,
      "PATTER": 5072,
      "426": 5073,
      "Ph": 5074,
      "YARM": 5075,
      "ENSLEY": 5076,
      "CAMDEN": 5077,
      "MUSKE": 5078,
      "THORPES": 5079,
      "MUSKEGON": 5080,
      "FISHER": 5081,
      "BUS": 5082,
      "EATHER": 5083,
      "TS5": 5084,
      "BLEN": 5085,
      "CLEETHORPES": 5086,
      "5Y": 5087,
      "EDEN": 5088,
      "1AJ": 5089,
      "BRANDON": 5090,
      "WHEELING": 5091,
      "820": 5092,
      "FY5": 5093,
      "REE": 5094,
      "PHAM": 5095,
      "VERMONT": 5096,
      "SO22": 5097,
      "WF3": 5098,
      "Marion": 5099,
      "BRUNEL": 5100,
      "CO10": 5101,
      "GU16": 5102,
      "HU7": 5103,
      "LN4": 5104,
      "6AG": 5105,
      "TQ1": 5106,
      "1LT": 5107,
      "616": 5108,
      "SAW": 5109,
      "127TH": 5110,
      "SE21": 5111,
      "ANS": 5112,
      "439": 5113,
      "PE27": 5114,
      "CM6": 5115,
      "SWINFORD": 5116,
      "43RD": 5117,
      "SS8": 5118,
      "CT6": 5119,
      "MERTON": 5120,
      "SG19": 5121,
      "3BT": 5122,
      "KNOW": 5123,
      "915": 5124,
      "LAVEN": 5125,
      "Yo": 5126,
      "ong": 5127,
      "POTO": 5128,
      "York": 5129,
      "BURLEY": 5130,
      "HONEY": 5131,
      "GQ": 5132,
      "30TH": 5133,
      "TILBURY": 5134,
      "ROLL": 5135,
      "TA6": 5136,
      "SHEPP": 5137,
      "WINONA": 5138,
      "3AX": 5139,
      "MAYFAIR": 5140,
      "4DP": 5141,
      "421": 5142,
      "AST": 5143,
      "RM15": 5144,
      "LINGWOOD": 5145,
      "Alb": 5146,
      "yt": 5147,
      "RELL": 5148,
      "OL6": 5149,
      "Hoyt": 5150,
      "6AF": 5151,
      "7BT": 5152,
      "GUNNISON": 5153,
      "DEARBORN": 5154,
      "KT16": 5155,
      "GRESS": 5156,
      "WS3": 5157,
      "1BG": 5158,
      "170TH": 5159,
      "TORRENCE": 5160,
      "1AR": 5161,
      "ENCY": 5162,
      "ONG": 5163,
      "NE38": 5164,
      "CH4": 5165,
      "GREENWAY": 5166,
      "BERTEAU": 5167,
      "511": 5168,
      "5BB": 5169,
      "1HR": 5170,
      "5JE": 5171,
      "9AE": 5172,
      "GARFIELD": 5173,
      "POTOMAC": 5174,
      "1GF": 5175,
      "3DA": 5176,
      "Hins": 5177,
      "JER": 5178,
      "CH45": 5179,
      "ANOR": 5180,
      "ATELEY": 5181,
      "REGENCY": 5182,
      "WILDWOOD": 5183,
      "ANDREWS": 5184,
      "Hinsdale": 5185,
      "8LY": 5186,
      "WALLINGFORD": 5187,
      "96TH": 5188,
      "CLYBOURN": 5189,
      "GUT": 5190,
      "1200": 5191,
      "SG13": 5192,
      "COMPTON": 5193,
      "FARRA": 5194,
      "MORRIS": 5195,
      "FK1": 5196,
      "DOWNE": 5197,
      "JEFFERSON": 5198,
      "EMSWORTH": 5199,
      "HAVERHILL": 5200,
      "2AF": 5201,
      "GLENVIEW": 5202,
      "LLAN": 5203,
      "284": 5204,
      "CAROL": 5205,
      "EH9": 5206,
      "5JA": 5207,
      "FARRAGUT": 5208,
      "GT": 5209,
      "SALEM": 5210,
      "MANSFIELD": 5211,
      "102ND": 5212,
      "HUNTINGTON": 5213,
      "ROTHES": 5214,
      "HUMPH": 5215,
      "1AB": 5216,
      "416": 5217,
      "8HB": 5218,
      "CHIL": 5219,
      "MERY": 5220,
      "WN3": 5221,
      "JARVIS": 5222,
      "3BN": 5223,
      "NING": 5224,
      "PLAINES": 5225,
      "TQ2": 5226,
      "CRAMLINGTON": 5227,
      "620": 5228,
      "MYR": 5229,
      "LS18": 5230,
      "HX1": 5231,
      "429": 5232,
      "ACRES": 5233,
      "BRY": 5234,
      "KINGSWINFORD": 5235,
      "DN35": 5236,
      "PERSHING": 5237,
      "BISHOPS": 5238,
      "815": 5239,
      "910": 5240,
      "HOX": 5241,
      "INGLE": 5242,
      "SHIR": 5243,
      "AB51": 5244,
      "ALDERLEY": 5245,
      "414": 5246,
      "6EL": 5247,
      "Green": 5248,
      "FREW": 5249,
      "PATTERSON": 5250,
      "HAST": 5251,
      "DN21": 5252,
      "CULLERTON": 5253,
      "1QS": 5254,
      "114TH": 5255,
      "2RH": 5256,
      "3HU": 5257,
      "WHITCHURCH": 5258,
      "TADWORTH": 5259,
      "BET": 5260,
      "Buren": 5261,
      "CLEVELEYS": 5262,
      "PAGNELL": 5263,
      "GU12": 5264,
      "2PG": 5265,
      "CANNON": 5266,
      "HOXIE": 5267,
      "BLY": 5268,
      "TWELL": 5269,
      "DY6": 5270,
      "RADLETT": 5271,
      "AINSLIE": 5272,
      "CHEL": 5273,
      "STANFORD": 5274,
      "2NP": 5275,
      "TLAND": 5276,
      "DE5": 5277,
      "AVERSHAM": 5278,
      "CYPRESS": 5279,
      "RENFREW": 5280,
      "1BR": 5281,
      "PO20": 5282,
      "PL6": 5283,
      "745": 5284,
      "PE30": 5285,
      "CARRI": 5286,
      "GLADYS": 5287,
      "512": 5288,
      "9DG": 5289,
      "1111": 5290,
      "ANTHON": 5291,
      "1415": 5292,
      "URY": 5293,
      "TS26": 5294,
      "WAUKEGAN": 5295,
      "4BA": 5296,
      "GX": 5297,
      "Ru": 5298,
      "MK16": 5299,
      "WR5": 5300,
      "1BE": 5301,
      "US": 5302,
      "CH7": 5303,
      "ASBURY": 5304,
      "FIL": 5305,
      "DENHAM": 5306,
      "Hodgkins": 5307,
      "Pr": 5308,
      "PL1": 5309,
      "BENT": 5310,
      "NE30": 5311,
      "AUSTELL": 5312,
      "7AL": 5313,
      "ani": 5314,
      "438": 5315,
      "COLLINGWOOD": 5316,
      "2AH": 5317,
      "1LU": 5318,
      "SP1": 5319,
      "REDWOOD": 5320,
      "GLENROTHES": 5321,
      "DRUMMOND": 5322,
      "PHILLIPS": 5323,
      "419": 5324,
      "DA17": 5325,
      "LOWR": 5326,
      "8PS": 5327,
      "HUMPHREY": 5328,
      "ab": 5329,
      "CLUN": 5330,
      "HP23": 5331,
      "CORTLAND": 5332,
      "SHEPPERTON": 5333,
      "427": 5334,
      "8EP": 5335,
      "KT20": 5336,
      "LN5": 5337,
      "CRANLEIGH": 5338,
      "CW1": 5339,
      "3LH": 5340,
      "TUL": 5341,
      "PO14": 5342,
      "PO13": 5343,
      "GL3": 5344,
      "MORDEN": 5345,
      "55421": 5346,
      "HASTINGS": 5347,
      "8AD": 5348,
      "UBERT": 5349,
      "CO15": 5350,
      "PECK": 5351,
      "BYFLEET": 5352,
      "WALLS": 5353,
      "SCHUBERT": 5354,
      "CHEP": 5355,
      "1AH": 5356,
      "LANSDOWNE": 5357,
      "AB24": 5358,
      "MK8": 5359,
      "WV2": 5360,
      "Phoe": 5361,
      "417": 5362,
      "8EX": 5363,
      "9DA": 5364,
      "ROMAN": 5365,
      "PE21": 5366,
      "CHEPSTOW": 5367,
      "awn": 5368,
      "NE23": 5369,
      "RICE": 5370,
      "WISHAW": 5371,
      "WN5": 5372,
      "7AN": 5373,
      "8HA": 5374,
      "1900": 5375,
      "DY3": 5376,
      "VAU": 5377,
      "EC1M": 5378,
      "7DX": 5379,
      "WINNEMAC": 5380,
      "LAVENDER": 5381,
      "4NE": 5382,
      "262": 5383,
      "Lafond": 5384,
      "CARRIAGE": 5385,
      "2BE": 5386,
      "5EA": 5387,
      "727": 5388,
      "LDE": 5389,
      "1001": 5390,
      "OLIVE": 5391,
      "740": 5392,
      "ANAM": 5393,
      "SW1H": 5394,
      "FALCON": 5395,
      "OZANAM": 5396,
      "ock": 5397,
      "192": 5398,
      "TR1": 5399,
      "FYLDE": 5400,
      "GILES": 5401,
      "MULBERRY": 5402,
      "1AD": 5403,
      "SY3": 5404,
      "6BT": 5405,
      "CH5": 5406,
      "DEAL": 5407,
      "BURR": 5408,
      "40TH": 5409,
      "RYE": 5410,
      "BN43": 5411,
      "MK3": 5412,
      "MK7": 5413,
      "STOURPORT": 5414,
      "RUTH": 5415,
      "CASTLEFORD": 5416,
      "WC1H": 5417,
      "4DY": 5418,
      "PO2": 5419,
      "WF13": 5420,
      "Woodbridge": 5421,
      "MYRTLE": 5422,
      "KNA": 5423,
      "nix": 5424,
      "CFT": 5425,
      "SPER": 5426,
      "STRONG": 5427,
      "STAIRS": 5428,
      "Phoenix": 5429,
      "253": 5430,
      "DERICK": 5431,
      "MERTH": 5432,
      "2JB": 5433,
      "CT1": 5434,
      "SY1": 5435,
      "FREMONT": 5436,
      "PET": 5437,
      "1035": 5438,
      "264": 5439,
      "OX5": 5440,
      "MK43": 5441,
      "4AG": 5442,
      "MACKIN": 5443,
      "BLENHEIM": 5444,
      "STONY": 5445,
      "SS4": 5446,
      "GU4": 5447,
      "OWSTON": 5448,
      "MACKINAW": 5449,
      "1600": 5450,
      "PUL": 5451,
      "CH62": 5452,
      "4AE": 5453,
      "0AA": 5454,
      "MERTHYR": 5455,
      "1RH": 5456,
      "og": 5457,
      "ARN": 5458,
      "256": 5459,
      "CRANE": 5460,
      "5AH": 5461,
      "Blair": 5462,
      "POND": 5463,
      "Hazelwood": 5464,
      "1DB": 5465,
      "9DQ": 5466,
      "FALMOUTH": 5467,
      "COOPER": 5468,
      "FETTER": 5469,
      "SIR": 5470,
      "SARA": 5471,
      "HP10": 5472,
      "2AB": 5473,
      "611": 5474,
      "LILL": 5475,
      "BA11": 5476,
      "PO10": 5477,
      "HOUSTON": 5478,
      "PUT": 5479,
      "3HR": 5480,
      "LD": 5481,
      "PE3": 5482,
      "LYNDALE": 5483,
      "SEMINARY": 5484,
      "PENT": 5485,
      "SS14": 5486,
      "1JE": 5487,
      "9th": 5488,
      "NUR": 5489,
      "POLK": 5490,
      "Cott": 5491,
      "ree": 5492,
      "HEM": 5493,
      "Cottage": 5494,
      "THY": 5495,
      "AL8": 5496,
      "PARKER": 5497,
      "8AE": 5498,
      "2BT": 5499,
      "FREE": 5500,
      "PRINCESS": 5501,
      "PURFLEET": 5502,
      "4DA": 5503,
      "Cur": 5504,
      "CV23": 5505,
      "TINGALE": 5506,
      "AB25": 5507,
      "TERN": 5508,
      "GU27": 5509,
      "LARCH": 5510,
      "LANARK": 5511,
      "ase": 5512,
      "asant": 5513,
      "TURNER": 5514,
      "CATALPA": 5515,
      "8AT": 5516,
      "1015": 5517,
      "254": 5518,
      "OX1": 5519,
      "ELMS": 5520,
      "1JQ": 5521,
      "113TH": 5522,
      "LWR": 5523,
      "ME13": 5524,
      "CO7": 5525,
      "BN7": 5526,
      "LUD": 5527,
      "JEN": 5528,
      "RW": 5529,
      "RET": 5530,
      "NE15": 5531,
      "aney": 5532,
      "PE10": 5533,
      "3LJ": 5534,
      "Reaney": 5535,
      "ANCE": 5536,
      "260": 5537,
      "Fro": 5538,
      "BLACKHAWK": 5539,
      "106TH": 5540,
      "GLENDALE": 5541,
      "5BQ": 5542,
      "2NT": 5543,
      "FAVERSHAM": 5544,
      "263": 5545,
      "BERENI": 5546,
      "LANCING": 5547,
      "BERENICE": 5548,
      "546": 5549,
      "183RD": 5550,
      "OXTED": 5551,
      "enn": 5552,
      "CT20": 5553,
      "WORKINGTON": 5554,
      "DANI": 5555,
      "WESTON": 5556,
      "20TH": 5557,
      "291": 5558,
      "275": 5559,
      "HARBOR": 5560,
      "BROOKSIDE": 5561,
      "3AD": 5562,
      "418": 5563,
      "521": 5564,
      "8DD": 5565,
      "DOCK": 5566,
      "hart": 5567,
      "Room": 5568,
      "DY11": 5569,
      "WD7": 5570,
      "356": 5571,
      "Case": 5572,
      "SS15": 5573,
      "NEWQUAY": 5574,
      "PEBBLE": 5575,
      "DERS": 5576,
      "OX29": 5577,
      "FREDERICK": 5578,
      "LAKES": 5579,
      "BOSWORTH": 5580,
      "FRAM": 5581,
      "5DT": 5582,
      "FONT": 5583,
      "NORT": 5584,
      "WHEA": 5585,
      "252": 5586,
      "FARWELL": 5587,
      "156TH": 5588,
      "east": 5589,
      "171ST": 5590,
      "430": 5591,
      "123RD": 5592,
      "PAGE": 5593,
      "CLUB": 5594,
      "Bee": 5595,
      "NIGH": 5596,
      "2DR": 5597,
      "428": 5598,
      "FY6": 5599,
      "5DE": 5600,
      "WOODSTOCK": 5601,
      "DN9": 5602,
      "6RD": 5603,
      "LINGHAM": 5604,
      "259": 5605,
      "7AR": 5606,
      "1020": 5607,
      "CO1": 5608,
      "SK1": 5609,
      "1JN": 5610,
      "NURS": 5611,
      "BRON": 5612,
      "DN32": 5613,
      "HG3": 5614,
      "7BB": 5615,
      "CHARLE": 5616,
      "YLE": 5617,
      "LEVEN": 5618,
      "LN1": 5619,
      "DUKE": 5620,
      "1RB": 5621,
      "6AL": 5622,
      "1010": 5623,
      "1420": 5624,
      "OX10": 5625,
      "CONGRESS": 5626,
      "3AS": 5627,
      "9AB": 5628,
      "RES": 5629,
      "ARCH": 5630,
      "1410": 5631,
      "34TH": 5632,
      "WF10": 5633,
      "WHITEHAVEN": 5634,
      "EARLS": 5635,
      "IOWA": 5636,
      "1AL": 5637,
      "630": 5638,
      "ire": 5639,
      "CKEN": 5640,
      "LS21": 5641,
      "HU8": 5642,
      "WN1": 5643,
      "RAVENSWOOD": 5644,
      "750": 5645,
      "NE28": 5646,
      "EASTERN": 5647,
      "FFOLK": 5648,
      "WD4": 5649,
      "MIDDLEWICH": 5650,
      "GERS": 5651,
      "ILEE": 5652,
      "MES": 5653,
      "ALTG": 5654,
      "266": 5655,
      "COURTLAND": 5656,
      "ALTGELD": 5657,
      "6HT": 5658,
      "7EF": 5659,
      "8JQ": 5660,
      "ML2": 5661,
      "6AS": 5662,
      "3QB": 5663,
      "4QN": 5664,
      "3DE": 5665,
      "5DA": 5666,
      "911": 5667,
      "IVER": 5668,
      "BROADSTONE": 5669,
      "530": 5670,
      "1515": 5671,
      "SUFFOLK": 5672,
      "WF5": 5673,
      "5DL": 5674,
      "HADDON": 5675,
      "FON": 5676,
      "JUB": 5677,
      "TOD": 5678,
      "orne": 5679,
      "CA14": 5680,
      "PRENTON": 5681,
      "LYND": 5682,
      "2QL": 5683,
      "8BB": 5684,
      "1LL": 5685,
      "EATON": 5686,
      "EH16": 5687,
      "HAYLING": 5688,
      "1501": 5689,
      "6EU": 5690,
      "7EJ": 5691,
      "FARGO": 5692,
      "3EF": 5693,
      "NE26": 5694,
      "257": 5695,
      "VERTON": 5696,
      "LIND": 5697,
      "OWEN": 5698,
      "itt": 5699,
      "3LD": 5700,
      "WAVERLY": 5701,
      "JUBILEE": 5702,
      "1EN": 5703,
      "8ER": 5704,
      "GID": 5705,
      "HTH": 5706,
      "Mck": 5707,
      "NETHER": 5708,
      "TW17": 5709,
      "EH21": 5710,
      "owa": 5711,
      "MALLARD": 5712,
      "3BE": 5713,
      "ALLEN": 5714,
      "8JB": 5715,
      "2PP": 5716,
      "6PA": 5717,
      "7Y": 5718,
      "DAKIN": 5719,
      "CF62": 5720,
      "BH17": 5721,
      "3HE": 5722,
      "5BN": 5723,
      "ed": 5724,
      "CUST": 5725,
      "0LD": 5726,
      "714": 5727,
      "811": 5728,
      "LERS": 5729,
      "MORT": 5730,
      "LE19": 5731,
      "STREA": 5732,
      "PHEA": 5733,
      "1JD": 5734,
      "456": 5735,
      "4HY": 5736,
      "1730": 5737,
      "CB9": 5738,
      "GLADSTONE": 5739,
      "730": 5740,
      "FX": 5741,
      "1115": 5742,
      "OL1": 5743,
      "DE12": 5744,
      "DUM": 5745,
      "WATLING": 5746,
      "4AN": 5747,
      "6BA": 5748,
      "BENSLEY": 5749,
      "Iowa": 5750,
      "1021": 5751,
      "258": 5752,
      "ELLI": 5753,
      "1401": 5754,
      "6DA": 5755,
      "7PH": 5756,
      "DOL": 5757,
      "OUCH": 5758,
      "11A": 5759,
      "EH49": 5760,
      "RM18": 5761,
      "1NJ": 5762,
      "BELGRAVE": 5763,
      "920": 5764,
      "IMER": 5765,
      "Ple": 5766,
      "RITH": 5767,
      "ANA": 5768,
      "ona": 5769,
      "PEM": 5770,
      "CT21": 5771,
      "1101": 5772,
      "1NB": 5773,
      "2AZ": 5774,
      "Pleasant": 5775,
      "755": 5776,
      "NAU": 5777,
      "NE29": 5778,
      "PERTON": 5779,
      "1JR": 5780,
      "6AX": 5781,
      "2AL": 5782,
      "6DE": 5783,
      "WAN": 5784,
      "ZOUCH": 5785,
      "PO1": 5786,
      "KENNINGTON": 5787,
      "1BS": 5788,
      "PENN": 5789,
      "EC3V": 5790,
      "5EE": 5791,
      "612": 5792,
      "Ig": 5793,
      "LS22": 5794,
      "lehart": 5795,
      "MONTGO": 5796,
      "BRETT": 5797,
      "PHIA": 5798,
      "Iglehart": 5799,
      "1PE": 5800,
      "8BE": 5801,
      "na": 5802,
      "3AG": 5803,
      "3HG": 5804,
      "9AD": 5805,
      "Sand": 5806,
      "SIA": 5807,
      "LOCUST": 5808,
      "BH25": 5809,
      "DAVID": 5810,
      "3NR": 5811,
      "YATELEY": 5812,
      "BA13": 5813,
      "yne": 5814,
      "9AF": 5815,
      "BRACKLEY": 5816,
      "AYLESFORD": 5817,
      "to": 5818,
      "269": 5819,
      "3AH": 5820,
      "1JL": 5821,
      "1DH": 5822,
      "DORSET": 5823,
      "BRIARWOOD": 5824,
      "KNOLLWOOD": 5825,
      "HASSOCKS": 5826,
      "519": 5827,
      "5EQ": 5828,
      "810": 5829,
      "LOUTH": 5830,
      "1215": 5831,
      "ore": 5832,
      "HOUN": 5833,
      "PENRITH": 5834,
      "2HN": 5835,
      "xford": 5836,
      "PA1": 5837,
      "TEAD": 5838,
      "ASHTEAD": 5839,
      "WV11": 5840,
      "2DP": 5841,
      "KNIGHT": 5842,
      "4AB": 5843,
      "9AR": 5844,
      "NE11": 5845,
      "RYDE": 5846,
      "DRYDEN": 5847,
      "SHIRLEY": 5848,
      "WALLSEND": 5849,
      "3AB": 5850,
      "9EE": 5851,
      "ISE": 5852,
      "2AE": 5853,
      "7QA": 5854,
      "NRT": 5855,
      "1PT": 5856,
      "ATHERSTONE": 5857,
      "NIGHTINGALE": 5858,
      "3EA": 5859,
      "5AL": 5860,
      "1247": 5861,
      "271": 5862,
      "LINK": 5863,
      "TS15": 5864,
      "RH8": 5865,
      "Haw": 5866,
      "FORREST": 5867,
      "1EH": 5868,
      "4HH": 5869,
      "Hag": 5870,
      "RESFORD": 5871,
      "LE14": 5872,
      "LINKS": 5873,
      "RM19": 5874,
      "QUIL": 5875,
      "WOLFRAM": 5876,
      "BROADSTAIRS": 5877,
      "9LZ": 5878,
      "STRATH": 5879,
      "ANTHONY": 5880,
      "Hague": 5881,
      "DA2": 5882,
      "MK2": 5883,
      "FRIARGATE": 5884,
      "LIVINGSTON": 5885,
      "PUTNEY": 5886,
      "619": 5887,
      "BRD": 5888,
      "PS": 5889,
      "Payne": 5890,
      "DONALD": 5891,
      "WINSFORD": 5892,
      "CALHOUN": 5893,
      "PH1": 5894,
      "LONGFIELD": 5895,
      "1PG": 5896,
      "NURSERY": 5897,
      "0PA": 5898,
      "4DG": 5899,
      "9NE": 5900,
      "NIE": 5901,
      "NE20": 5902,
      "PARKVIEW": 5903,
      "GU47": 5904,
      "EH8": 5905,
      "67TH": 5906,
      "WC2H": 5907,
      "5AS": 5908,
      "Ant": 5909,
      "147TH": 5910,
      "WS5": 5911,
      "CM11": 5912,
      "CM17": 5913,
      "8AJ": 5914,
      "MAYPOLE": 5915,
      "HUNTER": 5916,
      "518": 5917,
      "5EF": 5918,
      "OVAL": 5919,
      "1425": 5920,
      "1511": 5921,
      "CO2": 5922,
      "POTTER": 5923,
      "MK17": 5924,
      "4JL": 5925,
      "1QD": 5926,
      "Mcknight": 5927,
      "3LL": 5928,
      "8AB": 5929,
      "JAN": 5930,
      "RIPON": 5931,
      "12A": 5932,
      "MARGA": 5933,
      "3BP": 5934,
      "2HA": 5935,
      "413": 5936,
      "9NA": 5937,
      "SBY": 5938,
      "33RD": 5939,
      "SP2": 5940,
      "COATBRIDGE": 5941,
      "1ER": 5942,
      "3AT": 5943,
      "TOT": 5944,
      "NE12": 5945,
      "THAME": 5946,
      "9AH": 5947,
      "2BS": 5948,
      "4QD": 5949,
      "COWBRIDGE": 5950,
      "BLYTH": 5951,
      "MONTGOMERY": 5952,
      "Se": 5953,
      "iss": 5954,
      "Pasc": 5955,
      "EDBROOKE": 5956,
      "LIGHT": 5957,
      "SWEET": 5958,
      "Pascal": 5959,
      "1DG": 5960,
      "921": 5961,
      "HAPP": 5962,
      "KINGSLEY": 5963,
      "424": 5964,
      "DE65": 5965,
      "PE15": 5966,
      "2EW": 5967,
      "FRIES": 5968,
      "517": 5969,
      "5EG": 5970,
      "614": 5971,
      "9DU": 5972,
      "AL6": 5973,
      "OLNEY": 5974,
      "TW19": 5975,
      "OX7": 5976,
      "GREENBAY": 5977,
      "CT14": 5978,
      "DN11": 5979,
      "7AJ": 5980,
      "WIGSTON": 5981,
      "MINERVA": 5982,
      "Front": 5983,
      "1ES": 5984,
      "1620": 5985,
      "CF72": 5986,
      "4DL": 5987,
      "FK8": 5988,
      "3AY": 5989,
      "527": 5990,
      "5HJ": 5991,
      "716": 5992,
      "ROOK": 5993,
      "1315": 5994,
      "IRON": 5995,
      "1AF": 5996,
      "3DL": 5997,
      "4LH": 5998,
      "4DB": 5999,
      "SWANLEY": 6000,
      "LATHROP": 6001,
      "ALPERTON": 6002,
      "LOAN": 6003,
      "BROKE": 6004,
      "5QY": 6005,
      "119TH": 6006,
      "8NF": 6007,
      "422": 6008,
      "WAG": 6009,
      "TS23": 6010,
      "2BU": 6011,
      "8AN": 6012,
      "BOX": 6013,
      "60195": 6014,
      "Wilson": 6015,
      "Beech": 6016,
      "6DY": 6017,
      "6TA": 6018,
      "LE65": 6019,
      "CH44": 6020,
      "1725": 6021,
      "173RD": 6022,
      "ony": 6023,
      "LS13": 6024,
      "Sherwood": 6025,
      "2DA": 6026,
      "3LA": 6027,
      "3BA": 6028,
      "3AU": 6029,
      "718": 6030,
      "per": 6031,
      "ILSHAM": 6032,
      "1BB": 6033,
      "GL20": 6034,
      "1BT": 6035,
      "WILLOWS": 6036,
      "TALBOT": 6037,
      "PHEASANT": 6038,
      "916": 6039,
      "Jam": 6040,
      "1430": 6041,
      "268": 6042,
      "GREENHITHE": 6043,
      "TS25": 6044,
      "1NL": 6045,
      "9AQ": 6046,
      "2BD": 6047,
      "TOO": 6048,
      "1RS": 6049,
      "5AN": 6050,
      "ish": 6051,
      "PA4": 6052,
      "RANDOLPH": 6053,
      "CLAPHAM": 6054,
      "2LP": 6055,
      "PONTYCLUN": 6056,
      "1RE": 6057,
      "360": 6058,
      "8NA": 6059,
      "1011": 6060,
      "1110": 6061,
      "1220": 6062,
      "451": 6063,
      "37TH": 6064,
      "CT11": 6065,
      "STREATHAM": 6066,
      "830": 6067,
      "9PA": 6068,
      "1440": 6069,
      "352": 6070,
      "2AX": 6071,
      "2LX": 6072,
      "2RU": 6073,
      "6ND": 6074,
      "Iv": 6075,
      "DELA": 6076,
      "29TH": 6077,
      "3NB": 6078,
      "0DU": 6079,
      "0HQ": 6080,
      "1HP": 6081,
      "1SQ": 6082,
      "1HH": 6083,
      "640": 6084,
      "7BA": 6085,
      "LS19": 6086,
      "GU46": 6087,
      "COND": 6088,
      "NRTH": 6089,
      "STONEHAVEN": 6090,
      "ISTON": 6091,
      "RESBOROUGH": 6092,
      "ABBY": 6093,
      "2JR": 6094,
      "6AH": 6095,
      "5AG": 6096,
      "5AJ": 6097,
      "3DZ": 6098,
      "1550": 6099,
      "KNARESBOROUGH": 6100,
      "2BA": 6101,
      "3TB": 6102,
      "721": 6103,
      "RISBOROUGH": 6104,
      "RATT": 6105,
      "DEE": 6106,
      "KT21": 6107,
      "WILSHIRE": 6108,
      "2BG": 6109,
      "5DH": 6110,
      "7DQ": 6111,
      "IV30": 6112,
      "3RJ": 6113,
      "636": 6114,
      "712": 6115,
      "ARBOR": 6116,
      "CH48": 6117,
      "DE15": 6118,
      "LL11": 6119,
      "CM20": 6120,
      "WV13": 6121,
      "2HR": 6122,
      "2DJ": 6123,
      "2DX": 6124,
      "3AW": 6125,
      "5AD": 6126,
      "CHAU": 6127,
      "AB22": 6128,
      "Oaks": 6129,
      "RM2": 6130,
      "PL3": 6131,
      "3DP": 6132,
      "4NA": 6133,
      "9BA": 6134,
      "hony": 6135,
      "DA9": 6136,
      "SEAFORD": 6137,
      "2AJ": 6138,
      "4AF": 6139,
      "Anthony": 6140,
      "2LA": 6141,
      "FLA": 6142,
      "1310": 6143,
      "BARNS": 6144,
      "MORTON": 6145,
      "1LP": 6146,
      "3AN": 6147,
      "Eu": 6148,
      "NTH": 6149,
      "KT7": 6150,
      "DIX": 6151,
      "1BQ": 6152,
      "1AP": 6153,
      "TYD": 6154,
      "FY3": 6155,
      "ML5": 6156,
      "5BP": 6157,
      "ner": 6158,
      "TS7": 6159,
      "BH18": 6160,
      "WARNER": 6161,
      "1510": 6162,
      "LEITH": 6163,
      "CRAB": 6164,
      "1LJ": 6165,
      "Curve": 6166,
      "1PB": 6167,
      "2RS": 6168,
      "7HP": 6169,
      "Ot": 6170,
      "WABAN": 6171,
      "DN17": 6172,
      "Wheelock": 6173,
      "7JG": 6174,
      "816": 6175,
      "OSSETT": 6176,
      "1120": 6177,
      "1720": 6178,
      "1DP": 6179,
      "CORTEZ": 6180,
      "0AD": 6181,
      "6HJ": 6182,
      "5AE": 6183,
      "6BD": 6184,
      "HOLLYWOOD": 6185,
      "2100": 6186,
      "BN6": 6187,
      "CT10": 6188,
      "1301": 6189,
      "2AS": 6190,
      "9JA": 6191,
      "1DX": 6192,
      "6DP": 6193,
      "0PP": 6194,
      "621": 6195,
      "8ED": 6196,
      "Fern": 6197,
      "MOLD": 6198,
      "WAIN": 6199,
      "roll": 6200,
      "ME20": 6201,
      "SO45": 6202,
      "1JB": 6203,
      "1AG": 6204,
      "2JP": 6205,
      "5DJ": 6206,
      "5LJ": 6207,
      "Carroll": 6208,
      "HOCKLEY": 6209,
      "1EQ": 6210,
      "6EA": 6211,
      "930": 6212,
      "KW": 6213,
      "BRIGG": 6214,
      "9JJ": 6215,
      "TURN": 6216,
      "BRETTELL": 6217,
      "1HA": 6218,
      "1SG": 6219,
      "1EG": 6220,
      "3DG": 6221,
      "618": 6222,
      "736": 6223,
      "7HH": 6224,
      "Oxford": 6225,
      "SK5": 6226,
      "2LD": 6227,
      "aska": 6228,
      "DELPHIA": 6229,
      "DUMFRIES": 6230,
      "2BY": 6231,
      "423": 6232,
      "5AY": 6233,
      "COLA": 6234,
      "267": 6235,
      "BN15": 6236,
      "2EE": 6237,
      "KINGSBURY": 6238,
      "1DL": 6239,
      "BBARD": 6240,
      "BALDOCK": 6241,
      "1EL": 6242,
      "5NT": 6243,
      "WARK": 6244,
      "1615": 6245,
      "bury": 6246,
      "3PY": 6247,
      "LYNDHURST": 6248,
      "SECOND": 6249,
      "BURLINGTON": 6250,
      "PO11": 6251,
      "CV35": 6252,
      "WARMINSTER": 6253,
      "mount": 6254,
      "SHEER": 6255,
      "AVONDALE": 6256,
      "Fairmount": 6257,
      "Long": 6258,
      "RINGHAM": 6259,
      "VO": 6260,
      "WESTHILL": 6261,
      "HAILSHAM": 6262,
      "illman": 6263,
      "HUTCHIN": 6264,
      "GREENFIELD": 6265,
      "WINTHROP": 6266,
      "NUM": 6267,
      "Skillman": 6268,
      "QUARRY": 6269,
      "624": 6270,
      "7DN": 6271,
      "8NN": 6272,
      "8DY": 6273,
      "917": 6274,
      "crest": 6275,
      "ora": 6276,
      "EH52": 6277,
      "3AQ": 6278,
      "3BD": 6279,
      "2QB": 6280,
      "HALSTEAD": 6281,
      "FIRST": 6282,
      "6HA": 6283,
      "724": 6284,
      "7DU": 6285,
      "ACTON": 6286,
      "HP15": 6287,
      "HP20": 6288,
      "9AS": 6289,
      "7DL": 6290,
      "0AN": 6291,
      "2DS": 6292,
      "5LE": 6293,
      "5NP": 6294,
      "2AQ": 6295,
      "7JZ": 6296,
      "7DW": 6297,
      "WHEAT": 6298,
      "1LN": 6299,
      "814": 6300,
      "821": 6301,
      "thorne": 6302,
      "354": 6303,
      "3JP": 6304,
      "8AF": 6305,
      "2HT": 6306,
      "2EB": 6307,
      "FORESTVIEW": 6308,
      "HOLYWELL": 6309,
      "Hawthorne": 6310,
      "TYDFIL": 6311,
      "2HU": 6312,
      "CRICK": 6313,
      "GINGER": 6314,
      "Ida": 6315,
      "BURNUM": 6316,
      "CA28": 6317,
      "SK17": 6318,
      "CB25": 6319,
      "NP10": 6320,
      "8AX": 6321,
      "9JQ": 6322,
      "5LY": 6323,
      "Miss": 6324,
      "162ND": 6325,
      "DY13": 6326,
      "1005": 6327,
      "1JJ": 6328,
      "DOVE": 6329,
      "8BJ": 6330,
      "2RP": 6331,
      "Ivy": 6332,
      "2LL": 6333,
      "513": 6334,
      "GIER": 6335,
      "ELYN": 6336,
      "PE12": 6337,
      "BN20": 6338,
      "3LP": 6339,
      "7DZ": 6340,
      "PULBOROUGH": 6341,
      "4EF": 6342,
      "9ER": 6343,
      "HESS": 6344,
      "ICA": 6345,
      "121ST": 6346,
      "BRK": 6347,
      "4JP": 6348,
      "2EX": 6349,
      "COPSE": 6350,
      "1BA": 6351,
      "1LY": 6352,
      "CIL": 6353,
      "WESTMINSTER": 6354,
      "CV9": 6355,
      "DN1": 6356,
      "7AH": 6357,
      "3LG": 6358,
      "TF3": 6359,
      "9LJ": 6360,
      "James": 6361,
      "3EL": 6362,
      "914": 6363,
      "Gal": 6364,
      "tier": 6365,
      "LABURNUM": 6366,
      "PPER": 6367,
      "6BB": 6368,
      "5PS": 6369,
      "GOLFVIEW": 6370,
      "Galtier": 6371,
      "1DU": 6372,
      "3EJ": 6373,
      "5BY": 6374,
      "1320": 6375,
      "VERWOOD": 6376,
      "1DY": 6377,
      "2UA": 6378,
      "719": 6379,
      "HUDSON": 6380,
      "5BX": 6381,
      "3DT": 6382,
      "FLEETWOOD": 6383,
      "WABANSIA": 6384,
      "3EP": 6385,
      "4EU": 6386,
      "529": 6387,
      "ASPEN": 6388,
      "dford": 6389,
      "STLE": 6390,
      "OX18": 6391,
      "MK12": 6392,
      "Bedford": 6393,
      "PLAINFIELD": 6394,
      "1AN": 6395,
      "5BH": 6396,
      "912": 6397,
      "SCAR": 6398,
      "INTON": 6399,
      "CHOL": 6400,
      "PL7": 6401,
      "HD7": 6402,
      "PENSA": 6403,
      "0LF": 6404,
      "CLAYTON": 6405,
      "1HG": 6406,
      "440": 6407,
      "7BE": 6408,
      "pi": 6409,
      "CH66": 6410,
      "1625": 6411,
      "PE8": 6412,
      "HOLLOW": 6413,
      "1JU": 6414,
      "3JL": 6415,
      "EARL": 6416,
      "1LS": 6417,
      "3HA": 6418,
      "Farrington": 6419,
      "GEN": 6420,
      "1520": 6421,
      "MK46": 6422,
      "HD4": 6423,
      "7AF": 6424,
      "Map": 6425,
      "9PG": 6426,
      "4ED": 6427,
      "NE9": 6428,
      "1325": 6429,
      "TEIGN": 6430,
      "MONTPEL": 6431,
      "7DB": 6432,
      "HOLMES": 6433,
      "MONTPELIER": 6434,
      "5HA": 6435,
      "819": 6436,
      "ANY": 6437,
      "2300": 6438,
      "NN9": 6439,
      "8JA": 6440,
      "9QG": 6441,
      "8NB": 6442,
      "issip": 6443,
      "1311": 6444,
      "PE4": 6445,
      "WD5": 6446,
      "9NH": 6447,
      "Gerani": 6448,
      "Mississip": 6449,
      "Geranium": 6450,
      "Mississippi": 6451,
      "1NW": 6452,
      "2NA": 6453,
      "WB": 6454,
      "1055": 6455,
      "ELLON": 6456,
      "KT14": 6457,
      "120TH": 6458,
      "NORH": 6459,
      "1JT": 6460,
      "HX2": 6461,
      "0DF": 6462,
      "EC2V": 6463,
      "PENSACOLA": 6464,
      "5LN": 6465,
      "617": 6466,
      "717": 6467,
      "8BH": 6468,
      "8EB": 6469,
      "9BH": 6470,
      "low": 6471,
      "NE5": 6472,
      "NE25": 6473,
      "LS2": 6474,
      "WALTER": 6475,
      "MONTANA": 6476,
      "Cla": 6477,
      "2PE": 6478,
      "Ex": 6479,
      "BAG": 6480,
      "WR4": 6481,
      "BEDWORTH": 6482,
      "FLOUR": 6483,
      "STUART": 6484,
      "GIDDINGS": 6485,
      "5ED": 6486,
      "5HB": 6487,
      "SAXON": 6488,
      "1016": 6489,
      "1030": 6490,
      "1530": 6491,
      "OLY": 6492,
      "PO22": 6493,
      "3JJ": 6494,
      "HERON": 6495,
      "8PJ": 6496,
      "6DT": 6497,
      "175TH": 6498,
      "2EP": 6499,
      "3HQ": 6500,
      "1116": 6501,
      "161ST": 6502,
      "BACK": 6503,
      "MOYNE": 6504,
      "8AS": 6505,
      "3RN": 6506,
      "3ND": 6507,
      "547": 6508,
      "7DR": 6509,
      "8EU": 6510,
      "GENE": 6511,
      "ald": 6512,
      "CM77": 6513,
      "BOUND": 6514,
      "7BX": 6515,
      "3HJ": 6516,
      "4ND": 6517,
      "5DR": 6518,
      "GUE": 6519,
      "MOUR": 6520,
      "1640": 6521,
      "BETH": 6522,
      "HU13": 6523,
      "4AJ": 6524,
      "HG5": 6525,
      "PADDOCK": 6526,
      "FLOURNOY": 6527,
      "3HL": 6528,
      "4EB": 6529,
      "5DS": 6530,
      "7HJ": 6531,
      "9EB": 6532,
      "MORN": 6533,
      "273": 6534,
      "BR8": 6535,
      "PO31": 6536,
      "2JA": 6537,
      "7JL": 6538,
      "4PY": 6539,
      "FROD": 6540,
      "2ER": 6541,
      "4EY": 6542,
      "ZA": 6543,
      "SEDGE": 6544,
      "DRIDGE": 6545,
      "4AQ": 6546,
      "1LQ": 6547,
      "MISSENDEN": 6548,
      "3ES": 6549,
      "3PA": 6550,
      "AB21": 6551,
      "PHER": 6552,
      "9LF": 6553,
      "UMBER": 6554,
      "FK7": 6555,
      "540": 6556,
      "cumbe": 6557,
      "gcumbe": 6558,
      "LN11": 6559,
      "1QE": 6560,
      "Edgcumbe": 6561,
      "BEAUMONT": 6562,
      "5EL": 6563,
      "817": 6564,
      "ingham": 6565,
      "SKIN": 6566,
      "WR2": 6567,
      "WF8": 6568,
      "MILLER": 6569,
      "WATERSIDE": 6570,
      "3BW": 6571,
      "7AG": 6572,
      "PONT": 6573,
      "144TH": 6574,
      "GENEVA": 6575,
      "8SR": 6576,
      "INAL": 6577,
      "STRAND": 6578,
      "1405": 6579,
      "PARSON": 6580,
      "4EN": 6581,
      "824": 6582,
      "919": 6583,
      "SOL": 6584,
      "1BJ": 6585,
      "KY1": 6586,
      "7PQ": 6587,
      "5NE": 6588,
      "918": 6589,
      "WAND": 6590,
      "SOUTHAM": 6591,
      "2000": 6592,
      "272": 6593,
      "GU11": 6594,
      "HEANOR": 6595,
      "3AP": 6596,
      "1NH": 6597,
      "2EG": 6598,
      "1LH": 6599,
      "2LJ": 6600,
      "braska": 6601,
      "Nebraska": 6602,
      "4AW": 6603,
      "286": 6604,
      "COLON": 6605,
      "OX9": 6606,
      "3JR": 6607,
      "9AP": 6608,
      "CHARTER": 6609,
      "9PD": 6610,
      "BROOMFIELD": 6611,
      "Fairview": 6612,
      "HUTCHINSON": 6613,
      "KELEY": 6614,
      "2AP": 6615,
      "8JG": 6616,
      "SIB": 6617,
      "Montana": 6618,
      "2LE": 6619,
      "NIS": 6620,
      "WR3": 6621,
      "CHAMBER": 6622,
      "1AQ": 6623,
      "2DT": 6624,
      "7LP": 6625,
      "CORNFORTH": 6626,
      "MANNHEIM": 6627,
      "2PH": 6628,
      "2PB": 6629,
      "4HU": 6630,
      "4EJ": 6631,
      "5DY": 6632,
      "UCH": 6633,
      "ifor": 6634,
      "1414": 6635,
      "EC4": 6636,
      "Califor": 6637,
      "9DT": 6638,
      "California": 6639,
      "1SD": 6640,
      "2SA": 6641,
      "2EN": 6642,
      "2BN": 6643,
      "4HA": 6644,
      "5SH": 6645,
      "5DD": 6646,
      "ho": 6647,
      "LOGAN": 6648,
      "PASTU": 6649,
      "8PD": 6650,
      "154TH": 6651,
      "Highland": 6652,
      "Idaho": 6653,
      "1HJ": 6654,
      "2NE": 6655,
      "Pond": 6656,
      "1411": 6657,
      "SO32": 6658,
      "7JN": 6659,
      "2ET": 6660,
      "7EG": 6661,
      "Sar": 6662,
      "COLES": 6663,
      "1JP": 6664,
      "7BS": 6665,
      "8DT": 6666,
      "7LH": 6667,
      "COLUMBIA": 6668,
      "TEIGNMOUTH": 6669,
      "1HQ": 6670,
      "2AY": 6671,
      "4HT": 6672,
      "5BA": 6673,
      "6BY": 6674,
      "9EL": 6675,
      "FRY": 6676,
      "GNESS": 6677,
      "BN25": 6678,
      "DYKE": 6679,
      "6AE": 6680,
      "JOHNSON": 6681,
      "1HN": 6682,
      "KEND": 6683,
      "277": 6684,
      "EC1A": 6685,
      "3JF": 6686,
      "2QP": 6687,
      "WILLIAMSBURG": 6688,
      "1SA": 6689,
      "1EW": 6690,
      "5PB": 6691,
      "622": 6692,
      "6DD": 6693,
      "7HN": 6694,
      "812": 6695,
      "PAD": 6696,
      "LE13": 6697,
      "BAKER": 6698,
      "WILM": 6699,
      "CB5": 6700,
      "4JB": 6701,
      "HERBERT": 6702,
      "6AQ": 6703,
      "2BX": 6704,
      "1RL": 6705,
      "1RP": 6706,
      "MEDILL": 6707,
      "526": 6708,
      "8AU": 6709,
      "IES": 6710,
      "PICK": 6711,
      "1105": 6712,
      "HP27": 6713,
      "3JA": 6714,
      "8PN": 6715,
      "KIDLINGTON": 6716,
      "1BH": 6717,
      "4AL": 6718,
      "6HB": 6719,
      "9EJ": 6720,
      "Am": 6721,
      "MLEY": 6722,
      "ORAN": 6723,
      "CHIN": 6724,
      "CH63": 6725,
      "1221": 6726,
      "ELLY": 6727,
      "CV12": 6728,
      "BH7": 6729,
      "2LG": 6730,
      "HUNTERS": 6731,
      "1EA": 6732,
      "6RE": 6733,
      "6RY": 6734,
      "6AU": 6735,
      "ee": 6736,
      "1012": 6737,
      "1112": 6738,
      "SEWAY": 6739,
      "1445": 6740,
      "276": 6741,
      "WS6": 6742,
      "2QD": 6743,
      "9BP": 6744,
      "2SH": 6745,
      "4HE": 6746,
      "8HG": 6747,
      "1017": 6748,
      "SEYMOUR": 6749,
      "KILN": 6750,
      "2JD": 6751,
      "SANDOWN": 6752,
      "7DP": 6753,
      "5PT": 6754,
      "FRODSHAM": 6755,
      "0HP": 6756,
      "3DN": 6757,
      "4EP": 6758,
      "7EB": 6759,
      "8ND": 6760,
      "FZ": 6761,
      "ETTS": 6762,
      "1108": 6763,
      "RHYL": 6764,
      "RM5": 6765,
      "1JG": 6766,
      "1509": 6767,
      "5AX": 6768,
      "0NP": 6769,
      "2120": 6770,
      "2HL": 6771,
      "3ED": 6772,
      "5ND": 6773,
      "836": 6774,
      "XTED": 6775,
      "1621": 6776,
      "ISCOMBE": 6777,
      "PO33": 6778,
      "GU52": 6779,
      "COLLI": 6780,
      "3DF": 6781,
      "8DF": 6782,
      "CHAUCER": 6783,
      "1NS": 6784,
      "2DN": 6785,
      "3NA": 6786,
      "722": 6787,
      "7LY": 6788,
      "7EQ": 6789,
      "Du": 6790,
      "1521": 6791,
      "289": 6792,
      "BRITT": 6793,
      "ada": 6794,
      "BUSSE": 6795,
      "8AP": 6796,
      "8AQ": 6797,
      "9ET": 6798,
      "PIL": 6799,
      "PION": 6800,
      "1920": 6801,
      "274": 6802,
      "LS14": 6803,
      "LL12": 6804,
      "HU10": 6805,
      "WILCOX": 6806,
      "1QT": 6807,
      "1LB": 6808,
      "8BD": 6809,
      "9DJ": 6810,
      "7RA": 6811,
      "FRED": 6812,
      "1014": 6813,
      "BN17": 6814,
      "4QP": 6815,
      "4BD": 6816,
      "2DH": 6817,
      "3NJ": 6818,
      "THIRD": 6819,
      "7EN": 6820,
      "9ES": 6821,
      "936": 6822,
      "CALL": 6823,
      "ERBY": 6824,
      "1040": 6825,
      "CH65": 6826,
      "RAIL": 6827,
      "COLWYN": 6828,
      "SO21": 6829,
      "CARDINAL": 6830,
      "KATH": 6831,
      "SKEGNESS": 6832,
      "1DE": 6833,
      "7AD": 6834,
      "CH64": 6835,
      "565": 6836,
      "MONMOUTH": 6837,
      "375": 6838,
      "PH2": 6839,
      "9JE": 6840,
      "CROSSING": 6841,
      "4LB": 6842,
      "BILLING": 6843,
      "KNIGHTS": 6844,
      "1SL": 6845,
      "1NU": 6846,
      "2HP": 6847,
      "7DY": 6848,
      "1421": 6849,
      "BH4": 6850,
      "9DH": 6851,
      "VAIL": 6852,
      "613": 6853,
      "8DN": 6854,
      "8AY": 6855,
      "955": 6856,
      "Pe": 6857,
      "Sil": 6858,
      "Chats": 6859,
      "NORTHUMBER": 6860,
      "VERE": 6861,
      "131ST": 6862,
      "SS16": 6863,
      "461": 6864,
      "DN16": 6865,
      "CW7": 6866,
      "6JG": 6867,
      "3LF": 6868,
      "8BL": 6869,
      "8DX": 6870,
      "164TH": 6871,
      "Silver": 6872,
      "Chatsworth": 6873,
      "NORTHUMBERLAND": 6874,
      "2PU": 6875,
      "1721": 6876,
      "2500": 6877,
      "HACK": 6878,
      "AB32": 6879,
      "DN36": 6880,
      "1JW": 6881,
      "4JH": 6882,
      "CRAIN": 6883,
      "8PG": 6884,
      "4DW": 6885,
      "SAUK": 6886,
      "1HY": 6887,
      "5EB": 6888,
      "6AD": 6889,
      "7DE": 6890,
      "7EH": 6891,
      "AL9": 6892,
      "1630": 6893,
      "285": 6894,
      "AB41": 6895,
      "CREGIER": 6896,
      "TRAFAL": 6897,
      "4LG": 6898,
      "TRAFALGAR": 6899,
      "1ND": 6900,
      "4EA": 6901,
      "650": 6902,
      "8LN": 6903,
      "LLAND": 6904,
      "well": 6905,
      "1140": 6906,
      "2JL": 6907,
      "3JH": 6908,
      "3RB": 6909,
      "KINS": 6910,
      "LEONARD": 6911,
      "4DU": 6912,
      "6HR": 6913,
      "9AL": 6914,
      "Carl": 6915,
      "Cree": 6916,
      "1635": 6917,
      "1820": 6918,
      "8JP": 6919,
      "Creek": 6920,
      "NE7": 6921,
      "RALEIGH": 6922,
      "SL0": 6923,
      "RH20": 6924,
      "PERSHORE": 6925,
      "9AJ": 6926,
      "0JJ": 6927,
      "2LB": 6928,
      "2AR": 6929,
      "4NP": 6930,
      "7AY": 6931,
      "WA6": 6932,
      "LL18": 6933,
      "BUL": 6934,
      "STONEY": 6935,
      "3JY": 6936,
      "4JA": 6937,
      "2QH": 6938,
      "GODSTONE": 6939,
      "TANGLEWOOD": 6940,
      "LAKESIDE": 6941,
      "SHEERNESS": 6942,
      "3HF": 6943,
      "522": 6944,
      "1135": 6945,
      "1455": 6946,
      "BEAM": 6947,
      "1305": 6948,
      "SCHILL": 6949,
      "4JT": 6950,
      "1QG": 6951,
      "2BB": 6952,
      "3NX": 6953,
      "ENTERPRI": 6954,
      "Conway": 6955,
      "1EP": 6956,
      "1HB": 6957,
      "3HP": 6958,
      "4EE": 6959,
      "7AU": 6960,
      "DE6": 6961,
      "1007": 6962,
      "5JF": 6963,
      "2BP": 6964,
      "0LW": 6965,
      "WANTAGE": 6966,
      "818": 6967,
      "9LA": 6968,
      "GOU": 6969,
      "WALLER": 6970,
      "CARROLL": 6971,
      "ROSEDALE": 6972,
      "3QA": 6973,
      "9QP": 6974,
      "6LD": 6975,
      "7NX": 6976,
      "1HE": 6977,
      "3AL": 6978,
      "3DU": 6979,
      "7QU": 6980,
      "8HS": 6981,
      "ONGAR": 6982,
      "1645": 6983,
      "287": 6984,
      "FITZ": 6985,
      "Law": 6986,
      "RUTLAND": 6987,
      "1505": 6988,
      "7AZ": 6989,
      "4BX": 6990,
      "BANKS": 6991,
      "ENTERPRISE": 6992,
      "0AY": 6993,
      "CRI": 6994,
      "ISA": 6995,
      "1121": 6996,
      "CH60": 6997,
      "281": 6998,
      "ler": 6999,
      "DN3": 7000,
      "HP14": 7001,
      "RAYMOND": 7002,
      "8AG": 7003,
      "2HF": 7004,
      "6BG": 7005,
      "8PT": 7006,
      "CHATSWORTH": 7007,
      "2NN": 7008,
      "2NU": 7009,
      "2AU": 7010,
      "2200": 7011,
      "3LU": 7012,
      "3HS": 7013,
      "4NS": 7014,
      "DUL": 7015,
      "SLA": 7016,
      "LEWIS": 7017,
      "SHORT": 7018,
      "PLAND": 7019,
      "BA3": 7020,
      "1201": 7021,
      "3JE": 7022,
      "9QJ": 7023,
      "DUNTON": 7024,
      "2PD": 7025,
      "NICHOL": 7026,
      "6NL": 7027,
      "2RD": 7028,
      "5DG": 7029,
      "8EA": 7030,
      "SS11": 7031,
      "OX17": 7032,
      "ade": 7033,
      "CHAP": 7034,
      "1801": 7035,
      "5DW": 7036,
      "SPINNEY": 7037,
      "4NU": 7038,
      "NE61": 7039,
      "1330": 7040,
      "1619": 7041,
      "2700": 7042,
      "PE13": 7043,
      "LL30": 7044,
      "UPSTAIR": 7045,
      "TR11": 7046,
      "2JH": 7047,
      "3JW": 7048,
      "2PS": 7049,
      "PEACE": 7050,
      "2DD": 7051,
      "3NW": 7052,
      "3HD": 7053,
      "4PP": 7054,
      "9AT": 7055,
      "9NW": 7056,
      "ange": 7057,
      "ME17": 7058,
      "change": 7059,
      "EH5": 7060,
      "NN13": 7061,
      "1109": 7062,
      "ABERDARE": 7063,
      "7AP": 7064,
      "5AP": 7065,
      "7DT": 7066,
      "Exchange": 7067,
      "0NY": 7068,
      "6DS": 7069,
      "cade": 7070,
      "1516": 7071,
      "BERKELEY": 7072,
      "CT2": 7073,
      "CORON": 7074,
      "3JB": 7075,
      "6AZ": 7076,
      "BONNY": 7077,
      "Arcade": 7078,
      "3EN": 7079,
      "3EX": 7080,
      "4LA": 7081,
      "4RA": 7082,
      "4PA": 7083,
      "NAV": 7084,
      "UPTON": 7085,
      "1335": 7086,
      "1715": 7087,
      "Northeast": 7088,
      "SKOK": 7089,
      "1009": 7090,
      "3JD": 7091,
      "8AZ": 7092,
      "4QA": 7093,
      "8QA": 7094,
      "Lawson": 7095,
      "4AY": 7096,
      "5AU": 7097,
      "5HR": 7098,
      "6LE": 7099,
      "822": 7100,
      "9HB": 7101,
      "STALL": 7102,
      "ENNA": 7103,
      "295": 7104,
      "HARRY": 7105,
      "AKER": 7106,
      "1104": 7107,
      "1BP": 7108,
      "3QF": 7109,
      "3DX": 7110,
      "6NE": 7111,
      "8HX": 7112,
      "Bar": 7113,
      "Kent": 7114,
      "SOW": 7115,
      "mar": 7116,
      "1319": 7117,
      "BRICK": 7118,
      "GU24": 7119,
      "DN31": 7120,
      "1004": 7121,
      "2NL": 7122,
      "2BQ": 7123,
      "2HH": 7124,
      "0AH": 7125,
      "9XT": 7126,
      "Bayard": 7127,
      "MARGARET": 7128,
      "1PH": 7129,
      "1DS": 7130,
      "4NT": 7131,
      "AGAT": 7132,
      "10A": 7133,
      "OL3": 7134,
      "BRUM": 7135,
      "AB39": 7136,
      "9JT": 7137,
      "2PJ": 7138,
      "2PN": 7139,
      "9BQ": 7140,
      "6PN": 7141,
      "LIVERPOOL": 7142,
      "AGATITE": 7143,
      "4HS": 7144,
      "8EN": 7145,
      "YST": 7146,
      "lyn": 7147,
      "1417": 7148,
      "1AS": 7149,
      "8BX": 7150,
      "3ER": 7151,
      "3DD": 7152,
      "840": 7153,
      "ller": 7154,
      "SS5": 7155,
      "GU33": 7156,
      "1107": 7157,
      "CLEAN": 7158,
      "1AZ": 7159,
      "8JD": 7160,
      "9LD": 7161,
      "1AU": 7162,
      "7HG": 7163,
      "8LE": 7164,
      "9DE": 7165,
      "1024": 7166,
      "SEDG": 7167,
      "28TH": 7168,
      "1106": 7169,
      "STANTON": 7170,
      "8BG": 7171,
      "2PQ": 7172,
      "FK10": 7173,
      "5LB": 7174,
      "9DL": 7175,
      "1EJ": 7176,
      "4HR": 7177,
      "6HF": 7178,
      "7EX": 7179,
      "823": 7180,
      "924": 7181,
      "Jeffer": 7182,
      "SHEFFORD": 7183,
      "FERDIN": 7184,
      "5BJ": 7185,
      "8BW": 7186,
      "DALKEITH": 7187,
      "DIXIE": 7188,
      "FERDINAND": 7189,
      "1BY": 7190,
      "1BN": 7191,
      "4HJ": 7192,
      "6DG": 7193,
      "7LA": 7194,
      "8AL": 7195,
      "8BU": 7196,
      "BLANE": 7197,
      "STOWN": 7198,
      "SOUTHWARK": 7199,
      "ME3": 7200,
      "TS19": 7201,
      "1006": 7202,
      "HOLBORN": 7203,
      "1BX": 7204,
      "6QQ": 7205,
      "4BG": 7206,
      "9BS": 7207,
      "0LQ": 7208,
      "Sandhurst": 7209,
      "SKOKIE": 7210,
      "4HD": 7211,
      "5AW": 7212,
      "6ED": 7213,
      "7ES": 7214,
      "Orange": 7215,
      "LAUR": 7216,
      "1NZ": 7217,
      "1406": 7218,
      "8JH": 7219,
      "1LG": 7220,
      "ERIDGE": 7221,
      "945": 7222,
      "9PE": 7223,
      "Vir": 7224,
      "ginia": 7225,
      "4BP": 7226,
      "BIRMINGHAM": 7227,
      "4LT": 7228,
      "8LG": 7229,
      "7RB": 7230,
      "MUNSTER": 7231,
      "Virginia": 7232,
      "3EE": 7233,
      "4BH": 7234,
      "5LL": 7235,
      "649": 7236,
      "1216": 7237,
      "ALLOA": 7238,
      "1416": 7239,
      "1512": 7240,
      "1636": 7241,
      "1710": 7242,
      "BN27": 7243,
      "1008": 7244,
      "2JT": 7245,
      "4JJ": 7246,
      "1701": 7247,
      "Maple": 7248,
      "0AU": 7249,
      "4AR": 7250,
      "4AU": 7251,
      "5HH": 7252,
      "9NN": 7253,
      "LAC": 7254,
      "1230": 7255,
      "Palace": 7256,
      "ROWAN": 7257,
      "SP5": 7258,
      "3BJ": 7259,
      "5BS": 7260,
      "4NL": 7261,
      "ALEXANDER": 7262,
      "0AB": 7263,
      "1HU": 7264,
      "3NP": 7265,
      "As": 7266,
      "1235": 7267,
      "1825": 7268,
      "1821": 7269,
      "BN22": 7270,
      "3LB": 7271,
      "TALCOTT": 7272,
      "GRAS": 7273,
      "MURRAY": 7274,
      "6LA": 7275,
      "9HE": 7276,
      "aham": 7277,
      "1810": 7278,
      "283": 7279,
      "DE73": 7280,
      "BA21": 7281,
      "EC4Y": 7282,
      "2NF": 7283,
      "7QL": 7284,
      "2DW": 7285,
      "7LR": 7286,
      "Graham": 7287,
      "5EY": 7288,
      "9HQ": 7289,
      "1815": 7290,
      "LS20": 7291,
      "IAC": 7292,
      "4JE": 7293,
      "DUNBLANE": 7294,
      "SIBLEY": 7295,
      "1QU": 7296,
      "2EH": 7297,
      "2LN": 7298,
      "631": 7299,
      "723": 7300,
      "1435": 7301,
      "153RD": 7302,
      "1910": 7303,
      "PO3": 7304,
      "PA3": 7305,
      "SO17": 7306,
      "3JN": 7307,
      "3DJ": 7308,
      "4PG": 7309,
      "6DQ": 7310,
      "0AW": 7311,
      "8EY": 7312,
      "Os": 7313,
      "ROTHER": 7314,
      "NE24": 7315,
      "1321": 7316,
      "HP7": 7317,
      "3JX": 7318,
      "5JY": 7319,
      "2BW": 7320,
      "9QH": 7321,
      "ADDISCOMBE": 7322,
      "COPPICE": 7323,
      "1604": 7324,
      "1EU": 7325,
      "7DA": 7326,
      "7HR": 7327,
      "9HN": 7328,
      "DODGE": 7329,
      "Still": 7330,
      "465": 7331,
      "1306": 7332,
      "4JU": 7333,
      "HX6": 7334,
      "PONTYPOOL": 7335,
      "Stillwater": 7336,
      "1AY": 7337,
      "1EF": 7338,
      "2NG": 7339,
      "3EY": 7340,
      "4NN": 7341,
      "5NA": 7342,
      "6SG": 7343,
      "726": 7344,
      "7EW": 7345,
      "940": 7346,
      "9LS": 7347,
      "DEA": 7348,
      "1217": 7349,
      "1316": 7350,
      "WA12": 7351,
      "CA2": 7352,
      "4LD": 7353,
      "4LF": 7354,
      "8DL": 7355,
      "RADSTOCK": 7356,
      "6AN": 7357,
      "6AB": 7358,
      "9BE": 7359,
      "9GD": 7360,
      "AP": 7361,
      "DWELL": 7362,
      "LEEN": 7363,
      "1119": 7364,
      "1136": 7365,
      "278": 7366,
      "WEIR": 7367,
      "SUFFIELD": 7368,
      "1409": 7369,
      "4JF": 7370,
      "6AP": 7371,
      "3LZ": 7372,
      "PART": 7373,
      "7LQ": 7374,
      "0DJ": 7375,
      "138TH": 7376,
      "5NB": 7377,
      "168TH": 7378,
      "1BU": 7379,
      "1SY": 7380,
      "2AT": 7381,
      "3DR": 7382,
      "6AT": 7383,
      "8LA": 7384,
      "LOTTE": 7385,
      "36TH": 7386,
      "HR1": 7387,
      "0AZ": 7388,
      "0BD": 7389,
      "Jefferson": 7390,
      "626": 7391,
      "8BA": 7392,
      "STUR": 7393,
      "1019": 7394,
      "1525": 7395,
      "1322": 7396,
      "1340": 7397,
      "282": 7398,
      "BASS": 7399,
      "HU16": 7400,
      "CF15": 7401,
      "HP16": 7402,
      "TS1": 7403,
      "PL25": 7404,
      "BLACKWOOD": 7405,
      "SANDRINGHAM": 7406,
      "8BQ": 7407,
      "1DF": 7408,
      "7LG": 7409,
      "1LE": 7410,
      "377": 7411,
      "1212": 7412,
      "288": 7413,
      "372": 7414,
      "2JJ": 7415,
      "ML11": 7416,
      "2RJ": 7417,
      "CHARLOTTE": 7418,
      "8ES": 7419,
      "9NP": 7420,
      "hill": 7421,
      "1036": 7422,
      "CHAD": 7423,
      "1818": 7424,
      "2210": 7425,
      "CO9": 7426,
      "NEWARK": 7427,
      "42ND": 7428,
      "CV47": 7429,
      "BH31": 7430,
      "TR7": 7431,
      "WDLEY": 7432,
      "CORNW": 7433,
      "1QL": 7434,
      "THORNDALE": 7435,
      "6PF": 7436,
      "GRASS": 7437,
      "COLDHARBOUR": 7438,
      "3PP": 7439,
      "6LU": 7440,
      "Ray": 7441,
      "1029": 7442,
      "14A": 7443,
      "ME12": 7444,
      "SGOW": 7445,
      "FERNDALE": 7446,
      "7BG": 7447,
      "RIEFF": 7448,
      "9LH": 7449,
      "0DZ": 7450,
      "PATRI": 7451,
      "GLASGOW": 7452,
      "729": 7453,
      "8HL": 7454,
      "9HW": 7455,
      "1240": 7456,
      "1624": 7457,
      "1811": 7458,
      "DRURY": 7459,
      "4AH": 7460,
      "5AF": 7461,
      "4DH": 7462,
      "9BD": 7463,
      "7PG": 7464,
      "3PS": 7465,
      "1RD": 7466,
      "2TH": 7467,
      "3LS": 7468,
      "4DD": 7469,
      "5PA": 7470,
      "731": 7471,
      "ATH": 7472,
      "BARK": 7473,
      "mins": 7474,
      "1022": 7475,
      "1940": 7476,
      "1835": 7477,
      "Westmins": 7478,
      "ABERG": 7479,
      "MIDDLETON": 7480,
      "9DB": 7481,
      "Westminster": 7482,
      "3EG": 7483,
      "623": 7484,
      "7HT": 7485,
      "8LS": 7486,
      "8LL": 7487,
      "ACA": 7488,
      "279": 7489,
      "1JA": 7490,
      "117TH": 7491,
      "1DW": 7492,
      "8DB": 7493,
      "4NJ": 7494,
      "QUINCY": 7495,
      "GEL": 7496,
      "5QF": 7497,
      "4LP": 7498,
      "4DX": 7499,
      "6LX": 7500,
      "1ET": 7501,
      "1NN": 7502,
      "3HB": 7503,
      "4LL": 7504,
      "4BN": 7505,
      "5BE": 7506,
      "737": 7507,
      "929": 7508,
      "KIM": 7509,
      "1224": 7510,
      "1245": 7511,
      "BEWDLEY": 7512,
      "1NA": 7513,
      "NP4": 7514,
      "WV16": 7515,
      "9JU": 7516,
      "1LD": 7517,
      "6BL": 7518,
      "2RL": 7519,
      "CHARLTON": 7520,
      "1901": 7521,
      "9NB": 7522,
      "TIMORE": 7523,
      "1AW": 7524,
      "2DE": 7525,
      "2101": 7526,
      "1130": 7527,
      "1418": 7528,
      "Southwest": 7529,
      "3JU": 7530,
      "1QH": 7531,
      "5AQ": 7532,
      "5BZ": 7533,
      "0DH": 7534,
      "9NJ": 7535,
      "5HN": 7536,
      "5EU": 7537,
      "629": 7538,
      "7PA": 7539,
      "8TA": 7540,
      "1114": 7541,
      "1517": 7542,
      "EH13": 7543,
      "BH10": 7544,
      "2NJ": 7545,
      "2EZ": 7546,
      "HR4": 7547,
      "4BQ": 7548,
      "ADDOW": 7549,
      "1PN": 7550,
      "9NL": 7551,
      "1SS": 7552,
      "2LS": 7553,
      "4LY": 7554,
      "4HB": 7555,
      "5NG": 7556,
      "VL": 7557,
      "CHORY": 7558,
      "DA6": 7559,
      "NEWLANDS": 7560,
      "BANCHORY": 7561,
      "2JE": 7562,
      "6JP": 7563,
      "4QL": 7564,
      "1RZ": 7565,
      "CADIA": 7566,
      "2AN": 7567,
      "2RA": 7568,
      "2AW": 7569,
      "2HG": 7570,
      "3BU": 7571,
      "7BH": 7572,
      "7PB": 7573,
      "7SJ": 7574,
      "831": 7575,
      "8EE": 7576,
      "BLU": 7577,
      "NESTON": 7578,
      "if": 7579,
      "1412": 7580,
      "SHEN": 7581,
      "DE75": 7582,
      "PL9": 7583,
      "2JU": 7584,
      "2NR": 7585,
      "SHERWIN": 7586,
      "2BJ": 7587,
      "3LR": 7588,
      "8QD": 7589,
      "2LH": 7590,
      "2LQ": 7591,
      "8DW": 7592,
      "CAUSEWAY": 7593,
      "2ES": 7594,
      "4AT": 7595,
      "5EH": 7596,
      "5LU": 7597,
      "1740": 7598,
      "1915": 7599,
      "GU8": 7600,
      "LYDNEY": 7601,
      "KINGFISHER": 7602,
      "1307": 7603,
      "ynard": 7604,
      "WR10": 7605,
      "5JB": 7606,
      "9QZ": 7607,
      "8QZ": 7608,
      "Bush": 7609,
      "Maynard": 7610,
      "1PX": 7611,
      "HELEN": 7612,
      "0BJ": 7613,
      "3PJ": 7614,
      "3NH": 7615,
      "OLYMP": 7616,
      "PEACEHAVEN": 7617,
      "1HL": 7618,
      "2HE": 7619,
      "3HN": 7620,
      "4EH": 7621,
      "548": 7622,
      "7PL": 7623,
      "9HD": 7624,
      "9HR": 7625,
      "1124": 7626,
      "1711": 7627,
      "WOTTON": 7628,
      "LL13": 7629,
      "1407": 7630,
      "0QB": 7631,
      "8LB": 7632,
      "4RF": 7633,
      "5PG": 7634,
      "BORDON": 7635,
      "PEACH": 7636,
      "1AT": 7637,
      "2HD": 7638,
      "3DY": 7639,
      "6SB": 7640,
      "8RE": 7641,
      "9HU": 7642,
      "9HP": 7643,
      "Bel": 7644,
      "SAGE": 7645,
      "1117": 7646,
      "1716": 7647,
      "BA12": 7648,
      "EC1Y": 7649,
      "CW10": 7650,
      "2NY": 7651,
      "FRONT": 7652,
      "9AG": 7653,
      "9YQ": 7654,
      "1PL": 7655,
      "3LE": 7656,
      "3HT": 7657,
      "4TR": 7658,
      "6EG": 7659,
      "7NA": 7660,
      "8DU": 7661,
      "HIL": 7662,
      "1BW": 7663,
      "1QB": 7664,
      "2DL": 7665,
      "0AG": 7666,
      "3DS": 7667,
      "6NP": 7668,
      "9PB": 7669,
      "9HH": 7670,
      "WHY": 7671,
      "1034": 7672,
      "2LT": 7673,
      "1PD": 7674,
      "4RB": 7675,
      "ROLD": 7676,
      "BRUMMEL": 7677,
      "2BH": 7678,
      "4SG": 7679,
      "5LA": 7680,
      "5HT": 7681,
      "7DG": 7682,
      "8TP": 7683,
      "1023": 7684,
      "1210": 7685,
      "1314": 7686,
      "1735": 7687,
      "ITAGE": 7688,
      "PA2": 7689,
      "CARTER": 7690,
      "3AZ": 7691,
      "BROOKFIELD": 7692,
      "HERITAGE": 7693,
      "HEATHFIELD": 7694,
      "2QW": 7695,
      "BRACKEN": 7696,
      "NICOTT": 7697,
      "5DB": 7698,
      "9BJ": 7699,
      "7RP": 7700,
      "LAUDER": 7701,
      "1PA": 7702,
      "2250": 7703,
      "3RA": 7704,
      "4ET": 7705,
      "6EP": 7706,
      "713": 7707,
      "Hy": 7708,
      "WESTRY": 7709,
      "151ST": 7710,
      "KEEN": 7711,
      "BRG": 7712,
      "WARLINGHAM": 7713,
      "CONNAU": 7714,
      "CB3": 7715,
      "SYL": 7716,
      "1408": 7717,
      "8JR": 7718,
      "9AZ": 7719,
      "3DW": 7720,
      "GARRATT": 7721,
      "1PJ": 7722,
      "OSWESTRY": 7723,
      "CHALFONT": 7724,
      "BOLTON": 7725,
      "3ET": 7726,
      "732": 7727,
      "B2": 7728,
      "ms": 7729,
      "1122": 7730,
      "1925": 7731,
      "4AX": 7732,
      "1QJ": 7733,
      "3BG": 7734,
      "TF7": 7735,
      "9LG": 7736,
      "2PW": 7737,
      "WALKER": 7738,
      "5AR": 7739,
      "9DR": 7740,
      "ROME": 7741,
      "COBB": 7742,
      "KENNICOTT": 7743,
      "1JX": 7744,
      "3QN": 7745,
      "WAREHAM": 7746,
      "6BS": 7747,
      "4BJ": 7748,
      "94TH": 7749,
      "5NJ": 7750,
      "169TH": 7751,
      "CRABTREE": 7752,
      "BES": 7753,
      "1830": 7754,
      "SHOTT": 7755,
      "BN10": 7756,
      "41ST": 7757,
      "BUTE": 7758,
      "1JS": 7759,
      "8JX": 7760,
      "3BS": 7761,
      "6AJ": 7762,
      "PARC": 7763,
      "8QB": 7764,
      "2DZ": 7765,
      "7DJ": 7766,
      "KATHLEEN": 7767,
      "5NS": 7768,
      "7ND": 7769,
      "7BN": 7770,
      "741": 7771,
      "829": 7772,
      "1424": 7773,
      "CM19": 7774,
      "1508": 7775,
      "6JE": 7776,
      "3QD": 7777,
      "2EY": 7778,
      "WAVERLEY": 7779,
      "3NT": 7780,
      "4LE": 7781,
      "627": 7782,
      "922": 7783,
      "9BY": 7784,
      "RAV": 7785,
      "1345": 7786,
      "SWAL": 7787,
      "BN13": 7788,
      "CF38": 7789,
      "1309": 7790,
      "LILAC": 7791,
      "4LR": 7792,
      "2PY": 7793,
      "6DX": 7794,
      "2PA": 7795,
      "2121": 7796,
      "3TZ": 7797,
      "850": 7798,
      "923": 7799,
      "9LN": 7800,
      "EER": 7801,
      "1431": 7802,
      "BERY": 7803,
      "BERWICK": 7804,
      "RH5": 7805,
      "2JN": 7806,
      "3DB": 7807,
      "TF10": 7808,
      "4BS": 7809,
      "1DT": 7810,
      "CONNAUGHT": 7811,
      "0AL": 7812,
      "2111": 7813,
      "4DE": 7814,
      "4DS": 7815,
      "4NG": 7816,
      "6LY": 7817,
      "826": 7818,
      "8EH": 7819,
      "913": 7820,
      "YEW": 7821,
      "OUND": 7822,
      "ARDMORE": 7823,
      "DEEP": 7824,
      "561": 7825,
      "SG7": 7826,
      "6JA": 7827,
      "CIFI": 7828,
      "TOTNES": 7829,
      "1ED": 7830,
      "3BH": 7831,
      "634": 7832,
      "UTI": 7833,
      "1031": 7834,
      "4JN": 7835,
      "2HB": 7836,
      "7DF": 7837,
      "CORNWALL": 7838,
      "2115": 7839,
      "4SA": 7840,
      "528": 7841,
      "5PP": 7842,
      "6LN": 7843,
      "728": 7844,
      "7EE": 7845,
      "BRIN": 7846,
      "OX12": 7847,
      "KENLEY": 7848,
      "HD5": 7849,
      "1504": 7850,
      "9QA": 7851,
      "6QA": 7852,
      "5LT": 7853,
      "6LR": 7854,
      "1NT": 7855,
      "6BU": 7856,
      "BINE": 7857,
      "AVENNY": 7858,
      "1419": 7859,
      "1616": 7860,
      "DN20": 7861,
      "1BL": 7862,
      "SYDENHAM": 7863,
      "9JR": 7864,
      "5BG": 7865,
      "2LW": 7866,
      "FK15": 7867,
      "8RJ": 7868,
      "4SL": 7869,
      "4PH": 7870,
      "5AT": 7871,
      "5PR": 7872,
      "5TN": 7873,
      "637": 7874,
      "RIGG": 7875,
      "2800": 7876,
      "PO30": 7877,
      "CB10": 7878,
      "4JW": 7879,
      "SHERMER": 7880,
      "2LF": 7881,
      "1DJ": 7882,
      "COTTON": 7883,
      "9BG": 7884,
      "5LF": 7885,
      "9DP": 7886,
      "OSBORNE": 7887,
      "BRAINARD": 7888,
      "1RY": 7889,
      "1605": 7890,
      "ith": 7891,
      "ral": 7892,
      "1743": 7893,
      "SG17": 7894,
      "5JJ": 7895,
      "5JT": 7896,
      "7QH": 7897,
      "5LR": 7898,
      "0AX": 7899,
      "2DG": 7900,
      "2HY": 7901,
      "4PE": 7902,
      "5EN": 7903,
      "6ER": 7904,
      "6AR": 7905,
      "Cr": 7906,
      "Pri": 7907,
      "60661": 7908,
      "INCH": 7909,
      "1018": 7910,
      "EC3N": 7911,
      "9JF": 7912,
      "1LW": 7913,
      "8DH": 7914,
      "BOUNDARY": 7915,
      "ABERGAVENNY": 7916,
      "0NE": 7917,
      "1HS": 7918,
      "9HX": 7919,
      "BDGE": 7920,
      "ds": 7921,
      "1032": 7922,
      "1617": 7923,
      "297": 7924,
      "WAYS": 7925,
      "AB31": 7926,
      "GL15": 7927,
      "2JS": 7928,
      "THORNWOOD": 7929,
      "2301": 7930,
      "3001": 7931,
      "JOHNSTONE": 7932,
      "0LR": 7933,
      "2501": 7934,
      "TOOTING": 7935,
      "4RH": 7936,
      "837": 7937,
      "1433": 7938,
      "ITA": 7939,
      "CLEAR": 7940,
      "PERS": 7941,
      "MILLBROOK": 7942,
      "9QE": 7943,
      "0LH": 7944,
      "SERVE": 7945,
      "CORONATION": 7946,
      "1DR": 7947,
      "2TW": 7948,
      "5ES": 7949,
      "7NS": 7950,
      "9EH": 7951,
      "Kell": 7952,
      "Well": 7953,
      "1318": 7954,
      "299": 7955,
      "SS3": 7956,
      "MONTA": 7957,
      "BN16": 7958,
      "2QT": 7959,
      "9BT": 7960,
      "6LF": 7961,
      "9PX": 7962,
      "0HD": 7963,
      "1145": 7964,
      "1317": 7965,
      "OLM": 7966,
      "LOSS": 7967,
      "2442": 7968,
      "BURLING": 7969,
      "ROSEWOOD": 7970,
      "4JR": 7971,
      "8BT": 7972,
      "SHELLEY": 7973,
      "SOWERBY": 7974,
      "738": 7975,
      "8HZ": 7976,
      "CIN": 7977,
      "1131": 7978,
      "1712": 7979,
      "WAI": 7980,
      "KEM": 7981,
      "GU35": 7982,
      "CLER": 7983,
      "1308": 7984,
      "CANFIELD": 7985,
      "OMIN": 7986,
      "1506": 7987,
      "1QA": 7988,
      "5BL": 7989,
      "2DQ": 7990,
      "5DF": 7991,
      "2RG": 7992,
      "NORMANTON": 7993,
      "DURSLEY": 7994,
      "GILBERT": 7995,
      "COPPER": 7996,
      "3HY": 7997,
      "7HD": 7998,
      "9AN": 7999,
      "9AY": 8000,
      "2020": 8001,
      "294": 8002,
      "LYMAN": 8003,
      "WHISPER": 8004,
      "2JX": 8005,
      "8QQ": 8006,
      "7QB": 8007,
      "7QT": 8008,
      "HOWE": 8009,
      "LYNWOOD": 8010,
      "4EX": 8011,
      "644": 8012,
      "6DR": 8013,
      "1028": 8014,
      "1222": 8015,
      "16A": 8016,
      "1717": 8017,
      "1724": 8018,
      "DA3": 8019,
      "PE14": 8020,
      "BROW": 8021,
      "BH2": 8022,
      "8JE": 8023,
      "JOY": 8024,
      "9DW": 8025,
      "142ND": 8026,
      "SWALLOW": 8027,
      "2TB": 8028,
      "3HZ": 8029,
      "641": 8030,
      "8W": 8031,
      "8HF": 8032,
      "Fre": 8033,
      "GTE": 8034,
      "1535": 8035,
      "RASEN": 8036,
      "1205": 8037,
      "STERLING": 8038,
      "2EU": 8039,
      "5QL": 8040,
      "5DP": 8041,
      "5PN": 8042,
      "PALM": 8043,
      "3PH": 8044,
      "3SY": 8045,
      "7ET": 8046,
      "7HB": 8047,
      "8EJ": 8048,
      "STY": 8049,
      "CH49": 8050,
      "1518": 8051,
      "1650": 8052,
      "HIGHER": 8053,
      "CT19": 8054,
      "2NH": 8055,
      "6JX": 8056,
      "7BW": 8057,
      "6BW": 8058,
      "Robert": 8059,
      "GLASTON": 8060,
      "HESSLE": 8061,
      "WILMETTE": 8062,
      "0ND": 8063,
      "0BA": 8064,
      "0DG": 8065,
      "1HF": 8066,
      "5DN": 8067,
      "5UA": 8068,
      "6EB": 8069,
      "828": 8070,
      "9NY": 8071,
      "SOUTHWEST": 8072,
      "WESTBOURNE": 8073,
      "1522": 8074,
      "1524": 8075,
      "1312": 8076,
      "1817": 8077,
      "661": 8078,
      "MK44": 8079,
      "ola": 8080,
      "8JJ": 8081,
      "5JG": 8082,
      "3QR": 8083,
      "4BB": 8084,
      "8RB": 8085,
      "ceola": 8086,
      "THISTLE": 8087,
      "Osceola": 8088,
      "0EG": 8089,
      "0HF": 8090,
      "1601": 8091,
      "Jen": 8092,
      "WF9": 8093,
      "8JN": 8094,
      "7JD": 8095,
      "2LR": 8096,
      "0DL": 8097,
      "2235": 8098,
      "5HQ": 8099,
      "628": 8100,
      "6BE": 8101,
      "6EJ": 8102,
      "739": 8103,
      "7DD": 8104,
      "832": 8105,
      "9SP": 8106,
      "9HL": 8107,
      "ISBOROUGH": 8108,
      "WYTH": 8109,
      "5JH": 8110,
      "PENNY": 8111,
      "5QQ": 8112,
      "8BP": 8113,
      "4LZ": 8114,
      "2PT": 8115,
      "8RX": 8116,
      "6PQ": 8117,
      "JEROME": 8118,
      "PARTRIDGE": 8119,
      "3PE": 8120,
      "3NG": 8121,
      "5HY": 8122,
      "8DR": 8123,
      "8HQ": 8124,
      "1118": 8125,
      "1514": 8126,
      "1355": 8127,
      "CR6": 8128,
      "PACIFI": 8129,
      "HP18": 8130,
      "COTTINGHAM": 8131,
      "1QR": 8132,
      "2NQ": 8133,
      "5JQ": 8134,
      "PACIFIC": 8135,
      "3RS": 8136,
      "632": 8137,
      "SAR": 8138,
      "1026": 8139,
      "1233": 8140,
      "1812": 8141,
      "SSEN": 8142,
      "TA2": 8143,
      "1NR": 8144,
      "1QN": 8145,
      "9QQ": 8146,
      "TQ3": 8147,
      "7BZ": 8148,
      "LUDLOW": 8149,
      "646": 8150,
      "9LU": 8151,
      "GAY": 8152,
      "1610": 8153,
      "1816": 8154,
      "PE26": 8155,
      "BARROW": 8156,
      "SCHER": 8157,
      "4JD": 8158,
      "5LW": 8159,
      "6LH": 8160,
      "8LH": 8161,
      "5NQ": 8162,
      "4DR": 8163,
      "5NR": 8164,
      "7BY": 8165,
      "9SB": 8166,
      "dridge": 8167,
      "THACK": 8168,
      "RASCHER": 8169,
      "umb": 8170,
      "475": 8171,
      "OLDFIELD": 8172,
      "Eldridge": 8173,
      "LESLEY": 8174,
      "1404": 8175,
      "5JL": 8176,
      "3LT": 8177,
      "3QE": 8178,
      "4LJ": 8179,
      "6DL": 8180,
      "9BZ": 8181,
      "0QE": 8182,
      "8LQ": 8183,
      "SAWBRIDGE": 8184,
      "7PP": 8185,
      "839": 8186,
      "9EU": 8187,
      "VUE": 8188,
      "1234": 8189,
      "HIAWA": 8190,
      "SLADE": 8191,
      "1103": 8192,
      "BLAN": 8193,
      "1507": 8194,
      "1705": 8195,
      "5PJ": 8196,
      "GLASTONBURY": 8197,
      "HIAWATHA": 8198,
      "2NS": 8199,
      "5ER": 8200,
      "746": 8201,
      "1911": 8202,
      "CF32": 8203,
      "OAKLANDS": 8204,
      "1304": 8205,
      "9JY": 8206,
      "2BZ": 8207,
      "1LF": 8208,
      "5LH": 8209,
      "HENLEY": 8210,
      "SAWBRIDGEWORTH": 8211,
      "549": 8212,
      "827": 8213,
      "834": 8214,
      "EFF": 8215,
      "ker": 8216,
      "WESTER": 8217,
      "1736": 8218,
      "1824": 8219,
      "2220": 8220,
      "GRESHAM": 8221,
      "WREN": 8222,
      "6JZ": 8223,
      "3QW": 8224,
      "3QX": 8225,
      "9LQ": 8226,
      "9PT": 8227,
      "0AE": 8228,
      "BUTTERFIELD": 8229,
      "1SP": 8230,
      "4EL": 8231,
      "9PP": 8232,
      "POST": 8233,
      "PA16": 8234,
      "WINDER": 8235,
      "RICHARD": 8236,
      "HG4": 8237,
      "TF9": 8238,
      "SHOE": 8239,
      "0RY": 8240,
      "3EW": 8241,
      "6NU": 8242,
      "9EN": 8243,
      "9EA": 8244,
      "1214": 8245,
      "1236": 8246,
      "15A": 8247,
      "1326": 8248,
      "1336": 8249,
      "1921": 8250,
      "GL6": 8251,
      "8JL": 8252,
      "5DZ": 8253,
      "ROSELLE": 8254,
      "9RG": 8255,
      "Central": 8256,
      "DAYTON": 8257,
      "ACACIA": 8258,
      "0AT": 8259,
      "0HW": 8260,
      "Fu": 8261,
      "CHAND": 8262,
      "1229": 8263,
      "OX33": 8264,
      "CF44": 8265,
      "old": 8266,
      "140TH": 8267,
      "2NZ": 8268,
      "Holly": 8269,
      "9JH": 8270,
      "2BL": 8271,
      "0DP": 8272,
      "GRAFTON": 8273,
      "Arden": 8274,
      "Englewood": 8275,
      "SCHILLER": 8276,
      "Fuller": 8277,
      "1DN": 8278,
      "5RA": 8279,
      "5HS": 8280,
      "841": 8281,
      "9EX": 8282,
      "BIT": 8283,
      "1037": 8284,
      "1426": 8285,
      "real": 8286,
      "DE3": 8287,
      "CAIRN": 8288,
      "CM18": 8289,
      "6JT": 8290,
      "7PF": 8291,
      "5RF": 8292,
      "FOOT": 8293,
      "166TH": 8294,
      "Montreal": 8295,
      "WAGNER": 8296,
      "3EB": 8297,
      "734": 8298,
      "7EY": 8299,
      "8NP": 8300,
      "8HH": 8301,
      "SOUTHGATE": 8302,
      "1427": 8303,
      "1434": 8304,
      "1523": 8305,
      "1750": 8306,
      "2335": 8307,
      "WOBURN": 8308,
      "COACH": 8309,
      "777": 8310,
      "Scheffer": 8311,
      "DN2": 8312,
      "RH17": 8313,
      "4QS": 8314,
      "1704": 8315,
      "118TH": 8316,
      "6LB": 8317,
      "PINEWOOD": 8318,
      "CRESTWOOD": 8319,
      "ORANGE": 8320,
      "WINDERMERE": 8321,
      "4NY": 8322,
      "4NR": 8323,
      "6EH": 8324,
      "6HE": 8325,
      "642": 8326,
      "838": 8327,
      "928": 8328,
      "9NR": 8329,
      "STEN": 8330,
      "LONSDALE": 8331,
      "1226": 8332,
      "1631": 8333,
      "296": 8334,
      "NEWBERRY": 8335,
      "CT16": 8336,
      "6JJ": 8337,
      "4LX": 8338,
      "0NX": 8339,
      "RAILWAY": 8340,
      "5ET": 8341,
      "6BH": 8342,
      "9DS": 8343,
      "Dor": 8344,
      "MCLEAN": 8345,
      "2040": 8346,
      "FITCH": 8347,
      "BRIXTON": 8348,
      "DENTON": 8349,
      "6BX": 8350,
      "4BW": 8351,
      "6LJ": 8352,
      "6LQ": 8353,
      "Raymond": 8354,
      "3HH": 8355,
      "460": 8356,
      "541": 8357,
      "5HP": 8358,
      "5EX": 8359,
      "660": 8360,
      "8HN": 8361,
      "9HF": 8362,
      "1219": 8363,
      "SHADY": 8364,
      "DN37": 8365,
      "HEATON": 8366,
      "SHEEN": 8367,
      "TQ14": 8368,
      "6QB": 8369,
      "5DQ": 8370,
      "1DZ": 8371,
      "9DX": 8372,
      "129TH": 8373,
      "0DB": 8374,
      "CLIFFORD": 8375,
      "0HA": 8376,
      "2NW": 8377,
      "6EY": 8378,
      "7ED": 8379,
      "1211": 8380,
      "CATH": 8381,
      "CF63": 8382,
      "MK11": 8383,
      "WC1A": 8384,
      "NP7": 8385,
      "3BB": 8386,
      "9AX": 8387,
      "JOH": 8388,
      "7QW": 8389,
      "4BL": 8390,
      "6DJ": 8391,
      "YSTWYTH": 8392,
      "WHISPERING": 8393,
      "3RH": 8394,
      "544": 8395,
      "542": 8396,
      "IDA": 8397,
      "1422": 8398,
      "DEMING": 8399,
      "ille": 8400,
      "WYS": 8401,
      "CM0": 8402,
      "TQ4": 8403,
      "0RN": 8404,
      "132ND": 8405,
      "PEMBROKE": 8406,
      "HAPPFIELD": 8407,
      "3NY": 8408,
      "5HE": 8409,
      "638": 8410,
      "639": 8411,
      "651": 8412,
      "6HL": 8413,
      "7PE": 8414,
      "9LE": 8415,
      "BWORTH": 8416,
      "ville": 8417,
      "1231": 8418,
      "1436": 8419,
      "1540": 8420,
      "1930": 8421,
      "293": 8422,
      "HAROLD": 8423,
      "CROMAR": 8424,
      "ABERYSTWYTH": 8425,
      "1NP": 8426,
      "7JB": 8427,
      "3BX": 8428,
      "6DF": 8429,
      "7LZ": 8430,
      "JOHNS": 8431,
      "3EZ": 8432,
      "4DN": 8433,
      "5EZ": 8434,
      "6HS": 8435,
      "9EF": 8436,
      "1822": 8437,
      "CA1": 8438,
      "7AS": 8439,
      "6JY": 8440,
      "5QG": 8441,
      "0JT": 8442,
      "1807": 8443,
      "7DH": 8444,
      "8DJ": 8445,
      "8LD": 8446,
      "160TH": 8447,
      "BRDG": 8448,
      "0EH": 8449,
      "0EB": 8450,
      "3HW": 8451,
      "7NU": 8452,
      "8ET": 8453,
      "813": 8454,
      "8PE": 8455,
      "RETT": 8456,
      "1519": 8457,
      "1618": 8458,
      "469": 8459,
      "HOM": 8460,
      "BIGH": 8461,
      "1NY": 8462,
      "5AZ": 8463,
      "6QE": 8464,
      "9LR": 8465,
      "4NQ": 8466,
      "2112": 8467,
      "4PL": 8468,
      "5GA": 8469,
      "8HT": 8470,
      "8EQ": 8471,
      "950": 8472,
      "931": 8473,
      "9AW": 8474,
      "Humb": 8475,
      "JON": 8476,
      "1033": 8477,
      "1239": 8478,
      "143RD": 8479,
      "141ST": 8480,
      "SHURST": 8481,
      "292": 8482,
      "TWE": 8483,
      "BH13": 8484,
      "NP16": 8485,
      "9JG": 8486,
      "5QH": 8487,
      "6QG": 8488,
      "2DF": 8489,
      "3RG": 8490,
      "LIVERSEDGE": 8491,
      "TAMAR": 8492,
      "TODMORDEN": 8493,
      "oldt": 8494,
      "Humboldt": 8495,
      "0NS": 8496,
      "0DR": 8497,
      "3LY": 8498,
      "6NR": 8499,
      "7HU": 8500,
      "SWOOD": 8501,
      "UPLAND": 8502,
      "1255": 8503,
      "MONTE": 8504,
      "1208": 8505,
      "7JJ": 8506,
      "THORNHILL": 8507,
      "5QP": 8508,
      "1707": 8509,
      "6DB": 8510,
      "1SU": 8511,
      "7BU": 8512,
      "7LU": 8513,
      "BLESIDE": 8514,
      "OTH": 8515,
      "1041": 8516,
      "1423": 8517,
      "INGAT": 8518,
      "anor": 8519,
      "2425": 8520,
      "SY23": 8521,
      "2QN": 8522,
      "3RF": 8523,
      "0BT": 8524,
      "4NB": 8525,
      "Stan": 8526,
      "INGATESTONE": 8527,
      "1SW": 8528,
      "3RE": 8529,
      "3EU": 8530,
      "4HG": 8531,
      "6HP": 8532,
      "7HY": 8533,
      "7HW": 8534,
      "BAB": 8535,
      "JA": 8536,
      "ARCADIA": 8537,
      "ANK": 8538,
      "17th": 8539,
      "GL11": 8540,
      "MK15": 8541,
      "1AX": 8542,
      "2JZ": 8543,
      "1QX": 8544,
      "8QR": 8545,
      "2UL": 8546,
      "2SF": 8547,
      "8NG": 8548,
      "9NS": 8549,
      "Jul": 8550,
      "iet": 8551,
      "CH42": 8552,
      "1527": 8553,
      "1324": 8554,
      "1626": 8555,
      "1819": 8556,
      "1JY": 8557,
      "4JX": 8558,
      "3QP": 8559,
      "9LB": 8560,
      "1805": 8561,
      "5LP": 8562,
      "9DF": 8563,
      "6PX": 8564,
      "1UH": 8565,
      "FOURTH": 8566,
      "Juliet": 8567,
      "2LY": 8568,
      "2DU": 8569,
      "6ET": 8570,
      "927": 8571,
      "934": 8572,
      "9BU": 8573,
      "Aur": 8574,
      "1123": 8575,
      "1437": 8576,
      "1836": 8577,
      "GREENHILL": 8578,
      "SHEEP": 8579,
      "4JS": 8580,
      "6JR": 8581,
      "Albe": 8582,
      "2HX": 8583,
      "0PD": 8584,
      "Albans": 8585,
      "marle": 8586,
      "Aurora": 8587,
      "Albemarle": 8588,
      "2PR": 8589,
      "5BU": 8590,
      "744": 8591,
      "926": 8592,
      "937": 8593,
      "NE16": 8594,
      "1227": 8595,
      "17A": 8596,
      "2215": 8597,
      "1003": 8598,
      "9QN": 8599,
      "ADELA": 8600,
      "4NF": 8601,
      "MORTIMER": 8602,
      "SEDGWICK": 8603,
      "0PR": 8604,
      "2RE": 8605,
      "4NW": 8606,
      "4HP": 8607,
      "8AW": 8608,
      "9SA": 8609,
      "9DD": 8610,
      "ke": 8611,
      "CH47": 8612,
      "LIBER": 8613,
      "WATERFORD": 8614,
      "3BL": 8615,
      "1708": 8616,
      "0JR": 8617,
      "6LW": 8618,
      "0AS": 8619,
      "6AY": 8620,
      "ate": 8621,
      "KESWICK": 8622,
      "BN23": 8623,
      "STEYN": 8624,
      "7BL": 8625,
      "7BQ": 8626,
      "5BT": 8627,
      "1RR": 8628,
      "Asbury": 8629,
      "4EW": 8630,
      "648": 8631,
      "Mil": 8632,
      "Mack": 8633,
      "oh": 8634,
      "1218": 8635,
      "2015": 8636,
      "365": 8637,
      "SP4": 8638,
      "2JQ": 8639,
      "3JG": 8640,
      "0JW": 8641,
      "ubin": 8642,
      "4DF": 8643,
      "8DQ": 8644,
      "STEPHEN": 8645,
      "Mackubin": 8646,
      "0HZ": 8647,
      "6EF": 8648,
      "847": 8649,
      "Big": 8650,
      "av": 8651,
      "1241": 8652,
      "1329": 8653,
      "1719": 8654,
      "2315": 8655,
      "HARWICH": 8656,
      "KT23": 8657,
      "8QX": 8658,
      "1905": 8659,
      "7NH": 8660,
      "6PB": 8661,
      "9BN": 8662,
      "1223": 8663,
      "1450": 8664,
      "1627": 8665,
      "1633": 8666,
      "MAX": 8667,
      "WYCH": 8668,
      "TS6": 8669,
      "1002": 8670,
      "CONISTON": 8671,
      "2HW": 8672,
      "7LT": 8673,
      "1909": 8674,
      "8RR": 8675,
      "PIERCE": 8676,
      "1HT": 8677,
      "1TL": 8678,
      "3NS": 8679,
      "9QU": 8680,
      "Jack": 8681,
      "1013": 8682,
      "1432": 8683,
      "1529": 8684,
      "1531": 8685,
      "SS17": 8686,
      "DENBIGH": 8687,
      "NP12": 8688,
      "WV12": 8689,
      "5JN": 8690,
      "9QS": 8691,
      "1RW": 8692,
      "8LZ": 8693,
      "6PT": 8694,
      "BALTIMORE": 8695,
      "Fremont": 8696,
      "Jackson": 8697,
      "1UN": 8698,
      "1TE": 8699,
      "7SA": 8700,
      "846": 8701,
      "8HJ": 8702,
      "inth": 8703,
      "ROX": 8704,
      "1441": 8705,
      "1350": 8706,
      "1331": 8707,
      "1641": 8708,
      "1745": 8709,
      "18A": 8710,
      "GUISBOROUGH": 8711,
      "761": 8712,
      "acinth": 8713,
      "1808": 8714,
      "GIBB": 8715,
      "Hyacinth": 8716,
      "2TA": 8717,
      "7RS": 8718,
      "8HE": 8719,
      "8SN": 8720,
      "9HT": 8721,
      "TAT": 8722,
      "WG": 8723,
      "1027": 8724,
      "1337": 8725,
      "HU6": 8726,
      "NORA": 8727,
      "7JE": 8728,
      "2HZ": 8729,
      "8QE": 8730,
      "8QJ": 8731,
      "HORTON": 8732,
      "4DT": 8733,
      "ARTHINGTON": 8734,
      "HEMLOCK": 8735,
      "1TS": 8736,
      "1HZ": 8737,
      "7HE": 8738,
      "OC": 8739,
      "ELLAND": 8740,
      "STONEGATE": 8741,
      "LARS": 8742,
      "8QP": 8743,
      "MPSON": 8744,
      "1RF": 8745,
      "3RL": 8746,
      "1PF": 8747,
      "7NQ": 8748,
      "0EN": 8749,
      "2SE": 8750,
      "3ST": 8751,
      "3NE": 8752,
      "5HZ": 8753,
      "9PU": 8754,
      "9EG": 8755,
      "9EQ": 8756,
      "GWY": 8757,
      "1228": 8758,
      "1429": 8759,
      "CES": 8760,
      "298": 8761,
      "BRIXHAM": 8762,
      "1102": 8763,
      "WS4": 8764,
      "CM21": 8765,
      "6JB": 8766,
      "3QT": 8767,
      "5QT": 8768,
      "0JY": 8769,
      "7LX": 8770,
      "BRANCH": 8771,
      "174TH": 8772,
      "2PL": 8773,
      "4ER": 8774,
      "8PA": 8775,
      "DOD": 8776,
      "1133": 8777,
      "556": 8778,
      "1628": 8779,
      "GU6": 8780,
      "EHEAD": 8781,
      "MERLIN": 8782,
      "KILBURN": 8783,
      "OPAL": 8784,
      "4JG": 8785,
      "2NB": 8786,
      "2HS": 8787,
      "1809": 8788,
      "GEORG": 8789,
      "0NF": 8790,
      "FELL": 8791,
      "1050": 8792,
      "1232": 8793,
      "1614": 8794,
      "1634": 8795,
      "1637": 8796,
      "DEWEY": 8797,
      "SPIT": 8798,
      "CB11": 8799,
      "HOLLAND": 8800,
      "MILLERS": 8801,
      "BROOKWOOD": 8802,
      "5JS": 8803,
      "MIDLAND": 8804,
      "4PX": 8805,
      "1706": 8806,
      "1LX": 8807,
      "1806": 8808,
      "2RR": 8809,
      "8LJ": 8810,
      "0PS": 8811,
      "PITTS": 8812,
      "HEBDEN": 8813,
      "1TD": 8814,
      "5EP": 8815,
      "7ER": 8816,
      "Ele": 8817,
      "JUL": 8818,
      "1113": 8819,
      "1623": 8820,
      "192ND": 8821,
      "1823": 8822,
      "1845": 8823,
      "LOYD": 8824,
      "BRIDLE": 8825,
      "RUBY": 8826,
      "2JW": 8827,
      "WV5": 8828,
      "7JT": 8829,
      "PENZ": 8830,
      "7QJ": 8831,
      "4DQ": 8832,
      "STONEHOUSE": 8833,
      "SALTBURN": 8834,
      "ADELAIDE": 8835,
      "Eleanor": 8836,
      "656": 8837,
      "7EL": 8838,
      "8SE": 8839,
      "8HD": 8840,
      "9HY": 8841,
      "ANNE": 8842,
      "1439": 8843,
      "1629": 8844,
      "LS23": 8845,
      "361": 8846,
      "CROUCH": 8847,
      "CALDI": 8848,
      "VISTA": 8849,
      "4JY": 8850,
      "2EJ": 8851,
      "4QR": 8852,
      "FFORDD": 8853,
      "PIONEER": 8854,
      "STEYNING": 8855,
      "0BE": 8856,
      "5HL": 8857,
      "7SH": 8858,
      "9DY": 8859,
      "1924": 8860,
      "CKER": 8861,
      "21A": 8862,
      "1302": 8863,
      "5QS": 8864,
      "KINGSWOOD": 8865,
      "EXETER": 8866,
      "5PD": 8867,
      "0BS": 8868,
      "DOWNING": 8869,
      "GRAHAM": 8870,
      "WINDLE": 8871,
      "LARKHALL": 8872,
      "4BY": 8873,
      "CRAY": 8874,
      "GLAN": 8875,
      "SPE": 8876,
      "NE10": 8877,
      "1722": 8878,
      "BATHGATE": 8879,
      "1LZ": 8880,
      "6BP": 8881,
      "5NL": 8882,
      "WYNDHAM": 8883,
      "CHARLESTON": 8884,
      "1PR": 8885,
      "3EQ": 8886,
      "3SB": 8887,
      "4HF": 8888,
      "5PL": 8889,
      "7NR": 8890,
      "8BY": 8891,
      "8EF": 8892,
      "WEATHER": 8893,
      "1533": 8894,
      "1323": 8895,
      "1912": 8896,
      "1919": 8897,
      "WINTER": 8898,
      "STOCKWELL": 8899,
      "9JX": 8900,
      "6JD": 8901,
      "4BZ": 8902,
      "4LQ": 8903,
      "0BL": 8904,
      "3PX": 8905,
      "5NH": 8906,
      "670": 8907,
      "ELA": 8908,
      "OIT": 8909,
      "2925": 8910,
      "CRAVEN": 8911,
      "HUBBARD": 8912,
      "WF15": 8913,
      "CHIP": 8914,
      "7JA": 8915,
      "3LX": 8916,
      "3QG": 8917,
      "5BW": 8918,
      "5QN": 8919,
      "SNOW": 8920,
      "QUEENSTOWN": 8921,
      "176TH": 8922,
      "BERKLEY": 8923,
      "PALMERSTON": 8924,
      "2117": 8925,
      "5NN": 8926,
      "8PB": 8927,
      "NINGHAM": 8928,
      "PSY": 8929,
      "WAD": 8930,
      "ENFIELD": 8931,
      "ALLS": 8932,
      "2110": 8933,
      "2720": 8934,
      "PL2": 8935,
      "REDRUTH": 8936,
      "3QS": 8937,
      "9QT": 8938,
      "8QT": 8939,
      "0RB": 8940,
      "9NQ": 8941,
      "Arund": 8942,
      "TWEED": 8943,
      "PENZANCE": 8944,
      "Arundel": 8945,
      "0ET": 8946,
      "2YL": 8947,
      "5PE": 8948,
      "647": 8949,
      "OME": 8950,
      "OSAGE": 8951,
      "ETLAND": 8952,
      "ALLE": 8953,
      "1611": 8954,
      "1718": 8955,
      "EDER": 8956,
      "TA21": 8957,
      "1NF": 8958,
      "SUND": 8959,
      "7JR": 8960,
      "LINGFIELD": 8961,
      "6JQ": 8962,
      "2EQ": 8963,
      "7PT": 8964,
      "9PF": 8965,
      "PORLEY": 8966,
      "3NQ": 8967,
      "TARPORLEY": 8968,
      "1PP": 8969,
      "2124": 8970,
      "3NN": 8971,
      "4HQ": 8972,
      "742": 8973,
      "7HS": 8974,
      "TET": 8975,
      "THAT": 8976,
      "AMBLESIDE": 8977,
      "1250": 8978,
      "ALFRED": 8979,
      "1632": 8980,
      "1840": 8981,
      "1831": 8982,
      "Her": 8983,
      "364": 8984,
      "1207": 8985,
      "NP18": 8986,
      "9QR": 8987,
      "9LP": 8988,
      "5LZ": 8989,
      "DINGWALL": 8990,
      "CALDICOT": 8991,
      "0NT": 8992,
      "0HH": 8993,
      "2105": 8994,
      "2116": 8995,
      "6PH": 8996,
      "9EP": 8997,
      "9RS": 8998,
      "GORE": 8999,
      "nn": 9000,
      "1132": 9001,
      "1428": 9002,
      "19A": 9003,
      "2240": 9004,
      "LYON": 9005,
      "HOLBROOK": 9006,
      "3JT": 9007,
      "6QJ": 9008,
      "1PQ": 9009,
      "8NX": 9010,
      "0EE": 9011,
      "2TE": 9012,
      "3LN": 9013,
      "3SJ": 9014,
      "6DU": 9015,
      "8RH": 9016,
      "FOW": 9017,
      "IRO": 9018,
      "CH61": 9019,
      "1526": 9020,
      "1918": 9021,
      "RUSKIN": 9022,
      "BARNES": 9023,
      "SHEPHER": 9024,
      "4JZ": 9025,
      "4QG": 9026,
      "BIRK": 9027,
      "0AJ": 9028,
      "PATTON": 9029,
      "STREAMWOOD": 9030,
      "0EJ": 9031,
      "1NE": 9032,
      "2109": 9033,
      "657": 9034,
      "7EP": 9035,
      "8NR": 9036,
      "938": 9037,
      "9HG": 9038,
      "AMENT": 9039,
      "ELLS": 9040,
      "NEWTOWN": 9041,
      "39TH": 9042,
      "LL29": 9043,
      "BN12": 9044,
      "SK23": 9045,
      "3RP": 9046,
      "1908": 9047,
      "0RJ": 9048,
      "CUNNINGHAM": 9049,
      "KEENEY": 9050,
      "0DE": 9051,
      "2nd": 9052,
      "5DU": 9053,
      "6HH": 9054,
      "8HR": 9055,
      "KNE": 9056,
      "ud": 9057,
      "THIR": 9058,
      "1916": 9059,
      "193RD": 9060,
      "27TH": 9061,
      "BAI": 9062,
      "4QE": 9063,
      "KY7": 9064,
      "6QD": 9065,
      "KINGSBRIDGE": 9066,
      "9BB": 9067,
      "6LT": 9068,
      "2231": 9069,
      "6RF": 9070,
      "6NB": 9071,
      "GRASMERE": 9072,
      "WHYTE": 9073,
      "3RU": 9074,
      "4EG": 9075,
      "6PL": 9076,
      "6NA": 9077,
      "7NE": 9078,
      "7NP": 9079,
      "8ST": 9080,
      "LID": 9081,
      "Chur": 9082,
      "1244": 9083,
      "RABEE": 9084,
      "2225": 9085,
      "ight": 9086,
      "LARRABEE": 9087,
      "5QE": 9088,
      "2PF": 9089,
      "8RL": 9090,
      "MUSS": 9091,
      "3PD": 9092,
      "MORNING": 9093,
      "Church": 9094,
      "2125": 9095,
      "6RU": 9096,
      "OUL": 9097,
      "1127": 9098,
      "ELOT": 9099,
      "1237": 9100,
      "1513": 9101,
      "1917": 9102,
      "1829": 9103,
      "CA11": 9104,
      "MEMOR": 9105,
      "BEC": 9106,
      "HILLTOP": 9107,
      "BROCKLEY": 9108,
      "CM4": 9109,
      "3QL": 9110,
      "4QX": 9111,
      "IV1": 9112,
      "8NJ": 9113,
      "Churchill": 9114,
      "0EX": 9115,
      "2201": 9116,
      "5HX": 9117,
      "6PP": 9118,
      "6HG": 9119,
      "8BN": 9120,
      "1528": 9121,
      "1328": 9122,
      "1327": 9123,
      "CF36": 9124,
      "NP26": 9125,
      "BRIGHT": 9126,
      "2JF": 9127,
      "5JZ": 9128,
      "9JL": 9129,
      "9QB": 9130,
      "8LF": 9131,
      "0DX": 9132,
      "5RX": 9133,
      "8NH": 9134,
      "0LN": 9135,
      "5RD": 9136,
      "570": 9137,
      "946": 9138,
      "IK": 9139,
      "1413": 9140,
      "1341": 9141,
      "133RD": 9142,
      "rke": 9143,
      "MAES": 9144,
      "gent": 9145,
      "363": 9146,
      "WYE": 9147,
      "WC2N": 9148,
      "150TH": 9149,
      "6JH": 9150,
      "TQ9": 9151,
      "4PS": 9152,
      "0JE": 9153,
      "Burke": 9154,
      "5LX": 9155,
      "6LG": 9156,
      "BENTON": 9157,
      "3SU": 9158,
      "3TQ": 9159,
      "3HX": 9160,
      "4TL": 9161,
      "6LS": 9162,
      "7LL": 9163,
      "8EW": 9164,
      "8UA": 9165,
      "Ti": 9166,
      "TILL": 9167,
      "CA3": 9168,
      "395": 9169,
      "POT": 9170,
      "GLADE": 9171,
      "EC2R": 9172,
      "1206": 9173,
      "HOLT": 9174,
      "0JP": 9175,
      "9BW": 9176,
      "8LR": 9177,
      "135TH": 9178,
      "9RR": 9179,
      "PELHAM": 9180,
      "8NL": 9181,
      "Edge": 9182,
      "CURTAIN": 9183,
      "clay": 9184,
      "VAUX": 9185,
      "Barclay": 9186,
      "1SR": 9187,
      "5RE": 9188,
      "8DG": 9189,
      "9RA": 9190,
      "BIS": 9191,
      "BEND": 9192,
      "ENGO": 9193,
      "1150": 9194,
      "2010": 9195,
      "BA5": 9196,
      "358": 9197,
      "MARENGO": 9198,
      "4PJ": 9199,
      "7QS": 9200,
      "8LP": 9201,
      "0DT": 9202,
      "rence": 9203,
      "Clarence": 9204,
      "2230": 9205,
      "4PB": 9206,
      "6HY": 9207,
      "7DS": 9208,
      "1128": 9209,
      "SEWARD": 9210,
      "1532": 9211,
      "1923": 9212,
      "2820": 9213,
      "WS8": 9214,
      "2QF": 9215,
      "7AQ": 9216,
      "SPRINGS": 9217,
      "3QY": 9218,
      "9QL": 9219,
      "4QH": 9220,
      "8RF": 9221,
      "0BP": 9222,
      "WC1V": 9223,
      "PONTIAC": 9224,
      "WANDSWORTH": 9225,
      "0LU": 9226,
      "3NU": 9227,
      "4ES": 9228,
      "560": 9229,
      "6EX": 9230,
      "8EZ": 9231,
      "JOLI": 9232,
      "1129": 9233,
      "385": 9234,
      "2QS": 9235,
      "5JR": 9236,
      "9JP": 9237,
      "GLENLAKE": 9238,
      "1804": 9239,
      "9BX": 9240,
      "5LD": 9241,
      "4NH": 9242,
      "7NL": 9243,
      "158TH": 9244,
      "POUND": 9245,
      "WAIOLA": 9246,
      "HOMEST": 9247,
      "JOLIET": 9248,
      "5PH": 9249,
      "ACORN": 9250,
      "CAND": 9251,
      "dia": 9252,
      "1622": 9253,
      "SHALL": 9254,
      "2221": 9255,
      "BURNE": 9256,
      "391": 9257,
      "PE25": 9258,
      "CAMBER": 9259,
      "QUO": 9260,
      "QUOIS": 9261,
      "BELOIT": 9262,
      "HX7": 9263,
      "2RF": 9264,
      "HATCH": 9265,
      "Sims": 9266,
      "ogg": 9267,
      "Kellogg": 9268,
      "THACKER": 9269,
      "IROQUOIS": 9270,
      "1PU": 9271,
      "3PR": 9272,
      "6HD": 9273,
      "7LS": 9274,
      "932": 9275,
      "EMP": 9276,
      "IRA": 9277,
      "ALMA": 9278,
      "BH16": 9279,
      "LIAMENT": 9280,
      "1402": 9281,
      "2QG": 9282,
      "9JS": 9283,
      "PARLIAMENT": 9284,
      "6QP": 9285,
      "1DQ": 9286,
      "6NG": 9287,
      "9ED": 9288,
      "wr": 9289,
      "1039": 9290,
      "1332": 9291,
      "PLAN": 9292,
      "OAKFIELD": 9293,
      "1JZ": 9294,
      "3JZ": 9295,
      "4QT": 9296,
      "2001": 9297,
      "4PN": 9298,
      "6BZ": 9299,
      "7RG": 9300,
      "KINROSS": 9301,
      "5NX": 9302,
      "BERKSHIRE": 9303,
      "SALTASH": 9304,
      "3PL": 9305,
      "8SB": 9306,
      "9EY": 9307,
      "VILL": 9308,
      "WER": 9309,
      "ks": 9310,
      "LEWOOD": 9311,
      "LEWI": 9312,
      "1155": 9313,
      "1814": 9314,
      "TWR": 9315,
      "RYN": 9316,
      "BUTTS": 9317,
      "HOLDEN": 9318,
      "NYSON": 9319,
      "6BQ": 9320,
      "1PW": 9321,
      "4RT": 9322,
      "TENNYSON": 9323,
      "PITTSBURGH": 9324,
      "0HU": 9325,
      "1TX": 9326,
      "2140": 9327,
      "3TJ": 9328,
      "6TD": 9329,
      "8DS": 9330,
      "STRI": 9331,
      "THOM": 9332,
      "1333": 9333,
      "1935": 9334,
      "DANE": 9335,
      "KT24": 9336,
      "SP11": 9337,
      "WC2A": 9338,
      "5JD": 9339,
      "9JB": 9340,
      "9PS": 9341,
      "1907": 9342,
      "Juno": 9343,
      "2701": 9344,
      "7NB": 9345,
      "RADCLIFFE": 9346,
      "HEBBURN": 9347,
      "CAMBERWELL": 9348,
      "0NW": 9349,
      "2107": 9350,
      "2SD": 9351,
      "5UE": 9352,
      "6EE": 9353,
      "8RA": 9354,
      "8RS": 9355,
      "9PL": 9356,
      "KIT": 9357,
      "Sy": 9358,
      "mingham": 9359,
      "ONE": 9360,
      "ROB": 9361,
      "CHARD": 9362,
      "1541": 9363,
      "2320": 9364,
      "366": 9365,
      "GU3": 9366,
      "665": 9367,
      "SUTHER": 9368,
      "8JF": 9369,
      "7JQ": 9370,
      "LONGMEADOW": 9371,
      "7BF": 9372,
      "KY8": 9373,
      "1709": 9374,
      "NICHO": 9375,
      "Red": 9376,
      "Birmingham": 9377,
      "2106": 9378,
      "3SA": 9379,
      "5EJ": 9380,
      "8NU": 9381,
      "8TL": 9382,
      "941": 9383,
      "RN": 9384,
      "lish": 9385,
      "GRET": 9386,
      "359": 9387,
      "1303": 9388,
      "2QJ": 9389,
      "WHITTON": 9390,
      "8BS": 9391,
      "5LQ": 9392,
      "7LW": 9393,
      "7PX": 9394,
      "3RR": 9395,
      "5PY": 9396,
      "148TH": 9397,
      "BURNSIDE": 9398,
      "English": 9399,
      "2119": 9400,
      "Ark": 9401,
      "SQU": 9402,
      "1339": 9403,
      "137TH": 9404,
      "1926": 9405,
      "362": 9406,
      "CUSTER": 9407,
      "2QR": 9408,
      "9QF": 9409,
      "1RJ": 9410,
      "7LD": 9411,
      "BELLSHILL": 9412,
      "7RL": 9413,
      "7NJ": 9414,
      "VAUXHALL": 9415,
      "wright": 9416,
      "Arkwright": 9417,
      "2108": 9418,
      "2TJ": 9419,
      "6DN": 9420,
      "7RE": 9421,
      "DDEN": 9422,
      "1714": 9423,
      "2025": 9424,
      "DRIFT": 9425,
      "NWICK": 9426,
      "369": 9427,
      "EH22": 9428,
      "HEXHAM": 9429,
      "CARN": 9430,
      "4JQ": 9431,
      "8QH": 9432,
      "6PY": 9433,
      "BONNIE": 9434,
      "HORSESHOE": 9435,
      "STEPHENSON": 9436,
      "1SB": 9437,
      "5NW": 9438,
      "6RA": 9439,
      "7HL": 9440,
      "9NG": 9441,
      "HEDGE": 9442,
      "Kno": 9443,
      "1242": 9444,
      "WOODHALL": 9445,
      "CAS": 9446,
      "357": 9447,
      "575": 9448,
      "TS22": 9449,
      "6QW": 9450,
      "1181": 9451,
      "124TH": 9452,
      "PRESTWICK": 9453,
      "2118": 9454,
      "5EW": 9455,
      "8HY": 9456,
      "ACE": 9457,
      "BLAND": 9458,
      "2030": 9459,
      "NEWHAVEN": 9460,
      "2JY": 9461,
      "WV8": 9462,
      "LONGFORD": 9463,
      "6JL": 9464,
      "BANKMENT": 9465,
      "8RN": 9466,
      "DOWNHAM": 9467,
      "HARRIS": 9468,
      "EMBANKMENT": 9469,
      "PATRICIA": 9470,
      "NICHOLAS": 9471,
      "1TW": 9472,
      "1HW": 9473,
      "7HX": 9474,
      "Deso": 9475,
      "WHIN": 9476,
      "LAMB": 9477,
      "OL14": 9478,
      "2310": 9479,
      "383": 9480,
      "EHURST": 9481,
      "BH5": 9482,
      "WILKE": 9483,
      "0LT": 9484,
      "0AQ": 9485,
      "MUND": 9486,
      "VINCENT": 9487,
      "UTICA": 9488,
      "Milton": 9489,
      "Desoto": 9490,
      "7PR": 9491,
      "8EG": 9492,
      "9ND": 9493,
      "ELE": 9494,
      "FEATHER": 9495,
      "Wats": 9496,
      "all": 9497,
      "1046": 9498,
      "1731": 9499,
      "191ST": 9500,
      "1827": 9501,
      "FORGE": 9502,
      "DENCE": 9503,
      "PLETON": 9504,
      "1NX": 9505,
      "SYDNEY": 9506,
      "MILES": 9507,
      "4QF": 9508,
      "6QL": 9509,
      "8BZ": 9510,
      "7LF": 9511,
      "CHERRYWOOD": 9512,
      "HOMESTEAD": 9513,
      "Watson": 9514,
      "3TE": 9515,
      "7EU": 9516,
      "939": 9517,
      "Wab": 9518,
      "CHEN": 9519,
      "1246": 9520,
      "SEQUO": 9521,
      "2016": 9522,
      "OX15": 9523,
      "TS14": 9524,
      "9JD": 9525,
      "2305": 9526,
      "6DW": 9527,
      "5RJ": 9528,
      "HAZELWOOD": 9529,
      "Center": 9530,
      "LIBERTY": 9531,
      "0BN": 9532,
      "658": 9533,
      "6HZ": 9534,
      "6HW": 9535,
      "848": 9536,
      "THILL": 9537,
      "INGLEY": 9538,
      "CARO": 9539,
      "PASS": 9540,
      "WILBURY": 9541,
      "8JU": 9542,
      "7JS": 9543,
      "FRON": 9544,
      "STANHOPE": 9545,
      "2QQ": 9546,
      "FY7": 9547,
      "7QN": 9548,
      "4RP": 9549,
      "SCHOLARS": 9550,
      "1906": 9551,
      "8RG": 9552,
      "0BQ": 9553,
      "5RP": 9554,
      "TOWNS": 9555,
      "5SL": 9556,
      "5HU": 9557,
      "5HG": 9558,
      "6EQ": 9559,
      "7PU": 9560,
      "8NS": 9561,
      "9LL": 9562,
      "9NU": 9563,
      "MICK": 9564,
      "1047": 9565,
      "3000": 9566,
      "2245": 9567,
      "GL54": 9568,
      "CT3": 9569,
      "PL5": 9570,
      "LUKE": 9571,
      "5JP": 9572,
      "3QH": 9573,
      "9LW": 9574,
      "7PJ": 9575,
      "4NX": 9576,
      "Jenks": 9577,
      "2SP": 9578,
      "3RY": 9579,
      "3QU": 9580,
      "4RY": 9581,
      "UT": 9582,
      "1537": 9583,
      "1837": 9584,
      "PRESERVE": 9585,
      "9RP": 9586,
      "BEAUFORT": 9587,
      "MANNING": 9588,
      "PASTURE": 9589,
      "0EF": 9590,
      "7LE": 9591,
      "842": 9592,
      "1038": 9593,
      "OLTON": 9594,
      "WOODBINE": 9595,
      "COVER": 9596,
      "BAKE": 9597,
      "DENMARK": 9598,
      "BUT": 9599,
      "9QY": 9600,
      "BELLWOOD": 9601,
      "CHINNOR": 9602,
      "4LU": 9603,
      "CRIEFF": 9604,
      "ADMIR": 9605,
      "1639": 9606,
      "1922": 9607,
      "1828": 9608,
      "FIRE": 9609,
      "367": 9610,
      "MART": 9611,
      "765": 9612,
      "DN10": 9613,
      "WF6": 9614,
      "HAYMARKET": 9615,
      "7BP": 9616,
      "2RW": 9617,
      "Stanford": 9618,
      "ADMIRAL": 9619,
      "1608": 9620,
      "1TB": 9621,
      "1TJ": 9622,
      "851": 9623,
      "8NT": 9624,
      "NE31": 9625,
      "1826": 9626,
      "CB21": 9627,
      "HX5": 9628,
      "8PY": 9629,
      "4DZ": 9630,
      "7LB": 9631,
      "0LX": 9632,
      "INDIANWOOD": 9633,
      "1UJ": 9634,
      "ROBINHOOD": 9635,
      "0BY": 9636,
      "4SU": 9637,
      "747": 9638,
      "8HU": 9639,
      "8LU": 9640,
      "9HS": 9641,
      "PSON": 9642,
      "RANT": 9643,
      "TCE": 9644,
      "NE13": 9645,
      "1126": 9646,
      "1446": 9647,
      "1755": 9648,
      "CECIL": 9649,
      "CROXTED": 9650,
      "SOME": 9651,
      "CW6": 9652,
      "MAINS": 9653,
      "5JU": 9654,
      "ALDINE": 9655,
      "0JH": 9656,
      "2RQ": 9657,
      "1PY": 9658,
      "3PF": 9659,
      "3NF": 9660,
      "YORKSHIRE": 9661,
      "SOLENT": 9662,
      "0EL": 9663,
      "0EP": 9664,
      "0HL": 9665,
      "1TA": 9666,
      "1SX": 9667,
      "3PU": 9668,
      "4HZ": 9669,
      "6LL": 9670,
      "6NS": 9671,
      "7AT": 9672,
      "7TB": 9673,
      "9SG": 9674,
      "SGATE": 9675,
      "1612": 9676,
      "1723": 9677,
      "1737": 9678,
      "LOMOND": 9679,
      "UPPR": 9680,
      "COTTLES": 9681,
      "6JN": 9682,
      "3QJ": 9683,
      "9QX": 9684,
      "0QA": 9685,
      "8LT": 9686,
      "1UG": 9687,
      "9NF": 9688,
      "SUMMIT": 9689,
      "186TH": 9690,
      "NOYES": 9691,
      "KENDAL": 9692,
      "1RU": 9693,
      "748": 9694,
      "844": 9695,
      "8PR": 9696,
      "1139": 9697,
      "1141": 9698,
      "1480": 9699,
      "1729": 9700,
      "DAW": 9701,
      "452": 9702,
      "WINSLEY": 9703,
      "1403": 9704,
      "BLACKTHORN": 9705,
      "6JF": 9706,
      "4PD": 9707,
      "6PD": 9708,
      "5NF": 9709,
      "4QU": 9710,
      "4SD": 9711,
      "760": 9712,
      "7EZ": 9713,
      "8PU": 9714,
      "Ry": 9715,
      "TOL": 9716,
      "UPR": 9717,
      "1043": 9718,
      "SELEY": 9719,
      "1313": 9720,
      "1928": 9721,
      "BA6": 9722,
      "WISE": 9723,
      "PL12": 9724,
      "CALDWELL": 9725,
      "NP11": 9726,
      "VIDENCE": 9727,
      "7JU": 9728,
      "STANSTED": 9729,
      "3RQ": 9730,
      "8LW": 9731,
      "shire": 9732,
      "PROVIDENCE": 9733,
      "SUTHERLAND": 9734,
      "2122": 9735,
      "3SD": 9736,
      "6PE": 9737,
      "6HQ": 9738,
      "856": 9739,
      "EV": 9740,
      "FEDER": 9741,
      "LEES": 9742,
      "INDE": 9743,
      "1144": 9744,
      "1929": 9745,
      "1936": 9746,
      "23A": 9747,
      "LINS": 9748,
      "371": 9749,
      "CUPAR": 9750,
      "8GB": 9751,
      "9TB": 9752,
      "PAV": 9753,
      "SCOMBE": 9754,
      "ADAY": 9755,
      "LEDON": 9756,
      "CHANT": 9757,
      "1741": 9758,
      "1931": 9759,
      "3020": 9760,
      "ARDEN": 9761,
      "SS13": 9762,
      "UB9": 9763,
      "FARADAY": 9764,
      "7JH": 9765,
      "1503": 9766,
      "1QF": 9767,
      "HORPE": 9768,
      "5LG": 9769,
      "7PY": 9770,
      "0QF": 9771,
      "9RB": 9772,
      "TLETON": 9773,
      "LITTLETON": 9774,
      "1UA": 9775,
      "165TH": 9776,
      "Wabas": 9777,
      "0EY": 9778,
      "5RH": 9779,
      "7LN": 9780,
      "lv": 9781,
      "1134": 9782,
      "1914": 9783,
      "2311": 9784,
      "CASS": 9785,
      "387": 9786,
      "PO18": 9787,
      "376": 9788,
      "CRU": 9789,
      "SL8": 9790,
      "STEV": 9791,
      "PLOUGH": 9792,
      "9QD": 9793,
      "GALA": 9794,
      "8RQ": 9795,
      "7RX": 9796,
      "LEWISHAM": 9797,
      "0BH": 9798,
      "2QU": 9799,
      "4HL": 9800,
      "6EN": 9801,
      "6BN": 9802,
      "6SD": 9803,
      "9NT": 9804,
      "ESTATE": 9805,
      "ELBURGH": 9806,
      "SHAR": 9807,
      "2323": 9808,
      "2214": 9809,
      "1209": 9810,
      "QUAKER": 9811,
      "VIENNA": 9812,
      "MORETON": 9813,
      "FAIRFAX": 9814,
      "9JZ": 9815,
      "7QE": 9816,
      "6DZ": 9817,
      "9PW": 9818,
      "MULFORD": 9819,
      "Winds": 9820,
      "JANSSEN": 9821,
      "MUSSELBURGH": 9822,
      "Windsor": 9823,
      "1EY": 9824,
      "2130": 9825,
      "8PP": 9826,
      "MEA": 9827,
      "TOLL": 9828,
      "1644": 9829,
      "1833": 9830,
      "1832": 9831,
      "2525": 9832,
      "2710": 9833,
      "2735": 9834,
      "368": 9835,
[...]
