{
  "version": "1.0",
  "truncation": null,
  "padding": {
    "strategy": {
      "Fixed": 25
    },
    "direction": "Right",
    "pad_to_multiple_of": null,
    "pad_id": 0,
    "pad_type_id": 0,
    "pad_token": "[PAD]"
  },
  "added_tokens": [
    {
      "id": 0,
      "content": "[CLS]",
      "single_word": false,
      "lstrip": false,
      "rstrip": false,
      "normalized": false,
      "special": true
    },
    {
      "id": 1,
      "content": "[SEP]",
      "single_word": false,
      "lstrip": false,
      "rstrip": false,
      "normalized": false,
      "special": true
    },
    {
      "id": 2,
      "content": "[MASK]",
      "single_word": false,
      "lstrip": false,
      "rstrip": false,
      "normalized": false,
      "special": true
    },
    {
      "id": 3,
      "content": "[PAD]",
      "single_word": false,
      "lstrip": false,
      "rstrip": false,
      "normalized": false,
      "special": true
    }
  ],
  "normalizer": null,
  "pre_tokenizer": {
    "type": "Whitespace"
  },
  "post_processor": {
    "type": "TemplateProcessing",
    "single": [
      {
        "SpecialToken": {
          "id": "[CLS]",
          "type_id": 0
        }
      },
      {
        "Sequence": {
          "id": "A",
          "type_id": 0
        }
      },
      {
        "SpecialToken": {
          "id": "[SEP]",
          "type_id": 0
        }
      }
    ],
    "pair": [
      {
        "SpecialToken": {
          "id": "[CLS]",
          "type_id": 0
        }
      },
      {
        "Sequence": {
          "id": "A",
          "type_id": 0
        }
      },
      {
        "SpecialToken": {
          "id": "[SEP]",
          "type_id": 0
        }
      },
      {
        "Sequence": {
          "id": "B",
          "type_id": 1
        }
      },
      {
        "SpecialToken": {
          "id": "[SEP]",
          "type_id": 1
        }
      }
    ],
    "special_tokens": {
      "[CLS]": {
        "id": "[CLS]",
        "ids": [
          0
        ],
        "tokens": [
          "[CLS]"
        ]
      },
      "[SEP]": {
        "id": "[SEP]",
        "ids": [
          1
        ],
        "tokens": [
          "[SEP]"
        ]
      }
    }
  },
  "decoder": null,
  "model": {
    "type": "BPE",
    "dropout": null,
    "unk_token": null,
    "continuing_subword_prefix": null,
    "end_of_word_suffix": null,
    "fuse_unk": false,
    "vocab": {
      "[UNK]": 0,
      "[CLS]": 1,
      "[SEP]": 2,
      "[PAD]": 3,
      "[MASK]": 4,
      "'": 5,
      "(": 6,
      ")": 7,
      ",": 8,
      "-": 9,
      ".": 10,
      "0": 11,
      "1": 12,
      "2": 13,
      "3": 14,
      "4": 15,
      "5": 16,
      "6": 17,
      "7": 18,
      "8": 19,
      "9": 20,
      "a": 21,
      "b": 22,
      "c": 23,
      "d": 24,
      "e": 25,
      "f": 26,
      "g": 27,
      "h": 28,
      "i": 29,
      "j": 30,
      "k": 31,
      "l": 32,
      "m": 33,
      "n": 34,
      "o": 35,
      "p": 36,
      "q": 37,
      "r": 38,
      "s": 39,
      "t": 40,
      "u": 41,
      "v": 42,
      "w": 43,
      "x": 44,
      "y": 45,
      "z": 46,
      "do": 47,
      "in": 48,
      "te": 49,
      "ing": 50,
      "un": 51,
      "king": 52,
      "ted": 53,
      "uni": 54,
      "dom": 55,
      "kingdom": 56,
      "united": 57,
      "on": 58,
      "ro": 59,
      "ad": 60,
      "st": 61,
      "le": 62,
      "road": 63,
      "re": 64,
      "ha": 65,
      "or": 66,
      "en": 67,
      "don": 68,
      "lon": 69,
      "london": 70,
      "an": 71,
      "er": 72,
      "ar": 73,
      "th": 74,
      "ton": 75,
      "se": 76,
      "ch": 77,
      "el": 78,
      "ur": 79,
      "ham": 80,
      "ri": 81,
      "es": 82,
      "et": 83,
      "stre": 84,
      "al": 85,
      "gh": 86,
      "ter": 87,
      "street": 88,
      "il": 89,
      "lo": 90,
      "ne": 91,
      "wa": 92,
      "ol": 93,
      "av": 94,
      "lan": 95,
      "10": 96,
      "for": 97,
      "ford": 98,
      "11": 99,
      "sw": 100,
      "ley": 101,
      "ra": 102,
      "od": 103,
      "co": 104,
      "ck": 105,
      "ed": 106,
      "12": 107,
      "15": 108,
      "la": 109,
      "bur": 110,
      "14": 111,
      "ou": 112,
      "ve": 113,
      "ue": 114,
      "aven": 115,
      "ge": 116,
      "hi": 117,
      "ester": 118,
      "ca": 119,
      "lane": 120,
      "de": 121,
      "fi": 122,
      "eld": 123,
      "16": 124,
      "bo": 125,
      "bri": 126,
      "13": 127,
      "he": 128,
      "field": 129,
      "ard": 130,
      "avenue": 131,
      "clo": 132,
      "ill": 133,
      "close": 134,
      "17": 135,
      "way": 136,
      "wo": 137,
      "ston": 138,
      "da": 139,
      "pe": 140,
      "nw": 141,
      "19": 142,
      "rd": 143,
      "18": 144,
      "ls": 145,
      "ugh": 146,
      "orth": 147,
      "gb": 148,
      "ort": 149,
      "sh": 150,
      "wi": 151,
      "wood": 152,
      "ab": 153,
      "pton": 154,
      "be": 155,
      "high": 156,
      "ent": 157,
      "dge": 158,
      "outh": 159,
      "we": 160,
      "me": 161,
      "at": 162,
      "dri": 163,
      "drive": 164,
      "ll": 165,
      "har": 166,
      "cester": 167,
      "ark": 168,
      "new": 169,
      "20": 170,
      "po": 171,
      "hampton": 172,
      "ba": 173,
      "23": 174,
      "der": 175,
      "ington": 176,
      "ce": 177,
      "ss": 178,
      "bridge": 179,
      "gu": 180,
      "tw": 181,
      "by": 182,
      "cr": 183,
      "22": 184,
      "eh": 185,
      "ver": 186,
      "ry": 187,
      "pr": 188,
      "cro": 189,
      "ke": 190,
      "hu": 191,
      "li": 192,
      "wy": 193,
      "lei": 194,
      "bury": 195,
      "hill": 196,
      "21": 197,
      "ga": 198,
      "rough": 199,
      "bn": 200,
      "ma": 201,
      "24": 202,
      "roa": 203,
      "port": 204,
      "nn": 205,
      "up": 206,
      "raod": 207,
      "ox": 208,
      "ell": 209,
      "dn": 210,
      "the": 211,
      "so": 212,
      "ty": 213,
      "kt": 214,
      "ir": 215,
      "cre": 216,
      "den": 217,
      "mo": 218,
      "25": 219,
      "cf": 220,
      "gre": 221,
      "old": 222,
      "ff": 223,
      "cv": 224,
      "ea": 225,
      "ly": 226,
      "chester": 227,
      "sto": 228,
      "sl": 229,
      "low": 230,
      "borough": 231,
      "park": 232,
      "br": 233,
      "land": 234,
      "hp": 235,
      "gate": 236,
      "sk": 237,
      "ts": 238,
      "eds": 239,
      "ens": 240,
      "leeds": 241,
      "ec": 242,
      "rm": 243,
      "west": 244,
      "rh": 245,
      "ws": 246,
      "26": 247,
      "row": 248,
      "bh": 249,
      "gard": 250,
      "north": 251,
      "burgh": 252,
      "wal": 253,
      "28": 254,
      "ho": 255,
      "ub": 256,
      "pla": 257,
      "south": 258,
      "ct": 259,
      "is": 260,
      "id": 261,
      "cm": 262,
      "dy": 263,
      "27": 264,
      "ln": 265,
      "bro": 266,
      "les": 267,
      "leicester": 268,
      "chur": 269,
      "pa": 270,
      "edin": 271,
      "church": 272,
      "nes": 273,
      "edinburgh": 274,
      "sc": 275,
      "tham": 276,
      "ion": 277,
      "ru": 278,
      "mb": 279,
      "mouth": 280,
      "mk": 281,
      "sg": 282,
      "30": 283,
      "bour": 284,
      "29": 285,
      "col": 286,
      "ilton": 287,
      "tford": 288,
      "wn": 289,
      "ren": 290,
      "well": 291,
      "tt": 292,
      "upon": 293,
      "gardens": 294,
      "gl": 295,
      "stock": 296,
      "ster": 297,
      "31": 298,
      "bourne": 299,
      "ban": 300,
      "lin": 301,
      "cha": 302,
      "mon": 303,
      "place": 304,
      "ation": 305,
      "gr": 306,
      "pl": 307,
      "cresc": 308,
      "crescent": 309,
      "card": 310,
      "stone": 311,
      "stle": 312,
      "sou": 313,
      "iff": 314,
      "green": 315,
      "34": 316,
      "ta": 317,
      "bu": 318,
      "gro": 319,
      "cardiff": 320,
      "end": 321,
      "cl": 322,
      "32": 323,
      "castle": 324,
      "sout": 325,
      "worth": 326,
      "3a": 327,
      "mar": 328,
      "war": 329,
      "ms": 330,
      "vi": 331,
      "man": 332,
      "ste": 333,
      "ay": 334,
      "33": 335,
      "1n": 336,
      "sp": 337,
      "harrow": 338,
      "cam": 339,
      "wd": 340,
      "qu": 341,
      "ydon": 342,
      "dale": 343,
      "win": 344,
      "tr": 345,
      "orn": 346,
      "37": 347,
      "east": 348,
      "enham": 349,
      "mer": 350,
      "milton": 351,
      "str": 352,
      "35": 353,
      "cb": 354,
      "hd": 355,
      "croydon": 356,
      "hall": 357,
      "sea": 358,
      "lough": 359,
      "head": 360,
      "2a": 361,
      "grove": 362,
      "wick": 363,
      "si": 364,
      "com": 365,
      "40": 366,
      "stree": 367,
      "key": 368,
      "2n": 369,
      "ath": 370,
      "36": 371,
      "all": 372,
      "chel": 373,
      "gbr": 374,
      "vent": 375,
      "cour": 376,
      "7a": 377,
      "keynes": 378,
      "wc": 379,
      "ds": 380,
      "southampton": 381,
      "station": 382,
      "du": 383,
      "dr": 384,
      "covent": 385,
      "1a": 386,
      "fa": 387,
      "coventry": 388,
      "court": 389,
      "ns": 390,
      "4a": 391,
      "43": 392,
      "41": 393,
      "38": 394,
      "nu": 395,
      "wf": 396,
      "aber": 397,
      "pre": 398,
      "nort": 399,
      "per": 400,
      "cambridge": 401,
      "ber": 402,
      "45": 403,
      "39": 404,
      "ep": 405,
      "1b": 406,
      "ash": 407,
      "1j": 408,
      "tyne": 409,
      "ray": 410,
      "northampton": 411,
      "42": 412,
      "np": 413,
      "newcastle": 414,
      "dg": 415,
      "it": 416,
      "sfield": 417,
      "44": 418,
      "ven": 419,
      "ew": 420,
      "sw1": 421,
      "brigh": 422,
      "bi": 423,
      "ul": 424,
      "cham": 425,
      "hol": 426,
      "hay": 427,
      "far": 428,
      "whi": 429,
      "am": 430,
      "9a": 431,
      "ille": 432,
      "leigh": 433,
      "caster": 434,
      "51": 435,
      "preston": 436,
      "nham": 437,
      "hl": 438,
      "sy": 439,
      "car": 440,
      "derby": 441,
      "46": 442,
      "and": 443,
      "2j": 444,
      "wv": 445,
      "50": 446,
      "glo": 447,
      "8a": 448,
      "ec1": 449,
      "6a": 450,
      "stockport": 451,
      "8j": 452,
      "bar": 453,
      "peter": 454,
      "cw": 455,
      "ci": 456,
      "47": 457,
      "7j": 458,
      "deen": 459,
      "slough": 460,
      "cr0": 461,
      "5a": 462,
      "brighton": 463,
      "bed": 464,
      "3j": 465,
      "48": 466,
      "ok": 467,
      "aberdeen": 468,
      "hn": 469,
      "rington": 470,
      "ph": 471,
      "heath": 472,
      "mill": 473,
      "bla": 474,
      "can": 475,
      "thames": 476,
      "4j": 477,
      "wol": 478,
      "se1": 479,
      "mark": 480,
      "1q": 481,
      "3b": 482,
      "hg": 483,
      "pp": 484,
      "52": 485,
      "combe": 486,
      "ia": 487,
      "doncaster": 488,
      "ml": 489,
      "con": 490,
      "water": 491,
      "2q": 492,
      "rs": 493,
      "sey": 494,
      "brom": 495,
      "5j": 496,
      "nor": 497,
      "49": 498,
      "wr": 499,
      "53": 500,
      "wolver": 501,
      "rr": 502,
      "9j": 503,
      "gan": 504,
      "ucester": 505,
      "gloucester": 506,
      "mel": 507,
      "tre": 508,
      "su": 509,
      "wolverhampton": 510,
      "ak": 511,
      "gle": 512,
      "sho": 513,
      "to": 514,
      "warrington": 515,
      "3l": 516,
      "fy": 517,
      "dd": 518,
      "more": 519,
      "rom": 520,
      "2h": 521,
      "side": 522,
      "oxford": 523,
      "bedford": 524,
      "66": 525,
      "son": 526,
      "2b": 527,
      "na": 528,
      "54": 529,
      "mond": 530,
      "ec1v": 531,
      "6j": 532,
      "market": 533,
      "ingham": 534,
      "wor": 535,
      "3q": 536,
      "pool": 537,
      "sa": 538,
      "9q": 539,
      "unt": 540,
      "7b": 541,
      "4p": 542,
      "cor": 543,
      "ine": 544,
      "black": 545,
      "hull": 546,
      "fer": 547,
      "stan": 548,
      "55": 549,
      "tq": 550,
      "lu": 551,
      "lands": 552,
      "mal": 553,
      "red": 554,
      "5b": 555,
      "pen": 556,
      "ft": 557,
      "4q": 558,
      "urst": 559,
      "sham": 560,
      "56": 561,
      "alder": 562,
      "alban": 563,
      "peterborough": 564,
      "dder": 565,
      "ware": 566,
      "wemb": 567,
      "hudder": 568,
      "huddersfield": 569,
      "hx": 570,
      "cls": 571,
      "wembley": 572,
      "no": 573,
      "uns": 574,
      "clse": 575,
      "hy": 576,
      "nw10": 577,
      "3d": 578,
      "broad": 579,
      "bel": 580,
      "bren": 581,
      "mid": 582,
      "5q": 583,
      "mp": 584,
      "dag": 585,
      "8q": 586,
      "bra": 587,
      "2e": 588,
      "ctor": 589,
      "ling": 590,
      "age": 591,
      "6q": 592,
      "brook": 593,
      "7q": 594,
      "2p": 595,
      "dagenham": 596,
      "cra": 597,
      "oak": 598,
      "watford": 599,
      "bath": 600,
      "ney": 601,
      "avn": 602,
      "1l": 603,
      "sall": 604,
      "hr": 605,
      "0j": 606,
      "bournemouth": 607,
      "burn": 608,
      "tf": 609,
      "wil": 610,
      "8p": 611,
      "ther": 612,
      "wich": 613,
      "ner": 614,
      "cla": 615,
      "go": 616,
      "6b": 617,
      "romford": 618,
      "shi": 619,
      "65": 620,
      "unslow": 621,
      "hounslow": 622,
      "4b": 623,
      "ale": 624,
      "0a": 625,
      "ole": 626,
      "walsall": 627,
      "great": 628,
      "albans": 629,
      "mber": 630,
      "her": 631,
      "terra": 632,
      "irk": 633,
      "main": 634,
      "stead": 635,
      "cross": 636,
      "ville": 637,
      "hurst": 638,
      "9l": 639,
      "ouse": 640,
      "min": 641,
      "colchester": 642,
      "msford": 643,
      "sw19": 644,
      "ild": 645,
      "2l": 646,
      "ux": 647,
      "reham": 648,
      "nd": 649,
      "60": 650,
      "mit": 651,
      "8b": 652,
      "64": 653,
      "chelmsford": 654,
      "2d": 655,
      "7p": 656,
      "dar": 657,
      "thor": 658,
      "croft": 659,
      "ards": 660,
      "fle": 661,
      "coln": 662,
      "hor": 663,
      "1p": 664,
      "lincoln": 665,
      "nr": 666,
      "67": 667,
      "ud": 668,
      "hayes": 669,
      "ey": 670,
      "62": 671,
      "57": 672,
      "tch": 673,
      "thorn": 674,
      "4l": 675,
      "5d": 676,
      "terrace": 677,
      "worcester": 678,
      "dun": 679,
      "newport": 680,
      "9p": 681,
      "view": 682,
      "city": 683,
      "wigan": 684,
      "iv": 685,
      "61": 686,
      "she": 687,
      "ny": 688,
      "7d": 689,
      "tenham": 690,
      "guild": 691,
      "cli": 692,
      "trin": 693,
      "rich": 694,
      "ky": 695,
      "wycombe": 696,
      "4d": 697,
      "ger": 698,
      "58": 699,
      "guildford": 700,
      "cheltenham": 701,
      "1d": 702,
      "wel": 703,
      "gn": 704,
      "3p": 705,
      "9b": 706,
      "midd": 707,
      "63": 708,
      "victor": 709,
      "que": 710,
      "fleet": 711,
      "6d": 712,
      "bromley": 713,
      "kings": 714,
      "jo": 715,
      "tree": 716,
      "down": 717,
      "edg": 718,
      "are": 719,
      "eb": 720,
      "fk": 721,
      "fo": 722,
      "richmond": 723,
      "59": 724,
      "8d": 725,
      "5l": 726,
      "sal": 727,
      "nw3": 728,
      "grd": 729,
      "7l": 730,
      "sw6": 731,
      "5p": 732,
      "sworth": 733,
      "nw6": 734,
      "mere": 735,
      "0q": 736,
      "victoria": 737,
      "bank": 738,
      "eg": 739,
      "nw2": 740,
      "squ": 741,
      "pon": 742,
      "6l": 743,
      "bre": 744,
      "2r": 745,
      "moor": 746,
      "9d": 747,
      "0l": 748,
      "sta": 749,
      "haw": 750,
      "wake": 751,
      "ave": 752,
      "poole": 753,
      "1r": 754,
      "ply": 755,
      "wirr": 756,
      "wirral": 757,
      "ingdon": 758,
      "ken": 759,
      "ade": 760,
      "ant": 761,
      "mitcham": 762,
      "6p": 763,
      "8l": 764,
      "cot": 765,
      "plymouth": 766,
      "oldham": 767,
      "72": 768,
      "edgware": 769,
      "wakefield": 770,
      "nw1": 771,
      "sw11": 772,
      "pri": 773,
      "hj": 774,
      "3r": 775,
      "square": 776,
      "ayles": 777,
      "gar": 778,
      "sq": 779,
      "pk": 780,
      "ee": 781,
      "kirk": 782,
      "long": 783,
      "pin": 784,
      "bn1": 785,
      "ex": 786,
      "tton": 787,
      "roch": 788,
      "sl1": 789,
      "0b": 790,
      "minster": 791,
      "wyn": 792,
      "kingston": 793,
      "par": 794,
      "eu": 795,
      "beck": 796,
      "sw16": 797,
      "steven": 798,
      "brough": 799,
      "che": 800,
      "3n": 801,
      "wley": 802,
      "hove": 803,
      "68": 804,
      "4r": 805,
      "cle": 806,
      "ttle": 807,
      "mead": 808,
      "walk": 809,
      "maid": 810,
      "stevenage": 811,
      "mi": 812,
      "ha8": 813,
      "sil": 814,
      "mont": 815,
      "prk": 816,
      "ef": 817,
      "maidstone": 818,
      "0d": 819,
      "sse": 820,
      "mor": 821,
      "altrin": 822,
      "altrincham": 823,
      "welling": 824,
      "dow": 825,
      "ha3": 826,
      "hb": 827,
      "70": 828,
      "rose": 829,
      "bn3": 830,
      "4n": 831,
      "dley": 832,
      "ha1": 833,
      "bea": 834,
      "john": 835,
      "sw17": 836,
      "69": 837,
      "bridg": 838,
      "ej": 839,
      "isle": 840,
      "hh": 841,
      "lford": 842,
      "8r": 843,
      "aylesbury": 844,
      "house": 845,
      "71": 846,
      "mai": 847,
      "calder": 848,
      "ie": 849,
      "twood": 850,
      "sid": 851,
      "1x": 852,
      "77": 853,
      "83": 854,
      "ckley": 855,
      "harro": 856,
      "cf11": 857,
      "td": 858,
      "0p": 859,
      "gby": 860,
      "fel": 861,
      "harrogate": 862,
      "wsbury": 863,
      "garden": 864,
      "blackpool": 865,
      "twick": 866,
      "sw7": 867,
      "ald": 868,
      "sand": 869,
      "san": 870,
      "lea": 871,
      "fal": 872,
      "ports": 873,
      "5n": 874,
      "ha2": 875,
      "ht": 876,
      "maiden": 877,
      "uxbridge": 878,
      "ess": 879,
      "telford": 880,
      "woking": 881,
      "twickenham": 882,
      "som": 883,
      "portsmouth": 884,
      "rugby": 885,
      "hq": 886,
      "sb": 887,
      "75": 888,
      "hs": 889,
      "se18": 890,
      "8n": 891,
      "rise": 892,
      "9n": 893,
      "etter": 894,
      "73": 895,
      "winchester": 896,
      "ings": 897,
      "mea": 898,
      "gri": 899,
      "epsom": 900,
      "7r": 901,
      "hf": 902,
      "sw15": 903,
      "maidenhead": 904,
      "gray": 905,
      "pel": 906,
      "horn": 907,
      "hemp": 908,
      "chi": 909,
      "0r": 910,
      "por": 911,
      "eq": 912,
      "se15": 913,
      "5r": 914,
      "bert": 915,
      "rochdale": 916,
      "stour": 917,
      "white": 918,
      "gran": 919,
      "winds": 920,
      "hempstead": 921,
      "whit": 922,
      "sw18": 923,
      "cote": 924,
      "windsor": 925,
      "74": 926,
      "thorpe": 927,
      "reg": 928,
      "pinner": 929,
      "cir": 930,
      "80": 931,
      "fri": 932,
      "burton": 933,
      "chor": 934,
      "spr": 935,
      "dartford": 936,
      "hart": 937,
      "lower": 938,
      "sl6": 939,
      "wc1n": 940,
      "9r": 941,
      "tu": 942,
      "stockton": 943,
      "ness": 944,
      "hemel": 945,
      "southport": 946,
      "tees": 947,
      "cr4": 948,
      "illingham": 949,
      "lesfield": 950,
      "avon": 951,
      "bee": 952,
      "southall": 953,
      "enden": 954,
      "middles": 955,
      "dudley": 956,
      "manor": 957,
      "middlesbrough": 958,
      "mac": 959,
      "loo": 960,
      "bay": 961,
      "crawley": 962,
      "mount": 963,
      "xley": 964,
      "79": 965,
      "hele": 966,
      "3af": 967,
      "le2": 968,
      "loughborough": 969,
      "ha0": 970,
      "dor": 971,
      "ick": 972,
      "7aw": 973,
      "ins": 974,
      "7n": 975,
      "ith": 976,
      "chfield": 977,
      "dve": 978,
      "sur": 979,
      "avnue": 980,
      "hunt": 981,
      "sd": 982,
      "2nx": 983,
      "nw9": 984,
      "6r": 985,
      "78": 986,
      "chard": 987,
      "cliff": 988,
      "cul": 989,
      "feltham": 990,
      "grav": 991,
      "helens": 992,
      "yn": 993,
      "elm": 994,
      "pur": 995,
      "avnu": 996,
      "gra": 997,
      "greenford": 998,
      "ub3": 999,
      "6n": 1000,
      "avenu": 1001,
      "hz": 1002,
      "2f": 1003,
      "fre": 1004,
      "sg1": 1005,
      "dv": 1006,
      "rochester": 1007,
      "le4": 1008,
      "shield": 1009,
      "brentford": 1010,
      "cent": 1011,
      "orp": 1012,
      "gerr": 1013,
      "und": 1014,
      "76": 1015,
      "ug": 1016,
      "hw": 1017,
      "lang": 1018,
      "drv": 1019,
      "char": 1020,
      "ut": 1021,
      "mberley": 1022,
      "81": 1023,
      "warwick": 1024,
      "clesfield": 1025,
      "gerrards": 1026,
      "tren": 1027,
      "bisho": 1028,
      "fax": 1029,
      "macclesfield": 1030,
      "brad": 1031,
      "shields": 1032,
      "dover": 1033,
      "stra": 1034,
      "adle": 1035,
      "fair": 1036,
      "tb": 1037,
      "worthing": 1038,
      "orpington": 1039,
      "isbury": 1040,
      "queen": 1041,
      "spa": 1042,
      "tl": 1043,
      "ketter": 1044,
      "kettering": 1045,
      "farm": 1046,
      "fields": 1047,
      "corn": 1048,
      "cup": 1049,
      "rick": 1050,
      "wellington": 1051,
      "thornton": 1052,
      "0n": 1053,
      "vern": 1054,
      "ssenden": 1055,
      "prin": 1056,
      "salisbury": 1057,
      "roy": 1058,
      "gg": 1059,
      "bexley": 1060,
      "grims": 1061,
      "sw1e": 1062,
      "orne": 1063,
      "wst": 1064,
      "hali": 1065,
      "ha9": 1066,
      "ers": 1067,
      "tw8": 1068,
      "90": 1069,
      "82": 1070,
      "eaton": 1071,
      "hin": 1072,
      "5rs": 1073,
      "leam": 1074,
      "bishop": 1075,
      "quay": 1076,
      "haven": 1077,
      "lip": 1078,
      "sn": 1079,
      "graves": 1080,
      "trent": 1081,
      "lis": 1082,
      "meadow": 1083,
      "gravesend": 1084,
      "sl9": 1085,
      "spring": 1086,
      "corpor": 1087,
      "corporation": 1088,
      "halifax": 1089,
      "ez": 1090,
      "bat": 1091,
      "grays": 1092,
      "biton": 1093,
      "leamington": 1094,
      "xham": 1095,
      "sr": 1096,
      "cking": 1097,
      "surbiton": 1098,
      "ch1": 1099,
      "tor": 1100,
      "88": 1101,
      "chorley": 1102,
      "fr": 1103,
      "glen": 1104,
      "kes": 1105,
      "hitch": 1106,
      "ide": 1107,
      "ybridge": 1108,
      "wellingborough": 1109,
      "huntingdon": 1110,
      "beckenham": 1111,
      "hitchin": 1112,
      "sj": 1113,
      "vil": 1114,
      "grimsby": 1115,
      "lton": 1116,
      "walton": 1117,
      "isleworth": 1118,
      "vale": 1119,
      "fin": 1120,
      "inver": 1121,
      "cher": 1122,
      "tw3": 1123,
      "beech": 1124,
      "ub6": 1125,
      "as": 1126,
      "wes": 1127,
      "ni": 1128,
      "bal": 1129,
      "sw2": 1130,
      "ather": 1131,
      "sun": 1132,
      "bir": 1133,
      "brentwood": 1134,
      "camberley": 1135,
      "ridge": 1136,
      "fareham": 1137,
      "ckingham": 1138,
      "ti": 1139,
      "tj": 1140,
      "chri": 1141,
      "farnham": 1142,
      "malden": 1143,
      "89": 1144,
      "welwyn": 1145,
      "sf": 1146,
      "ot": 1147,
      "ock": 1148,
      "stanmore": 1149,
      "nun": 1150,
      "le3": 1151,
      "85": 1152,
      "ha5": 1153,
      "waterloo": 1154,
      "tw7": 1155,
      "lichfield": 1156,
      "gates": 1157,
      "fra": 1158,
      "dington": 1159,
      "ua": 1160,
      "geor": 1161,
      "nw11": 1162,
      "kent": 1163,
      "84": 1164,
      "eastbourne": 1165,
      "9x": 1166,
      "cran": 1167,
      "tn": 1168,
      "circul": 1169,
      "circular": 1170,
      "86": 1171,
      "nock": 1172,
      "br1": 1173,
      "ward": 1174,
      "87": 1175,
      "abbo": 1176,
      "cres": 1177,
      "southend": 1178,
      "christ": 1179,
      "little": 1180,
      "dns": 1181,
      "eh6": 1182,
      "om": 1183,
      "orchard": 1184,
      "sw4": 1185,
      "bressenden": 1186,
      "res": 1187,
      "sch": 1188,
      "le5": 1189,
      "nuneaton": 1190,
      "brompton": 1191,
      "newton": 1192,
      "chatham": 1193,
      "ely": 1194,
      "esham": 1195,
      "pr1": 1196,
      "tg": 1197,
      "wer": 1198,
      "chapel": 1199,
      "gillingham": 1200,
      "sw1v": 1201,
      "91": 1202,
      "stourbridge": 1203,
      "dn4": 1204,
      "br3": 1205,
      "se13": 1206,
      "se6": 1207,
      "town": 1208,
      "buckingham": 1209,
      "canter": 1210,
      "ha7": 1211,
      "horsham": 1212,
      "canterbury": 1213,
      "ye": 1214,
      "dray": 1215,
      "tp": 1216,
      "cr2": 1217,
      "ben": 1218,
      "100": 1219,
      "grange": 1220,
      "george": 1221,
      "sk8": 1222,
      "grdns": 1223,
      "eastleigh": 1224,
      "bn2": 1225,
      "upper": 1226,
      "gdns": 1227,
      "grds": 1228,
      "god": 1229,
      "gateshead": 1230,
      "islip": 1231,
      "tting": 1232,
      "banbury": 1233,
      "sha": 1234,
      "cv6": 1235,
      "cott": 1236,
      "christchurch": 1237,
      "basil": 1238,
      "kt3": 1239,
      "hat": 1240,
      "pal": 1241,
      "se17": 1242,
      "hey": 1243,
      "99": 1244,
      "fore": 1245,
      "boreham": 1246,
      "sx": 1247,
      "kid": 1248,
      "cf14": 1249,
      "se22": 1250,
      "ace": 1251,
      "holy": 1252,
      "olt": 1253,
      "gu1": 1254,
      "borehamwood": 1255,
      "cf10": 1256,
      "melton": 1257,
      "ruislip": 1258,
      "verley": 1259,
      "fton": 1260,
      "da1": 1261,
      "93": 1262,
      "us": 1263,
      "se9": 1264,
      "gor": 1265,
      "sw9": 1266,
      "4pw": 1267,
      "crewe": 1268,
      "shre": 1269,
      "basildon": 1270,
      "8el": 1271,
      "cheadle": 1272,
      "ponty": 1273,
      "hornchurch": 1274,
      "95": 1275,
      "sidcup": 1276,
      "tz": 1277,
      "se5": 1278,
      "sk9": 1279,
      "chichester": 1280,
      "cannock": 1281,
      "shrewsbury": 1282,
      "farn": 1283,
      "6x": 1284,
      "fol": 1285,
      "bon": 1286,
      "wis": 1287,
      "ines": 1288,
      "bradford": 1289,
      "tter": 1290,
      "hamilton": 1291,
      "harlow": 1292,
      "colle": 1293,
      "unton": 1294,
      "friar": 1295,
      "se24": 1296,
      "92": 1297,
      "northwich": 1298,
      "fford": 1299,
      "au": 1300,
      "ls1": 1301,
      "swan": 1302,
      "chal": 1303,
      "ork": 1304,
      "wd6": 1305,
      "uh": 1306,
      "mow": 1307,
      "sl3": 1308,
      "crt": 1309,
      "drayton": 1310,
      "hen": 1311,
      "94": 1312,
      "fern": 1313,
      "college": 1314,
      "cm1": 1315,
      "sw12": 1316,
      "rm9": 1317,
      "scho": 1318,
      "try": 1319,
      "cr7": 1320,
      "rush": 1321,
      "sitting": 1322,
      "sittingbourne": 1323,
      "fir": 1324,
      "line": 1325,
      "se28": 1326,
      "br2": 1327,
      "queens": 1328,
      "val": 1329,
      "stort": 1330,
      "lock": 1331,
      "rh10": 1332,
      "sher": 1333,
      "broadway": 1334,
      "ig": 1335,
      "ha4": 1336,
      "holm": 1337,
      "stortford": 1338,
      "finch": 1339,
      "nn4": 1340,
      "bridgend": 1341,
      "wa14": 1342,
      "may": 1343,
      "wre": 1344,
      "se16": 1345,
      "cal": 1346,
      "northolt": 1347,
      "cm2": 1348,
      "97": 1349,
      "fe": 1350,
      "lor": 1351,
      "purley": 1352,
      "ev": 1353,
      "fd": 1354,
      "ze": 1355,
      "eh3": 1356,
      "2x": 1357,
      "intree": 1358,
      "school": 1359,
      "98": 1360,
      "nw4": 1361,
      "hatfield": 1362,
      "sw8": 1363,
      "8x": 1364,
      "under": 1365,
      "farnborough": 1366,
      "ferri": 1367,
      "96": 1368,
      "beacon": 1369,
      "2hq": 1370,
      "3x": 1371,
      "lyn": 1372,
      "rm10": 1373,
      "7x": 1374,
      "mborne": 1375,
      "sl4": 1376,
      "101": 1377,
      "rm8": 1378,
      "fro": 1379,
      "northwood": 1380,
      "4x": 1381,
      "wrexham": 1382,
      "york": 1383,
      "tx": 1384,
      "wind": 1385,
      "xton": 1386,
      "nn3": 1387,
      "redhill": 1388,
      "willow": 1389,
      "staines": 1390,
      "len": 1391,
      "barn": 1392,
      "ab15": 1393,
      "shot": 1394,
      "berry": 1395,
      "wl": 1396,
      "ec3": 1397,
      "dur": 1398,
      "corby": 1399,
      "rickman": 1400,
      "erley": 1401,
      "ght": 1402,
      "middle": 1403,
      "wit": 1404,
      "lime": 1405,
      "lym": 1406,
      "ser": 1407,
      "add": 1408,
      "sz": 1409,
      "russe": 1410,
      "mslow": 1411,
      "wilmslow": 1412,
      "al1": 1413,
      "cv3": 1414,
      "105": 1415,
      "braintree": 1416,
      "rickmansworth": 1417,
      "marsh": 1418,
      "ec2a": 1419,
      "bell": 1420,
      "unthorpe": 1421,
      "ferriby": 1422,
      "sw20": 1423,
      "cr8": 1424,
      "princ": 1425,
      "taunton": 1426,
      "ring": 1427,
      "pr2": 1428,
      "cb1": 1429,
      "teddington": 1430,
      "wards": 1431,
      "scunthorpe": 1432,
      "md": 1433,
      "ron": 1434,
      "stir": 1435,
      "birch": 1436,
      "sley": 1437,
      "tw1": 1438,
      "kley": 1439,
      "uj": 1440,
      "wa15": 1441,
      "2y": 1442,
      "mews": 1443,
      "lee": 1444,
      "wa5": 1445,
      "rence": 1446,
      "stirling": 1447,
      "110": 1448,
      "ood": 1449,
      "river": 1450,
      "swood": 1451,
      "crs": 1452,
      "hinckley": 1453,
      "9dn": 1454,
      "mu": 1455,
      "rie": 1456,
      "di": 1457,
      "ba1": 1458,
      "tw9": 1459,
      "ple": 1460,
      "ne1": 1461,
      "103": 1462,
      "tte": 1463,
      "102": 1464,
      "lynn": 1465,
      "falkirk": 1466,
      "mline": 1467,
      "fermline": 1468,
      "dunfermline": 1469,
      "crecent": 1470,
      "dock": 1471,
      "erith": 1472,
      "russell": 1473,
      "ba2": 1474,
      "ls17": 1475,
      "tead": 1476,
      "5x": 1477,
      "gy": 1478,
      "finchley": 1479,
      "0x": 1480,
      "tw13": 1481,
      "kt12": 1482,
      "ler": 1483,
      "3aa": 1484,
      "9aa": 1485,
      "leather": 1486,
      "lisle": 1487,
      "pr8": 1488,
      "se19": 1489,
      "pi": 1490,
      "ow": 1491,
      "ming": 1492,
      "5nu": 1493,
      "northgate": 1494,
      "gu21": 1495,
      "arth": 1496,
      "7jp": 1497,
      "caer": 1498,
      "ub4": 1499,
      "sandy": 1500,
      "lington": 1501,
      "parade": 1502,
      "hartle": 1503,
      "gu14": 1504,
      "app": 1505,
      "107": 1506,
      "hartlepool": 1507,
      "kin": 1508,
      "sted": 1509,
      "ls8": 1510,
      "edge": 1511,
      "ett": 1512,
      "sl2": 1513,
      "104": 1514,
      "bran": 1515,
      "ris": 1516,
      "ilworth": 1517,
      "albert": 1518,
      "rh1": 1519,
      "rei": 1520,
      "wimborne": 1521,
      "plc": 1522,
      "mary": 1523,
      "carlisle": 1524,
      "waterlooville": 1525,
      "amer": 1526,
      "tw4": 1527,
      "prior": 1528,
      "bille": 1529,
      "tw11": 1530,
      "va": 1531,
      "stratford": 1532,
      "kt6": 1533,
      "plac": 1534,
      "leatherhead": 1535,
      "106": 1536,
      "gd": 1537,
      "isley": 1538,
      "111": 1539,
      "wc1b": 1540,
      "109": 1541,
      "penden": 1542,
      "wd3": 1543,
      "alding": 1544,
      "shey": 1545,
      "las": 1546,
      "bexleyheath": 1547,
      "ate": 1548,
      "cton": 1549,
      "nn1": 1550,
      "tho": 1551,
      "3bq": 1552,
      "beverley": 1553,
      "se23": 1554,
      "cay": 1555,
      "spalding": 1556,
      "cm23": 1557,
      "nn8": 1558,
      "stro": 1559,
      "ub1": 1560,
      "sdale": 1561,
      "ha6": 1562,
      "vw": 1563,
      "dal": 1564,
      "andover": 1565,
      "se3": 1566,
      "2el": 1567,
      "le12": 1568,
      "cf5": 1569,
      "brierley": 1570,
      "nut": 1571,
      "dewsbury": 1572,
      "br6": 1573,
      "harpenden": 1574,
      "ox2": 1575,
      "island": 1576,
      "kenilworth": 1577,
      "112": 1578,
      "fox": 1579,
      "mmer": 1580,
      "le10": 1581,
      "ilkley": 1582,
      "kidder": 1583,
      "dean": 1584,
      "pr4": 1585,
      "gos": 1586,
      "mall": 1587,
      "120": 1588,
      "1bd": 1589,
      "inverness": 1590,
      "ricay": 1591,
      "billericay": 1592,
      "tine": 1593,
      "gf": 1594,
      "gi": 1595,
      "1y": 1596,
      "amersham": 1597,
      "108": 1598,
      "kt2": 1599,
      "ters": 1600,
      "malvern": 1601,
      "paisley": 1602,
      "wa4": 1603,
      "uu": 1604,
      "kidderminster": 1605,
      "linton": 1606,
      "bray": 1607,
      "dene": 1608,
      "uf": 1609,
      "sk4": 1610,
      "haywards": 1611,
      "bushey": 1612,
      "tw2": 1613,
      "4y": 1614,
      "rm6": 1615,
      "ub5": 1616,
      "will": 1617,
      "im": 1618,
      "wc2e": 1619,
      "langley": 1620,
      "beaconsfield": 1621,
      "4ln": 1622,
      "alex": 1623,
      "cu": 1624,
      "hertford": 1625,
      "3dq": 1626,
      "so15": 1627,
      "se25": 1628,
      "cou": 1629,
      "3bz": 1630,
      "reigate": 1631,
      "eh4": 1632,
      "9ha": 1633,
      "cv2": 1634,
      "lsdon": 1635,
      "ss9": 1636,
      "lytham": 1637,
      "cop": 1638,
      "pe1": 1639,
      "kil": 1640,
      "torquay": 1641,
      "1nq": 1642,
      "1bz": 1643,
      "daven": 1644,
      "rm16": 1645,
      "119": 1646,
      "sk7": 1647,
      "dy5": 1648,
      "abbot": 1649,
      "weybridge": 1650,
      "ful": 1651,
      "whittle": 1652,
      "7ha": 1653,
      "ls29": 1654,
      "here": 1655,
      "abingdon": 1656,
      "2fp": 1657,
      "uw": 1658,
      "113": 1659,
      "116": 1660,
      "hyde": 1661,
      "witney": 1662,
      "wash": 1663,
      "nant": 1664,
      "burg": 1665,
      "heywood": 1666,
      "ign": 1667,
      "hg1": 1668,
      "wa3": 1669,
      "cob": 1670,
      "eh12": 1671,
      "alming": 1672,
      "godalming": 1673,
      "al5": 1674,
      "114": 1675,
      "regent": 1676,
      "nw7": 1677,
      "sk11": 1678,
      "grn": 1679,
      "gu15": 1680,
      "tw12": 1681,
      "cv32": 1682,
      "southsea": 1683,
      "lesey": 1684,
      "fb": 1685,
      "ub8": 1686,
      "shaw": 1687,
      "cf24": 1688,
      "cv5": 1689,
      "marlow": 1690,
      "phill": 1691,
      "se4": 1692,
      "nw5": 1693,
      "bog": 1694,
      "ashton": 1695,
      "hp13": 1696,
      "117": 1697,
      "leys": 1698,
      "sw3": 1699,
      "ker": 1700,
      "adlin": 1701,
      "pr7": 1702,
      "ub2": 1703,
      "so31": 1704,
      "summer": 1705,
      "brun": 1706,
      "ub7": 1707,
      "swadlin": 1708,
      "nw8": 1709,
      "swadlincote": 1710,
      "uq": 1711,
      "hu17": 1712,
      "8ah": 1713,
      "115": 1714,
      "se14": 1715,
      "priory": 1716,
      "lestone": 1717,
      "bh23": 1718,
      "ashford": 1719,
      "yr": 1720,
      "ox4": 1721,
      "ascot": 1722,
      "tsford": 1723,
      "sk10": 1724,
      "da8": 1725,
      "118": 1726,
      "annes": 1727,
      "cv8": 1728,
      "cliffe": 1729,
      "stow": 1730,
      "dro": 1731,
      "hereford": 1732,
      "walla": 1733,
      "ne3": 1734,
      "eh54": 1735,
      "7pn": 1736,
      "whitley": 1737,
      "pr9": 1738,
      "8jy": 1739,
      "da12": 1740,
      "kestone": 1741,
      "lodge": 1742,
      "4ap": 1743,
      "clifton": 1744,
      "stroud": 1745,
      "andra": 1746,
      "woodlands": 1747,
      "folkestone": 1748,
      "wester": 1749,
      "fl": 1750,
      "se10": 1751,
      "royston": 1752,
      "cb4": 1753,
      "princes": 1754,
      "ponte": 1755,
      "sk6": 1756,
      "kham": 1757,
      "chan": 1758,
      "bognor": 1759,
      "cer": 1760,
      "ol10": 1761,
      "kt13": 1762,
      "run": 1763,
      "palace": 1764,
      "caerphill": 1765,
      "caerphilly": 1766,
      "ross": 1767,
      "regis": 1768,
      "ird": 1769,
      "aver": 1770,
      "125": 1771,
      "le11": 1772,
      "sw1y": 1773,
      "alexandra": 1774,
      "wilton": 1775,
      "ec1n": 1776,
      "tur": 1777,
      "coulsdon": 1778,
      "birk": 1779,
      "hp2": 1780,
      "ks": 1781,
      "cv37": 1782,
      "rad": 1783,
      "rood": 1784,
      "wa10": 1785,
      "sidings": 1786,
      "rain": 1787,
      "ls28": 1788,
      "se26": 1789,
      "le1": 1790,
      "of": 1791,
      "ec3m": 1792,
      "wd23": 1793,
      "121": 1794,
      "ten": 1795,
      "harborough": 1796,
      "5aa": 1797,
      "daventry": 1798,
      "cow": 1799,
      "gl52": 1800,
      "beau": 1801,
      "gosport": 1802,
      "kt19": 1803,
      "124": 1804,
      "knu": 1805,
      "rh12": 1806,
      "se8": 1807,
      "knutsford": 1808,
      "ran": 1809,
      "fract": 1810,
      "pontefract": 1811,
      "avi": 1812,
      "ys": 1813,
      "holyrood": 1814,
      "mnr": 1815,
      "me5": 1816,
      "al3": 1817,
      "chalk": 1818,
      "123": 1819,
      "dbury": 1820,
      "mk40": 1821,
      "molesey": 1822,
      "ity": 1823,
      "tw5": 1824,
      "130": 1825,
      "gu9": 1826,
      "ots": 1827,
      "crom": 1828,
      "hope": 1829,
      "ln6": 1830,
      "elles": 1831,
      "dorking": 1832,
      "kt1": 1833,
      "broom": 1834,
      "grin": 1835,
      "al7": 1836,
      "bn11": 1837,
      "highfield": 1838,
      "sg5": 1839,
      "bou": 1840,
      "ian": 1841,
      "op": 1842,
      "tan": 1843,
      "hd1": 1844,
      "nel": 1845,
      "122": 1846,
      "chesham": 1847,
      "vel": 1848,
      "de14": 1849,
      "mowbray": 1850,
      "co4": 1851,
      "wall": 1852,
      "sg12": 1853,
      "bh21": 1854,
      "aldershot": 1855,
      "ning": 1856,
      "kt4": 1857,
      "esher": 1858,
      "bey": 1859,
      "dy8": 1860,
      "wd24": 1861,
      "126": 1862,
      "able": 1863,
      "cr3": 1864,
      "wf2": 1865,
      "tes": 1866,
      "lyne": 1867,
      "br5": 1868,
      "berkham": 1869,
      "gl7": 1870,
      "cv34": 1871,
      "de23": 1872,
      "da16": 1873,
      "forest": 1874,
      "grinstead": 1875,
      "ws1": 1876,
      "cb24": 1877,
      "ved": 1878,
      "cv1": 1879,
      "norwood": 1880,
      "128": 1881,
      "rencester": 1882,
      "cirencester": 1883,
      "pe2": 1884,
      "ss0": 1885,
      "berkhamsted": 1886,
      "rh2": 1887,
      "bicester": 1888,
      "so16": 1889,
      "kt17": 1890,
      "se11": 1891,
      "127": 1892,
      "3ss": 1893,
      "ab10": 1894,
      "stal": 1895,
      "se12": 1896,
      "wickham": 1897,
      "shire": 1898,
      "ellesmere": 1899,
      "stam": 1900,
      "buck": 1901,
      "lam": 1902,
      "cv11": 1903,
      "widn": 1904,
      "widnes": 1905,
      "perth": 1906,
      "eh10": 1907,
      "perton": 1908,
      "sth": 1909,
      "me15": 1910,
      "common": 1911,
      "silver": 1912,
      "sw10": 1913,
      "cv22": 1914,
      "uy": 1915,
      "gleton": 1916,
      "cur": 1917,
      "152": 1918,
      "boston": 1919,
      "brigan": 1920,
      "ames": 1921,
      "batley": 1922,
      "burgess": 1923,
      "brigantine": 1924,
      "hatton": 1925,
      "me2": 1926,
      "haz": 1927,
      "westcliff": 1928,
      "hd8": 1929,
      "ec2": 1930,
      "ear": 1931,
      "gold": 1932,
      "vicar": 1933,
      "mat": 1934,
      "fy8": 1935,
      "bry": 1936,
      "eside": 1937,
      "le9": 1938,
      "fn": 1939,
      "stamford": 1940,
      "hg2": 1941,
      "rainham": 1942,
      "ctory": 1943,
      "pridd": 1944,
      "pontypridd": 1945,
      "ringwood": 1946,
      "mother": 1947,
      "mir": 1948,
      "le7": 1949,
      "9y": 1950,
      "yeo": 1951,
      "motherwell": 1952,
      "np20": 1953,
      "abbey": 1954,
      "cy": 1955,
      "wc1": 1956,
      "7ax": 1957,
      "trow": 1958,
      "8da": 1959,
      "eh1": 1960,
      "cm7": 1961,
      "fy1": 1962,
      "al10": 1963,
      "da7": 1964,
      "sg4": 1965,
      "tage": 1966,
      "gin": 1967,
      "windmill": 1968,
      "sw5": 1969,
      "wells": 1970,
      "congleton": 1971,
      "mas": 1972,
      "benfleet": 1973,
      "ol11": 1974,
      "ced": 1975,
      "cr5": 1976,
      "gl51": 1977,
      "129": 1978,
      "camp": 1979,
      "grv": 1980,
      "sw1w": 1981,
      "ml3": 1982,
      "fran": 1983,
      "lewes": 1984,
      "nantwich": 1985,
      "nn11": 1986,
      "ec2n": 1987,
      "sg8": 1988,
      "valley": 1989,
      "kel": 1990,
      "elmer": 1991,
      "neots": 1992,
      "frm": 1993,
      "tru": 1994,
      "elia": 1995,
      "newmarket": 1996,
      "clare": 1997,
      "so53": 1998,
      "gu22": 1999,
      "rayleigh": 2000,
      "le67": 2001,
      "cater": 2002,
      "washington": 2003,
      "chase": 2004,
      "hp9": 2005,
      "bad": 2006,
      "hp4": 2007,
      "evesham": 2008,
      "131": 2009,
      "fold": 2010,
      "cv21": 2011,
      "cm3": 2012,
      "grve": 2013,
      "gl2": 2014,
      "ne4": 2015,
      "rams": 2016,
      "maldon": 2017,
      "freton": 2018,
      "gs": 2019,
      "law": 2020,
      "cf64": 2021,
      "barry": 2022,
      "cedar": 2023,
      "lymington": 2024,
      "le16": 2025,
      "133": 2026,
      "fh": 2027,
      "caterham": 2028,
      "5bd": 2029,
      "sel": 2030,
      "ere": 2031,
      "wa8": 2032,
      "kt10": 2033,
      "holly": 2034,
      "tin": 2035,
      "sw14": 2036,
      "sl5": 2037,
      "cf83": 2038,
      "keston": 2039,
      "craig": 2040,
      "redcar": 2041,
      "pad": 2042,
      "so50": 2043,
      "rushden": 2044,
      "fen": 2045,
      "yl": 2046,
      "clay": 2047,
      "tterworth": 2048,
      "4az": 2049,
      "tain": 2050,
      "ls16": 2051,
      "cb23": 2052,
      "commer": 2053,
      "140": 2054,
      "penarth": 2055,
      "gl50": 2056,
      "gains": 2057,
      "norton": 2058,
      "alfreton": 2059,
      "leyland": 2060,
      "pe19": 2061,
      "lutterworth": 2062,
      "fg": 2063,
      "kingsway": 2064,
      "6aa": 2065,
      "ons": 2066,
      "chess": 2067,
      "han": 2068,
      "gros": 2069,
      "132": 2070,
      "da15": 2071,
      "rh16": 2072,
      "wd18": 2073,
      "therby": 2074,
      "eh7": 2075,
      "vicarage": 2076,
      "fur": 2077,
      "warren": 2078,
      "trinity": 2079,
      "tw14": 2080,
      "sp10": 2081,
      "se27": 2082,
      "6dh": 2083,
      "tw10": 2084,
      "moss": 2085,
      "9au": 2086,
      "se2": 2087,
      "arm": 2088,
      "forth": 2089,
      "nn5": 2090,
      "wv6": 2091,
      "prince": 2092,
      "james": 2093,
      "wallasey": 2094,
      "pr5": 2095,
      "bh14": 2096,
      "7bd": 2097,
      "brow": 2098,
      "cobham": 2099,
      "de21": 2100,
      "da11": 2101,
      "ls7": 2102,
      "thorne": 2103,
      "136": 2104,
      "134": 2105,
      "me7": 2106,
      "rm11": 2107,
      "somer": 2108,
      "al4": 2109,
      "grave": 2110,
      "vey": 2111,
      "ss7": 2112,
      "brighouse": 2113,
      "cherry": 2114,
      "de56": 2115,
      "ws11": 2116,
      "firth": 2117,
      "wa2": 2118,
      "wille": 2119,
      "wa16": 2120,
      "137": 2121,
      "mil": 2122,
      "me14": 2123,
      "ml1": 2124,
      "ox16": 2125,
      "rm3": 2126,
      "dan": 2127,
      "eth": 2128,
      "cw9": 2129,
      "fon": 2130,
      "rectory": 2131,
      "145": 2132,
      "nington": 2133,
      "135": 2134,
      "mple": 2135,
      "hu15": 2136,
      "wf17": 2137,
      "wn6": 2138,
      "dit": 2139,
      "nhall": 2140,
      "gainsborough": 2141,
      "de22": 2142,
      "belper": 2143,
      "marl": 2144,
      "cw12": 2145,
      "uz": 2146,
      "kt8": 2147,
      "chest": 2148,
      "bil": 2149,
      "von": 2150,
      "rh15": 2151,
      "da5": 2152,
      "amelia": 2153,
      "1hd": 2154,
      "herne": 2155,
      "roth": 2156,
      "letch": 2157,
      "pe28": 2158,
      "dney": 2159,
      "cromwell": 2160,
      "mk5": 2161,
      "est": 2162,
      "gu51": 2163,
      "coal": 2164,
      "hd9": 2165,
      "van": 2166,
      "venor": 2167,
      "wv10": 2168,
      "alton": 2169,
      "burnham": 2170,
      "batter": 2171,
      "wetherby": 2172,
      "nn10": 2173,
      "ub10": 2174,
      "stanley": 2175,
      "bach": 2176,
      "ws2": 2177,
      "wd17": 2178,
      "141": 2179,
      "160": 2180,
      "139": 2181,
      "norman": 2182,
      "spe": 2183,
      "rm7": 2184,
      "grosvenor": 2185,
      "cole": 2186,
      "mk4": 2187,
      "ts17": 2188,
      "hal": 2189,
      "tad": 2190,
      "lans": 2191,
      "yeovil": 2192,
      "wn2": 2193,
      "1la": 2194,
      "eh14": 2195,
      "ox14": 2196,
      "chessington": 2197,
      "gla": 2198,
      "ashby": 2199,
      "hd6": 2200,
      "rock": 2201,
      "po4": 2202,
      "lad": 2203,
      "cock": 2204,
      "lau": 2205,
      "ffron": 2206,
      "ec4a": 2207,
      "cf23": 2208,
      "runcorn": 2209,
      "so23": 2210,
      "saffron": 2211,
      "hp5": 2212,
      "wn8": 2213,
      "sudbury": 2214,
      "tow": 2215,
      "de24": 2216,
      "holmfirth": 2217,
      "1dd": 2218,
      "whar": 2219,
      "eli": 2220,
      "ble": 2221,
      "pr6": 2222,
      "8px": 2223,
      "151": 2224,
      "nn6": 2225,
      "springfield": 2226,
      "fraser": 2227,
      "chestnut": 2228,
      "hp12": 2229,
      "trowbridge": 2230,
      "wd19": 2231,
      "glebe": 2232,
      "stable": 2233,
      "le8": 2234,
      "rh6": 2235,
      "dish": 2236,
      "em": 2237,
      "ral": 2238,
      "sqr": 2239,
      "haver": 2240,
      "set": 2241,
      "bh15": 2242,
      "2db": 2243,
      "wd25": 2244,
      "bol": 2245,
      "wr11": 2246,
      "cb6": 2247,
      "gal": 2248,
      "gu7": 2249,
      "edward": 2250,
      "horse": 2251,
      "swell": 2252,
      "1qq": 2253,
      "bridgwater": 2254,
      "wn7": 2255,
      "eh48": 2256,
      "kno": 2257,
      "me10": 2258,
      "dn6": 2259,
      "9lt": 2260,
      "pe7": 2261,
      "bech": 2262,
      "ba15": 2263,
      "battersea": 2264,
      "rm12": 2265,
      "cw5": 2266,
      "letchworth": 2267,
      "caven": 2268,
      "ls25": 2269,
      "woodside": 2270,
      "swin": 2271,
      "142": 2272,
      "143": 2273,
      "rm13": 2274,
      "cavendish": 2275,
      "wisbech": 2276,
      "2jg": 2277,
      "oulton": 2278,
      "march": 2279,
      "se7": 2280,
      "gu2": 2281,
      "nn14": 2282,
      "lev": 2283,
      "wf4": 2284,
      "wr1": 2285,
      "hp3": 2286,
      "hp6": 2287,
      "rh19": 2288,
      "hun": 2289,
      "so14": 2290,
      "raven": 2291,
      "wa1": 2292,
      "willenhall": 2293,
      "des": 2294,
      "ch2": 2295,
      "ol16": 2296,
      "carlton": 2297,
      "thomas": 2298,
      "tsey": 2299,
      "hare": 2300,
      "149": 2301,
      "sl7": 2302,
      "4bt": 2303,
      "sandbach": 2304,
      "4be": 2305,
      "tower": 2306,
      "138": 2307,
      "pe11": 2308,
      "til": 2309,
      "ta1": 2310,
      "hazel": 2311,
      "de7": 2312,
      "ws13": 2313,
      "iam": 2314,
      "chertsey": 2315,
      "tf1": 2316,
      "malling": 2317,
      "sw13": 2318,
      "enhead": 2319,
      "belved": 2320,
      "belvedere": 2321,
      "gl1": 2322,
      "lords": 2323,
      "bow": 2324,
      "hu3": 2325,
      "birkenhead": 2326,
      "ilkeston": 2327,
      "ss1": 2328,
      "skelmer": 2329,
      "cm12": 2330,
      "size": 2331,
      "skelmersdale": 2332,
      "yd": 2333,
      "romsey": 2334,
      "oakham": 2335,
      "lake": 2336,
      "wv14": 2337,
      "belsize": 2338,
      "pley": 2339,
      "wf1": 2340,
      "lancaster": 2341,
      "cken": 2342,
      "tw15": 2343,
      "tw18": 2344,
      "truro": 2345,
      "mk42": 2346,
      "ela": 2347,
      "wa7": 2348,
      "ping": 2349,
      "mberland": 2350,
      "mith": 2351,
      "marlborough": 2352,
      "mk6": 2353,
      "lar": 2354,
      "bn21": 2355,
      "gl53": 2356,
      "union": 2357,
      "bram": 2358,
      "mk41": 2359,
      "me9": 2360,
      "me8": 2361,
      "chell": 2362,
      "144": 2363,
      "upminster": 2364,
      "durham": 2365,
      "3by": 2366,
      "ls9": 2367,
      "wr14": 2368,
      "al2": 2369,
      "ls12": 2370,
      "cial": 2371,
      "commercial": 2372,
      "ba14": 2373,
      "1ae": 2374,
      "um": 2375,
      "cm9": 2376,
      "horley": 2377,
      "ving": 2378,
      "went": 2379,
      "so30": 2380,
      "littlehampton": 2381,
      "150": 2382,
      "nn18": 2383,
      "rm1": 2384,
      "rel": 2385,
      "western": 2386,
      "146": 2387,
      "gordon": 2388,
      "addlestone": 2389,
      "devon": 2390,
      "7ab": 2391,
      "barton": 2392,
      "ghts": 2393,
      "hip": 2394,
      "ab11": 2395,
      "cw8": 2396,
      "ky11": 2397,
      "sle": 2398,
      "big": 2399,
      "rh11": 2400,
      "3lq": 2401,
      "hythe": 2402,
      "bilston": 2403,
      "buxton": 2404,
      "nn15": 2405,
      "wed": 2406,
      "ss2": 2407,
      "wk": 2408,
      "clacton": 2409,
      "ki": 2410,
      "temple": 2411,
      "fort": 2412,
      "crow": 2413,
      "william": 2414,
      "hp19": 2415,
      "mirfield": 2416,
      "kt22": 2417,
      "gj": 2418,
      "inton": 2419,
      "2ef": 2420,
      "wen": 2421,
      "me1": 2422,
      "walden": 2423,
      "bor": 2424,
      "tal": 2425,
      "loch": 2426,
      "cv4": 2427,
      "pro": 2428,
      "de55": 2429,
      "po7": 2430,
      "tar": 2431,
      "clarence": 2432,
      "de1": 2433,
      "pe29": 2434,
      "147": 2435,
      "ox3": 2436,
      "vin": 2437,
      "endon": 2438,
      "ol12": 2439,
      "ab12": 2440,
      "spen": 2441,
      "wig": 2442,
      "fulham": 2443,
      "ramsgate": 2444,
      "hu5": 2445,
      "gil": 2446,
      "3aj": 2447,
      "kt11": 2448,
      "ssop": 2449,
      "po16": 2450,
      "dy2": 2451,
      "wv3": 2452,
      "leas": 2453,
      "ol8": 2454,
      "ch3": 2455,
      "cm14": 2456,
      "po19": 2457,
      "cv7": 2458,
      "burntwood": 2459,
      "llan": 2460,
      "severn": 2461,
      "me19": 2462,
      "ss6": 2463,
      "eh11": 2464,
      "kt15": 2465,
      "mdw": 2466,
      "0hj": 2467,
      "lordship": 2468,
      "da14": 2469,
      "so41": 2470,
      "sg6": 2471,
      "abbots": 2472,
      "me4": 2473,
      "ln2": 2474,
      "towcester": 2475,
      "kt5": 2476,
      "roach": 2477,
      "garth": 2478,
      "over": 2479,
      "yard": 2480,
      "thur": 2481,
      "3lw": 2482,
      "fk2": 2483,
      "ives": 2484,
      "pud": 2485,
      "4ad": 2486,
      "hard": 2487,
      "whe": 2488,
      "inn": 2489,
      "epping": 2490,
      "kg": 2491,
      "andre": 2492,
      "caldy": 2493,
      "deeside": 2494,
      "wf14": 2495,
      "wv1": 2496,
      "pudsey": 2497,
      "stu": 2498,
      "cw11": 2499,
      "2ag": 2500,
      "did": 2501,
      "ls11": 2502,
      "bnk": 2503,
      "royal": 2504,
      "157": 2505,
      "kt9": 2506,
      "mk10": 2507,
      "tq12": 2508,
      "1ee": 2509,
      "matlock": 2510,
      "1jf": 2511,
      "clee": 2512,
      "pr3": 2513,
      "wharf": 2514,
      "kington": 2515,
      "chisle": 2516,
      "hp1": 2517,
      "margate": 2518,
      "mans": 2519,
      "shaf": 2520,
      "approach": 2521,
      "witham": 2522,
      "gp": 2523,
      "harbour": 2524,
      "ws14": 2525,
      "fj": 2526,
      "cv31": 2527,
      "ws12": 2528,
      "undel": 2529,
      "ignton": 2530,
      "ls27": 2531,
      "liver": 2532,
      "bh1": 2533,
      "le15": 2534,
      "woodland": 2535,
      "cw2": 2536,
      "coalville": 2537,
      "bl": 2538,
      "dy1": 2539,
      "8dp": 2540,
      "nn2": 2541,
      "155": 2542,
      "stalybridge": 2543,
      "fs": 2544,
      "4hn": 2545,
      "holme": 2546,
      "cb8": 2547,
      "swade": 2548,
      "maple": 2549,
      "portland": 2550,
      "glossop": 2551,
      "1eb": 2552,
      "egham": 2553,
      "chislehurst": 2554,
      "sk14": 2555,
      "nesbury": 2556,
      "sg2": 2557,
      "ack": 2558,
      "ky12": 2559,
      "otley": 2560,
      "ingle": 2561,
      "se20": 2562,
      "161": 2563,
      "kirkcaldy": 2564,
      "bh12": 2565,
      "shoreham": 2566,
      "swick": 2567,
      "cf31": 2568,
      "ec1r": 2569,
      "ferndown": 2570,
      "geley": 2571,
      "gu34": 2572,
      "paignton": 2573,
      "cwm": 2574,
      "rugeley": 2575,
      "sunbury": 2576,
      "ls6": 2577,
      "brae": 2578,
      "didcot": 2579,
      "2ad": 2580,
      "6y": 2581,
      "po6": 2582,
      "po12": 2583,
      "hd3": 2584,
      "riverside": 2585,
      "7ea": 2586,
      "kni": 2587,
      "peterhead": 2588,
      "po5": 2589,
      "3y": 2590,
      "ne2": 2591,
      "nn7": 2592,
      "2aa": 2593,
      "smith": 2594,
      "159": 2595,
      "wan": 2596,
      "loan": 2597,
      "so40": 2598,
      "cv10": 2599,
      "broo": 2600,
      "wc1x": 2601,
      "pine": 2602,
      "3pb": 2603,
      "hav": 2604,
      "hook": 2605,
      "ier": 2606,
      "156": 2607,
      "nn16": 2608,
      "aird": 2609,
      "ix": 2610,
      "hithe": 2611,
      "bin": 2612,
      "billingham": 2613,
      "ts10": 2614,
      "rm14": 2615,
      "wv4": 2616,
      "fy2": 2617,
      "mitchell": 2618,
      "sford": 2619,
      "airdrie": 2620,
      "wh": 2621,
      "gl5": 2622,
      "hx3": 2623,
      "retford": 2624,
      "148": 2625,
      "po9": 2626,
      "lou": 2627,
      "muir": 2628,
      "westbury": 2629,
      "living": 2630,
      "wynd": 2631,
      "6bj": 2632,
      "havant": 2633,
      "cf3": 2634,
      "rh13": 2635,
      "6qh": 2636,
      "ol4": 2637,
      "rendon": 2638,
      "fy4": 2639,
      "fq": 2640,
      "lers": 2641,
      "nn12": 2642,
      "wickford": 2643,
      "7sl": 2644,
      "cowes": 2645,
      "pe6": 2646,
      "shill": 2647,
      "ars": 2648,
      "bh24": 2649,
      "154": 2650,
      "mk14": 2651,
      "1ng": 2652,
      "whitstable": 2653,
      "ghton": 2654,
      "2ed": 2655,
      "sk15": 2656,
      "acre": 2657,
      "marine": 2658,
      "le17": 2659,
      "conwy": 2660,
      "fraserburgh": 2661,
      "5hd": 2662,
      "urie": 2663,
      "my": 2664,
      "8aa": 2665,
      "mws": 2666,
      "po15": 2667,
      "so18": 2668,
      "mk9": 2669,
      "ripley": 2670,
      "cm16": 2671,
      "shore": 2672,
      "cold": 2673,
      "gu10": 2674,
      "ners": 2675,
      "ch43": 2676,
      "ls10": 2677,
      "ox26": 2678,
      "rm17": 2679,
      "wednesbury": 2680,
      "porth": 2681,
      "ls15": 2682,
      "po8": 2683,
      "5ab": 2684,
      "fw": 2685,
      "co6": 2686,
      "bot": 2687,
      "nelson": 2688,
      "pes": 2689,
      "lion": 2690,
      "spin": 2691,
      "mes": 2692,
      "ne6": 2693,
      "tw20": 2694,
      "sw1x": 2695,
      "rochford": 2696,
      "tesbury": 2697,
      "shaftesbury": 2698,
      "153": 2699,
      "hon": 2700,
      "mk18": 2701,
      "pit": 2702,
      "tring": 2703,
      "charles": 2704,
      "dunmow": 2705,
      "tts": 2706,
      "so19": 2707,
      "pping": 2708,
      "coat": 2709,
      "manchester": 2710,
      "gz": 2711,
      "ne8": 2712,
      "ox28": 2713,
      "ws7": 2714,
      "co3": 2715,
      "millington": 2716,
      "clarendon": 2717,
      "tra": 2718,
      "3ae": 2719,
      "boulev": 2720,
      "ol2": 2721,
      "ox11": 2722,
      "friars": 2723,
      "ditton": 2724,
      "fp": 2725,
      "hd2": 2726,
      "sk2": 2727,
      "sk12": 2728,
      "ws15": 2729,
      "8ar": 2730,
      "de72": 2731,
      "cm13": 2732,
      "prim": 2733,
      "de13": 2734,
      "westgate": 2735,
      "rh4": 2736,
      "hp21": 2737,
      "ssett": 2738,
      "frome": 2739,
      "tavi": 2740,
      "wa11": 2741,
      "ab42": 2742,
      "wr9": 2743,
      "hasle": 2744,
      "cb7": 2745,
      "9py": 2746,
      "tavistock": 2747,
      "7ae": 2748,
      "163": 2749,
      "sk13": 2750,
      "home": 2751,
      "6aw": 2752,
      "dn15": 2753,
      "br7": 2754,
      "lark": 2755,
      "hillside": 2756,
      "itwich": 2757,
      "droitwich": 2758,
      "ne34": 2759,
      "hp11": 2760,
      "ml6": 2761,
      "art": 2762,
      "158": 2763,
      "kt18": 2764,
      "2qa": 2765,
      "cleve": 2766,
      "1jh": 2767,
      "cb22": 2768,
      "ashbourne": 2769,
      "np19": 2770,
      "de11": 2771,
      "mk45": 2772,
      "cty": 2773,
      "co5": 2774,
      "bh9": 2775,
      "peak": 2776,
      "shep": 2777,
      "stell": 2778,
      "arundel": 2779,
      "bh8": 2780,
      "gleswade": 2781,
      "biggleswade": 2782,
      "8de": 2783,
      "170": 2784,
      "boulevard": 2785,
      "de4": 2786,
      "br4": 2787,
      "goole": 2788,
      "lay": 2789,
      "sk3": 2790,
      "ct9": 2791,
      "bh6": 2792,
      "coom": 2793,
      "ab43": 2794,
      "me16": 2795,
      "hills": 2796,
      "non": 2797,
      "kesbury": 2798,
      "iv2": 2799,
      "cwmbran": 2800,
      "8hp": 2801,
      "ld": 2802,
      "dn22": 2803,
      "lady": 2804,
      "coombe": 2805,
      "eh15": 2806,
      "cm8": 2807,
      "haslemere": 2808,
      "canvey": 2809,
      "rothes": 2810,
      "lawn": 2811,
      "dy9": 2812,
      "2px": 2813,
      "ol9": 2814,
      "4as": 2815,
      "7bj": 2816,
      "ockendon": 2817,
      "cf37": 2818,
      "greenock": 2819,
      "sw1p": 2820,
      "iver": 2821,
      "tew": 2822,
      "lanc": 2823,
      "cm15": 2824,
      "dra": 2825,
      "wa9": 2826,
      "wn4": 2827,
      "2hj": 2828,
      "tewkesbury": 2829,
      "hu1": 2830,
      "ws10": 2831,
      "petersfield": 2832,
      "pho": 2833,
      "oll": 2834,
      "2qe": 2835,
      "bryn": 2836,
      "chil": 2837,
      "ways": 2838,
      "shel": 2839,
      "wf12": 2840,
      "poulton": 2841,
      "pe9": 2842,
      "ws9": 2843,
      "gl4": 2844,
      "hawthorn": 2845,
      "0rg": 2846,
      "tipton": 2847,
      "165": 2848,
      "peth": 2849,
      "top": 2850,
      "scot": 2851,
      "bn14": 2852,
      "lymm": 2853,
      "elli": 2854,
      "heb": 2855,
      "nn17": 2856,
      "carr": 2857,
      "4dj": 2858,
      "kenton": 2859,
      "gw": 2860,
      "po21": 2861,
      "dy10": 2862,
      "bridgnorth": 2863,
      "bh22": 2864,
      "pl4": 2865,
      "stafford": 2866,
      "claremont": 2867,
      "le18": 2868,
      "7aa": 2869,
      "sutton": 2870,
      "ct5": 2871,
      "hp22": 2872,
      "3ar": 2873,
      "cb2": 2874,
      "np44": 2875,
      "2dy": 2876,
      "enix": 2877,
      "ders": 2878,
      "pr25": 2879,
      "phoenix": 2880,
      "eh2": 2881,
      "blen": 2882,
      "167": 2883,
      "wa13": 2884,
      "stoke": 2885,
      "ts18": 2886,
      "4rg": 2887,
      "westfield": 2888,
      "wlk": 2889,
      "dn14": 2890,
      "spur": 2891,
      "4aa": 2892,
      "1lr": 2893,
      "5dx": 2894,
      "morpeth": 2895,
      "sen": 2896,
      "so51": 2897,
      "0y": 2898,
      "0rh": 2899,
      "1aa": 2900,
      "4pf": 2901,
      "lingford": 2902,
      "villa": 2903,
      "mun": 2904,
      "ison": 2905,
      "8y": 2906,
      "central": 2907,
      "had": 2908,
      "irn": 2909,
      "sandhurst": 2910,
      "2ea": 2911,
      "hu9": 2912,
      "mk13": 2913,
      "3dh": 2914,
      "belmont": 2915,
      "downe": 2916,
      "inverurie": 2917,
      "ferry": 2918,
      "queensway": 2919,
      "ne33": 2920,
      "rey": 2921,
      "162": 2922,
      "ec2m": 2923,
      "1hx": 2924,
      "tw16": 2925,
      "sg14": 2926,
      "ch41": 2927,
      "164": 2928,
      "heol": 2929,
      "ashley": 2930,
      "3eh": 2931,
      "dows": 2932,
      "keith": 2933,
      "sg18": 2934,
      "mble": 2935,
      "wc2b": 2936,
      "tf2": 2937,
      "villas": 2938,
      "pham": 2939,
      "ls26": 2940,
      "dn5": 2941,
      "chipping": 2942,
      "1da": 2943,
      "dy4": 2944,
      "yarm": 2945,
      "churchill": 2946,
      "thorpes": 2947,
      "gol": 2948,
      "hale": 2949,
      "wool": 2950,
      "humber": 2951,
      "ts5": 2952,
      "cleethorpes": 2953,
      "5y": 2954,
      "1aj": 2955,
      "elgin": 2956,
      "fy5": 2957,
      "so22": 2958,
      "wf3": 2959,
      "brunel": 2960,
      "co10": 2961,
      "gu16": 2962,
      "hu7": 2963,
      "ln4": 2964,
      "6ag": 2965,
      "tq1": 2966,
      "1lt": 2967,
      "se21": 2968,
      "pe27": 2969,
      "cm6": 2970,
      "swinford": 2971,
      "ss8": 2972,
      "howard": 2973,
      "ct6": 2974,
      "sg19": 2975,
      "3bt": 2976,
      "177": 2977,
      "172": 2978,
      "gnell": 2979,
      "gq": 2980,
      "meadows": 2981,
      "ta6": 2982,
      "3ax": 2983,
      "4dp": 2984,
      "tudor": 2985,
      "brooke": 2986,
      "liss": 2987,
      "rm15": 2988,
      "lingwood": 2989,
      "ol6": 2990,
      "6af": 2991,
      "7bt": 2992,
      "168": 2993,
      "kt16": 2994,
      "cau": 2995,
      "ws3": 2996,
      "1bg": 2997,
      "1ar": 2998,
      "ch4": 2999,
      "ne38": 3000,
      "illing": 3001,
      "albany": 3002,
      "glad": 3003,
      "5bb": 3004,
      "1hr": 3005,
      "enson": 3006,
      "9ae": 3007,
      "5je": 3008,
      "1gf": 3009,
      "3da": 3010,
      "dav": 3011,
      "ch45": 3012,
      "cowley": 3013,
      "bush": 3014,
      "quar": 3015,
      "8ly": 3016,
      "169": 3017,
      "175": 3018,
      "wallingford": 3019,
      "mlington": 3020,
      "ies": 3021,
      "crown": 3022,
      "sg13": 3023,
      "fk1": 3024,
      "emsworth": 3025,
      "2af": 3026,
      "primrose": 3027,
      "eh9": 3028,
      "5ja": 3029,
      "downs": 3030,
      "1ab": 3031,
      "8hb": 3032,
      "166": 3033,
      "wn3": 3034,
      "3bn": 3035,
      "173": 3036,
      "tq2": 3037,
      "cramlington": 3038,
      "round": 3039,
      "ls18": 3040,
      "hx1": 3041,
      "tilbury": 3042,
      "kingswinford": 3043,
      "wat": 3044,
      "dn35": 3045,
      "sunny": 3046,
      "ab51": 3047,
      "alderley": 3048,
      "good": 3049,
      "6el": 3050,
      "frew": 3051,
      "bishops": 3052,
      "pan": 3053,
      "radle": 3054,
      "dn21": 3055,
      "easter": 3056,
      "1qs": 3057,
      "2rh": 3058,
      "3hu": 3059,
      "176": 3060,
      "irs": 3061,
      "whitchurch": 3062,
      "tadworth": 3063,
      "pagnell": 3064,
      "gu12": 3065,
      "2pg": 3066,
      "cleveleys": 3067,
      "laven": 3068,
      "ary": 3069,
      "dy6": 3070,
      "radlett": 3071,
      "pleas": 3072,
      "camore": 3073,
      "renfrew": 3074,
      "2np": 3075,
      "aversham": 3076,
      "1br": 3077,
      "de5": 3078,
      "po20": 3079,
      "pl6": 3080,
      "ice": 3081,
      "pe30": 3082,
      "sycamore": 3083,
      "pleasant": 3084,
      "elms": 3085,
      "9dg": 3086,
      "ts26": 3087,
      "4ba": 3088,
      "gt": 3089,
      "gx": 3090,
      "mk16": 3091,
      "wr5": 3092,
      "1be": 3093,
      "ch7": 3094,
      "pl1": 3095,
      "ne30": 3096,
      "brent": 3097,
      "austell": 3098,
      "7al": 3099,
      "pren": 3100,
      "eden": 3101,
      "collingwood": 3102,
      "2ah": 3103,
      "compton": 3104,
      "1lu": 3105,
      "sp1": 3106,
      "glenrothes": 3107,
      "da17": 3108,
      "lowr": 3109,
      "8ps": 3110,
      "devonshire": 3111,
      "171": 3112,
      "hp23": 3113,
      "walls": 3114,
      "bond": 3115,
      "shepperton": 3116,
      "8ep": 3117,
      "kt20": 3118,
      "ln5": 3119,
      "clun": 3120,
      "cranleigh": 3121,
      "cw1": 3122,
      "3lh": 3123,
      "po14": 3124,
      "po13": 3125,
      "gl3": 3126,
      "morden": 3127,
      "8ad": 3128,
      "bb": 3129,
      "co15": 3130,
      "byfleet": 3131,
      "steph": 3132,
      "roman": 3133,
      "chep": 3134,
      "1ah": 3135,
      "lansdowne": 3136,
      "ab24": 3137,
      "mk8": 3138,
      "wv2": 3139,
      "8ex": 3140,
      "9da": 3141,
      "fisher": 3142,
      "pe21": 3143,
      "chepstow": 3144,
      "ne23": 3145,
      "wn5": 3146,
      "wishaw": 3147,
      "7an": 3148,
      "8ha": 3149,
      "200": 3150,
      "dy3": 3151,
      "ec1m": 3152,
      "7dx": 3153,
      "4ne": 3154,
      "ire": 3155,
      "2be": 3156,
      "5ea": 3157,
      "deal": 3158,
      "verton": 3159,
      "heim": 3160,
      "merton": 3161,
      "sw1h": 3162,
      "lde": 3163,
      "tr1": 3164,
      "fylde": 3165,
      "1ad": 3166,
      "ach": 3167,
      "ingate": 3168,
      "denham": 3169,
      "sy3": 3170,
      "6bt": 3171,
      "ment": 3172,
      "mingham": 3173,
      "ch5": 3174,
      "streat": 3175,
      "178": 3176,
      "bn43": 3177,
      "mk3": 3178,
      "mk7": 3179,
      "stourport": 3180,
      "pole": 3181,
      "castleford": 3182,
      "cannon": 3183,
      "wc1h": 3184,
      "4dy": 3185,
      "untain": 3186,
      "po2": 3187,
      "wf13": 3188,
      "kna": 3189,
      "cft": 3190,
      "stairs": 3191,
      "merth": 3192,
      "2jb": 3193,
      "ct1": 3194,
      "sy1": 3195,
      "haverhill": 3196,
      "bly": 3197,
      "mur": 3198,
      "yate": 3199,
      "ox5": 3200,
      "mk43": 3201,
      "4ag": 3202,
      "ss4": 3203,
      "gu4": 3204,
      "2nd": 3205,
      "owston": 3206,
      "ch62": 3207,
      "4ae": 3208,
      "0aa": 3209,
      "merthyr": 3210,
      "1rh": 3211,
      "pul": 3212,
      "5ah": 3213,
      "1db": 3214,
      "9dq": 3215,
      "fetter": 3216,
      "hp10": 3217,
      "2ab": 3218,
      "hea": 3219,
      "po10": 3220,
      "ba11": 3221,
      "put": 3222,
      "pe3": 3223,
      "3hr": 3224,
      "iston": 3225,
      "ss14": 3226,
      "1je": 3227,
      "nur": 3228,
      "sby": 3229,
      "174": 3230,
      "180": 3231,
      "arrow": 3232,
      "al8": 3233,
      "183": 3234,
      "8ae": 3235,
      "2bt": 3236,
      "purfleet": 3237,
      "4da": 3238,
      "cv23": 3239,
      "ery": 3240,
      "ab25": 3241,
      "gu27": 3242,
      "8at": 3243,
      "ox1": 3244,
      "1jq": 3245,
      "eliz": 3246,
      "blenheim": 3247,
      "lwr": 3248,
      "181": 3249,
      "me13": 3250,
      "bn7": 3251,
      "med": 3252,
      "rw": 3253,
      "ne15": 3254,
      "co7": 3255,
      "pe10": 3256,
      "ubi": 3257,
      "3lj": 3258,
      "elizab": 3259,
      "dle": 3260,
      "xon": 3261,
      "with": 3262,
      "5bq": 3263,
      "faversham": 3264,
      "linden": 3265,
      "2nt": 3266,
      "montpel": 3267,
      "lancing": 3268,
      "sir": 3269,
      "oxted": 3270,
      "ct20": 3271,
      "bird": 3272,
      "workington": 3273,
      "fairfield": 3274,
      "hass": 3275,
      "3ad": 3276,
      "8dd": 3277,
      "dy11": 3278,
      "wd7": 3279,
      "arn": 3280,
      "tern": 3281,
      "newquay": 3282,
      "ss15": 3283,
      "ox29": 3284,
      "fil": 3285,
      "5dt": 3286,
      "crest": 3287,
      "2dr": 3288,
      "bion": 3289,
      "cel": 3290,
      "gill": 3291,
      "maes": 3292,
      "fy6": 3293,
      "5de": 3294,
      "dn9": 3295,
      "6rd": 3296,
      "ial": 3297,
      "popl": 3298,
      "7ar": 3299,
      "co1": 3300,
      "179": 3301,
      "sk1": 3302,
      "1jn": 3303,
      "osw": 3304,
      "anor": 3305,
      "ance": 3306,
      "185": 3307,
      "dn32": 3308,
      "hg3": 3309,
      "7bb": 3310,
      "ouch": 3311,
      "ln1": 3312,
      "1rb": 3313,
      "brunswick": 3314,
      "nurser": 3315,
      "6al": 3316,
      "ox10": 3317,
      "3as": 3318,
      "9ab": 3319,
      "wf10": 3320,
      "falmouth": 3321,
      "whitehaven": 3322,
      "1al": 3323,
      "11a": 3324,
      "ls21": 3325,
      "hu8": 3326,
      "wn1": 3327,
      "ne28": 3328,
      "wd4": 3329,
      "middlewich": 3330,
      "let": 3331,
      "lavender": 3332,
      "6ht": 3333,
      "7ef": 3334,
      "albion": 3335,
      "191": 3336,
      "6as": 3337,
      "8jq": 3338,
      "ml2": 3339,
      "3qb": 3340,
      "4qn": 3341,
      "spencer": 3342,
      "andrews": 3343,
      "3de": 3344,
      "5da": 3345,
      "lanark": 3346,
      "cia": 3347,
      "broadstone": 3348,
      "ern": 3349,
      "ratt": 3350,
      "wf5": 3351,
      "5dl": 3352,
      "jubi": 3353,
      "ca14": 3354,
      "2ql": 3355,
      "8bb": 3356,
      "prenton": 3357,
      "1ll": 3358,
      "ac": 3359,
      "eh16": 3360,
      "hayling": 3361,
      "6eu": 3362,
      "7ej": 3363,
      "3ef": 3364,
      "ne26": 3365,
      "camden": 3366,
      "3ld": 3367,
      "jubilee": 3368,
      "1en": 3369,
      "8er": 3370,
      "hth": 3371,
      "tw17": 3372,
      "eh21": 3373,
      "ocks": 3374,
      "3be": 3375,
      "8jb": 3376,
      "paddock": 3377,
      "2pp": 3378,
      "6pa": 3379,
      "7y": 3380,
      "cf62": 3381,
      "bh17": 3382,
      "3he": 3383,
      "5bn": 3384,
      "nether": 3385,
      "0ld": 3386,
      "le19": 3387,
      "189": 3388,
      "1jd": 3389,
      "4hy": 3390,
      "lingham": 3391,
      "ingale": 3392,
      "cb9": 3393,
      "fx": 3394,
      "ol1": 3395,
      "coo": 3396,
      "de12": 3397,
      "201": 3398,
      "elizabeth": 3399,
      "4an": 3400,
      "6ba": 3401,
      "6da": 3402,
      "7ph": 3403,
      "hals": 3404,
      "eh49": 3405,
      "rm18": 3406,
      "1nj": 3407,
      "belgrave": 3408,
      "brown": 3409,
      "ct21": 3410,
      "1nb": 3411,
      "2az": 3412,
      "ne29": 3413,
      "duke": 3414,
      "1jr": 3415,
      "6ax": 3416,
      "2al": 3417,
      "6de": 3418,
      "acres": 3419,
      "mort": 3420,
      "zouch": 3421,
      "po1": 3422,
      "1bs": 3423,
      "burnt": 3424,
      "kennington": 3425,
      "ec3v": 3426,
      "5ee": 3427,
      "ls22": 3428,
      "1pe": 3429,
      "8be": 3430,
      "3ag": 3431,
      "martin": 3432,
      "3hg": 3433,
      "9ad": 3434,
      "bh25": 3435,
      "dum": 3436,
      "badger": 3437,
      "3nr": 3438,
      "ish": 3439,
      "robert": 3440,
      "ba13": 3441,
      "9af": 3442,
      "aylesford": 3443,
      "yateley": 3444,
      "3ah": 3445,
      "pers": 3446,
      "1jl": 3447,
      "1dh": 3448,
      "hassocks": 3449,
      "5eq": 3450,
      "12a": 3451,
      "paul": 3452,
      "beechwood": 3453,
      "2hn": 3454,
      "pa1": 3455,
      "ashtead": 3456,
      "wv11": 3457,
      "2dp": 3458,
      "210": 3459,
      "4ab": 3460,
      "9ar": 3461,
      "ne11": 3462,
      "ryde": 3463,
      "brackley": 3464,
      "folk": 3465,
      "wallsend": 3466,
      "3ab": 3467,
      "9ee": 3468,
      "2ae": 3469,
      "7qa": 3470,
      "1pt": 3471,
      "nrt": 3472,
      "atherstone": 3473,
      "3ea": 3474,
      "5al": 3475,
      "187": 3476,
      "ts15": 3477,
      "rh8": 3478,
      "1eh": 3479,
      "4hh": 3480,
      "ap": 3481,
      "le14": 3482,
      "rm19": 3483,
      "broadstairs": 3484,
      "9lz": 3485,
      "resford": 3486,
      "louth": 3487,
      "da2": 3488,
      "mk2": 3489,
      "friargate": 3490,
      "brd": 3491,
      "winsford": 3492,
      "ph1": 3493,
      "1pg": 3494,
      "hawk": 3495,
      "night": 3496,
      "font": 3497,
      "nursery": 3498,
      "0pa": 3499,
      "4dg": 3500,
      "9ne": 3501,
      "ne20": 3502,
      "gu47": 3503,
      "eh8": 3504,
      "wc2h": 3505,
      "5as": 3506,
      "204": 3507,
      "lynd": 3508,
      "ws5": 3509,
      "cm11": 3510,
      "cm17": 3511,
      "8aj": 3512,
      "norfolk": 3513,
      "longfield": 3514,
      "prospe": 3515,
      "5ef": 3516,
      "co2": 3517,
      "mk17": 3518,
      "4jl": 3519,
      "1qd": 3520,
      "watling": 3521,
      "3ll": 3522,
      "8ab": 3523,
      "ripon": 3524,
      "3bp": 3525,
      "2ha": 3526,
      "9na": 3527,
      "sp2": 3528,
      "coatbridge": 3529,
      "1er": 3530,
      "3at": 3531,
      "ne12": 3532,
      "195": 3533,
      "ruth": 3534,
      "9ah": 3535,
      "2bs": 3536,
      "4qd": 3537,
      "mayfield": 3538,
      "cowbridge": 3539,
      "pent": 3540,
      "199": 3541,
      "oaks": 3542,
      "apple": 3543,
      "1dg": 3544,
      "thame": 3545,
      "links": 3546,
      "2ew": 3547,
      "del": 3548,
      "tland": 3549,
      "de65": 3550,
      "pe15": 3551,
      "blyth": 3552,
      "5eg": 3553,
      "9du": 3554,
      "al6": 3555,
      "olney": 3556,
      "184": 3557,
      "weston": 3558,
      "tw19": 3559,
      "twell": 3560,
      "ox7": 3561,
      "dn11": 3562,
      "ct14": 3563,
      "7aj": 3564,
      "four": 3565,
      "wigston": 3566,
      "1es": 3567,
      "cf72": 3568,
      "4dl": 3569,
      "fk8": 3570,
      "5hj": 3571,
      "3ay": 3572,
      "1af": 3573,
      "3dl": 3574,
      "dart": 3575,
      "4lh": 3576,
      "4db": 3577,
      "swanley": 3578,
      "rook": 3579,
      "alperton": 3580,
      "rye": 3581,
      "5qy": 3582,
      "8nf": 3583,
      "ts23": 3584,
      "how": 3585,
      "2bu": 3586,
      "8an": 3587,
      "182": 3588,
      "stanford": 3589,
      "6dy": 3590,
      "6ta": 3591,
      "kn": 3592,
      "le65": 3593,
      "ch44": 3594,
      "ls13": 3595,
      "knares": 3596,
      "2da": 3597,
      "3la": 3598,
      "3ba": 3599,
      "bet": 3600,
      "ilsham": 3601,
      "3au": 3602,
      "1bb": 3603,
      "gl20": 3604,
      "1bt": 3605,
      "sons": 3606,
      "dru": 3607,
      "wri": 3608,
      "ts25": 3609,
      "greenhithe": 3610,
      "1nl": 3611,
      "9aq": 3612,
      "2bd": 3613,
      "shir": 3614,
      "1rs": 3615,
      "5an": 3616,
      "pa4": 3617,
      "ship": 3618,
      "205": 3619,
      "clapham": 3620,
      "2lp": 3621,
      "crane": 3622,
      "pontyclun": 3623,
      "1re": 3624,
      "8na": 3625,
      "197": 3626,
      "ct11": 3627,
      "streatham": 3628,
      "9pa": 3629,
      "leven": 3630,
      "skin": 3631,
      "2ax": 3632,
      "2lx": 3633,
      "prospect": 3634,
      "2ru": 3635,
      "6nd": 3636,
      "193": 3637,
      "3nb": 3638,
      "willows": 3639,
      "0du": 3640,
      "0hq": 3641,
      "1hp": 3642,
      "1sq": 3643,
      "1hh": 3644,
      "7ba": 3645,
      "oval": 3646,
      "tle": 3647,
      "ann": 3648,
      "ls19": 3649,
      "gu46": 3650,
      "nrth": 3651,
      "village": 3652,
      "abby": 3653,
      "2jr": 3654,
      "6ah": 3655,
      "5ag": 3656,
      "5aj": 3657,
      "3dz": 3658,
      "ttell": 3659,
      "putney": 3660,
      "knaresborough": 3661,
      "3tb": 3662,
      "kt21": 3663,
      "2bg": 3664,
      "5dh": 3665,
      "iv30": 3666,
      "7dq": 3667,
      "3rj": 3668,
      "risborough": 3669,
      "2ba": 3670,
      "ch48": 3671,
      "de15": 3672,
      "ll11": 3673,
      "cm20": 3674,
      "wv13": 3675,
      "2hr": 3676,
      "2dj": 3677,
      "2dx": 3678,
      "5ad": 3679,
      "ander": 3680,
      "hamp": 3681,
      "rith": 3682,
      "ab22": 3683,
      "rm2": 3684,
      "pl3": 3685,
      "3aw": 3686,
      "3dp": 3687,
      "4na": 3688,
      "9ba": 3689,
      "mpton": 3690,
      "da9": 3691,
      "seaford": 3692,
      "2aj": 3693,
      "4af": 3694,
      "earl": 3695,
      "2la": 3696,
      "1lp": 3697,
      "3an": 3698,
      "inger": 3699,
      "tyd": 3700,
      "kt7": 3701,
      "1ap": 3702,
      "1bq": 3703,
      "ml5": 3704,
      "fy3": 3705,
      "5bp": 3706,
      "nth": 3707,
      "ts7": 3708,
      "bh18": 3709,
      "fries": 3710,
      "gon": 3711,
      "copp": 3712,
      "leith": 3713,
      "1lj": 3714,
      "2rs": 3715,
      "7hp": 3716,
      "dn17": 3717,
      "7jg": 3718,
      "1pb": 3719,
      "wheat": 3720,
      "ding": 3721,
      "ossett": 3722,
      "1dp": 3723,
      "0ad": 3724,
      "6hj": 3725,
      "dell": 3726,
      "190": 3727,
      "5ae": 3728,
      "penrith": 3729,
      "6bd": 3730,
      "ske": 3731,
      "186": 3732,
      "bn6": 3733,
      "ct10": 3734,
      "2as": 3735,
      "9ja": 3736,
      "1dx": 3737,
      "6dp": 3738,
      "0pp": 3739,
      "8ed": 3740,
      "mold": 3741,
      "brigg": 3742,
      "me20": 3743,
      "226": 3744,
      "so45": 3745,
      "parkway": 3746,
      "hockley": 3747,
      "1ag": 3748,
      "1jb": 3749,
      "2jp": 3750,
      "5dj": 3751,
      "5lj": 3752,
      "frank": 3753,
      "nightingale": 3754,
      "1eq": 3755,
      "6ea": 3756,
      "bent": 3757,
      "kw": 3758,
      "prest": 3759,
      "9jj": 3760,
      "brettell": 3761,
      "1ha": 3762,
      "1sg": 3763,
      "1eg": 3764,
      "3dg": 3765,
      "7hh": 3766,
      "born": 3767,
      "sk5": 3768,
      "2ld": 3769,
      "honey": 3770,
      "gladstone": 3771,
      "2by": 3772,
      "5ay": 3773,
      "ches": 3774,
      "bn15": 3775,
      "1dl": 3776,
      "baldock": 3777,
      "1el": 3778,
      "southw": 3779,
      "2ee": 3780,
      "3py": 3781,
      "5nt": 3782,
      "granville": 3783,
      "dumfries": 3784,
      "lyndhurst": 3785,
      "po11": 3786,
      "cv35": 3787,
      "warminster": 3788,
      "sheer": 3789,
      "yne": 3790,
      "hailsham": 3791,
      "westhill": 3792,
      "saw": 3793,
      "quarry": 3794,
      "7dn": 3795,
      "8nn": 3796,
      "8dy": 3797,
      "eh52": 3798,
      "3aq": 3799,
      "3bd": 3800,
      "2qb": 3801,
      "poplar": 3802,
      "halstead": 3803,
      "6ha": 3804,
      "7du": 3805,
      "acton": 3806,
      "hp15": 3807,
      "hp20": 3808,
      "9as": 3809,
      "7dl": 3810,
      "0an": 3811,
      "2ds": 3812,
      "5le": 3813,
      "5np": 3814,
      "dry": 3815,
      "stonehaven": 3816,
      "2aq": 3817,
      "7jz": 3818,
      "heather": 3819,
      "7dw": 3820,
      "1ln": 3821,
      "8af": 3822,
      "3jp": 3823,
      "2ht": 3824,
      "2eb": 3825,
      "holywell": 3826,
      "tydfil": 3827,
      "2hu": 3828,
      "bod": 3829,
      "jer": 3830,
      "men": 3831,
      "uch": 3832,
      "ca28": 3833,
      "194": 3834,
      "sk17": 3835,
      "rowan": 3836,
      "cb25": 3837,
      "np10": 3838,
      "8ax": 3839,
      "9jq": 3840,
      "livingston": 3841,
      "5ly": 3842,
      "woodstock": 3843,
      "dy13": 3844,
      "1jj": 3845,
      "8bj": 3846,
      "2rp": 3847,
      "2ll": 3848,
      "crick": 3849,
      "gham": 3850,
      "pe12": 3851,
      "bn20": 3852,
      "3lp": 3853,
      "7dz": 3854,
      "blue": 3855,
      "pulborough": 3856,
      "4ef": 3857,
      "9er": 3858,
      "brk": 3859,
      "4jp": 3860,
      "2ex": 3861,
      "copse": 3862,
      "1ba": 3863,
      "1ly": 3864,
      "dn1": 3865,
      "cv9": 3866,
      "7ah": 3867,
      "3lg": 3868,
      "oakwood": 3869,
      "tf3": 3870,
      "9lj": 3871,
      "talbot": 3872,
      "3el": 3873,
      "6bb": 3874,
      "5ps": 3875,
      "1du": 3876,
      "3ej": 3877,
      "5by": 3878,
      "penn": 3879,
      "1dy": 3880,
      "2ua": 3881,
      "vine": 3882,
      "ckle": 3883,
      "5bx": 3884,
      "3dt": 3885,
      "3ep": 3886,
      "4eu": 3887,
      "ox18": 3888,
      "mk12": 3889,
      "bull": 3890,
      "1an": 3891,
      "5bh": 3892,
      "cald": 3893,
      "pet": 3894,
      "ret": 3895,
      "pl7": 3896,
      "hd7": 3897,
      "0lf": 3898,
      "1hg": 3899,
      "7be": 3900,
      "teign": 3901,
      "ch66": 3902,
      "pe8": 3903,
      "woodfield": 3904,
      "1ju": 3905,
      "3jl": 3906,
      "1ls": 3907,
      "3ha": 3908,
      "mine": 3909,
      "mour": 3910,
      "mk46": 3911,
      "hd4": 3912,
      "7af": 3913,
      "9pg": 3914,
      "4ed": 3915,
      "rigg": 3916,
      "ne9": 3917,
      "7db": 3918,
      "salt": 3919,
      "montpelier": 3920,
      "5ha": 3921,
      "dol": 3922,
      "bag": 3923,
      "nn9": 3924,
      "8ja": 3925,
      "9qg": 3926,
      "8nb": 3927,
      "argy": 3928,
      "pe4": 3929,
      "wd5": 3930,
      "9nh": 3931,
      "1nw": 3932,
      "wb": 3933,
      "ellon": 3934,
      "188": 3935,
      "207": 3936,
      "kt14": 3937,
      "2na": 3938,
      "1jt": 3939,
      "norh": 3940,
      "hx2": 3941,
      "0df": 3942,
      "ec2v": 3943,
      "5ln": 3944,
      "8bh": 3945,
      "8eb": 3946,
      "9bh": 3947,
      "ne5": 3948,
      "ne25": 3949,
      "pear": 3950,
      "ls2": 3951,
      "shad": 3952,
      "2pe": 3953,
      "bron": 3954,
      "bedworth": 3955,
      "wr4": 3956,
      "5ed": 3957,
      "5hb": 3958,
      "po22": 3959,
      "3jj": 3960,
      "lud": 3961,
      "8pj": 3962,
      "6dt": 3963,
      "2ep": 3964,
      "3hq": 3965,
      "ever": 3966,
      "hoe": 3967,
      "greenway": 3968,
      "dsham": 3969,
      "8as": 3970,
      "3rn": 3971,
      "3nd": 3972,
      "7dr": 3973,
      "8eu": 3974,
      "cm77": 3975,
      "7bx": 3976,
      "3hj": 3977,
      "4nd": 3978,
      "5dr": 3979,
      "ps": 3980,
      "hu13": 3981,
      "4aj": 3982,
      "hg5": 3983,
      "3hl": 3984,
      "4eb": 3985,
      "7hj": 3986,
      "9eb": 3987,
      "po31": 3988,
      "br8": 3989,
      "2ja": 3990,
      "7jl": 3991,
      "2er": 3992,
      "4ey": 3993,
      "5ds": 3994,
      "verwood": 3995,
      "4aq": 3996,
      "4py": 3997,
      "1lq": 3998,
      "3es": 3999,
      "ab21": 4000,
      "9lf": 4001,
      "fk7": 4002,
      "missenden": 4003,
      "dartmouth": 4004,
      "3pa": 4005,
      "els": 4006,
      "ln11": 4007,
      "1qe": 4008,
      "kiln": 4009,
      "5el": 4010,
      "sedge": 4011,
      "209": 4012,
      "7ag": 4013,
      "wf8": 4014,
      "3bw": 4015,
      "wr2": 4016,
      "8sr": 4017,
      "robin": 4018,
      "206": 4019,
      "grey": 4020,
      "mbard": 4021,
      "214": 4022,
      "4en": 4023,
      "hur": 4024,
      "1bj": 4025,
      "7pq": 4026,
      "ky1": 4027,
      "imper": 4028,
      "5ne": 4029,
      "heanor": 4030,
      "gu11": 4031,
      "southam": 4032,
      "3ap": 4033,
      "1nh": 4034,
      "2eg": 4035,
      "1lh": 4036,
      "2lj": 4037,
      "imperial": 4038,
      "ox9": 4039,
      "dyke": 4040,
      "4aw": 4041,
      "9ap": 4042,
      "3jr": 4043,
      "9pd": 4044,
      "princess": 4045,
      "broomfield": 4046,
      "198": 4047,
      "2ap": 4048,
      "8jg": 4049,
      "2le": 4050,
      "1aq": 4051,
      "wr3": 4052,
      "2dt": 4053,
      "7lp": 4054,
      "cornforth": 4055,
      "2ph": 4056,
      "4hu": 4057,
      "4ej": 4058,
      "5dy": 4059,
      "ec4": 4060,
      "2pb": 4061,
      "fleetwood": 4062,
      "9dt": 4063,
      "1sd": 4064,
      "2en": 4065,
      "2bn": 4066,
      "4ha": 4067,
      "5sh": 4068,
      "5dd": 4069,
      "mley": 4070,
      "8pd": 4071,
      "palmer": 4072,
      "1hj": 4073,
      "2ne": 4074,
      "2sa": 4075,
      "so32": 4076,
      "7jn": 4077,
      "2et": 4078,
      "7eg": 4079,
      "1jp": 4080,
      "saxon": 4081,
      "7bs": 4082,
      "8dt": 4083,
      "7lh": 4084,
      "teignmouth": 4085,
      "1hq": 4086,
      "2ay": 4087,
      "4ht": 4088,
      "5ba": 4089,
      "6by": 4090,
      "9el": 4091,
      "gness": 4092,
      "bn25": 4093,
      "6ae": 4094,
      "1hn": 4095,
      "xted": 4096,
      "ec1a": 4097,
      "3jf": 4098,
      "2qp": 4099,
      "kingsley": 4100,
      "1ew": 4101,
      "1sa": 4102,
      "6dd": 4103,
      "7hn": 4104,
      "le13": 4105,
      "chat": 4106,
      "cb5": 4107,
      "6aq": 4108,
      "4jb": 4109,
      "2bx": 4110,
      "fountain": 4111,
      "5pb": 4112,
      "1rl": 4113,
      "1rp": 4114,
      "earls": 4115,
      "192": 4116,
      "hp27": 4117,
      "8au": 4118,
      "3ja": 4119,
      "8pn": 4120,
      "kidlington": 4121,
      "1bh": 4122,
      "4al": 4123,
      "6hb": 4124,
      "9ej": 4125,
      "wand": 4126,
      "stall": 4127,
      "ch63": 4128,
      "202": 4129,
      "cv12": 4130,
      "bh7": 4131,
      "colli": 4132,
      "2lg": 4133,
      "ssex": 4134,
      "1ea": 4135,
      "6re": 4136,
      "6ry": 4137,
      "196": 4138,
      "ws6": 4139,
      "6au": 4140,
      "2qd": 4141,
      "9bp": 4142,
      "beach": 4143,
      "falcon": 4144,
      "beaumont": 4145,
      "2sh": 4146,
      "4he": 4147,
      "8hg": 4148,
      "nar": 4149,
      "2jd": 4150,
      "7dp": 4151,
      "5pt": 4152,
      "sandown": 4153,
      "frodsham": 4154,
      "cause": 4155,
      "0hp": 4156,
      "3dn": 4157,
      "4ep": 4158,
      "7eb": 4159,
      "8nd": 4160,
      "fz": 4161,
      "plan": 4162,
      "dare": 4163,
      "rm5": 4164,
      "rhyl": 4165,
      "broke": 4166,
      "1jg": 4167,
      "5ax": 4168,
      "cumberland": 4169,
      "0np": 4170,
      "2hl": 4171,
      "3ed": 4172,
      "5nd": 4173,
      "203": 4174,
      "po33": 4175,
      "gu52": 4176,
      "iscombe": 4177,
      "3df": 4178,
      "8df": 4179,
      "2dn": 4180,
      "3na": 4181,
      "7ly": 4182,
      "7eq": 4183,
      "1ns": 4184,
      "8ap": 4185,
      "8aq": 4186,
      "ridgeway": 4187,
      "franc": 4188,
      "9et": 4189,
      "ls14": 4190,
      "ll12": 4191,
      "hu10": 4192,
      "1qt": 4193,
      "1lb": 4194,
      "8bd": 4195,
      "9dj": 4196,
      "7ra": 4197,
      "bn17": 4198,
      "mery": 4199,
      "4qp": 4200,
      "2dh": 4201,
      "3nj": 4202,
      "7en": 4203,
      "9es": 4204,
      "sla": 4205,
      "ch65": 4206,
      "so21": 4207,
      "num": 4208,
      "4bd": 4209,
      "skegness": 4210,
      "1de": 4211,
      "7ad": 4212,
      "billing": 4213,
      "ch64": 4214,
      "ph2": 4215,
      "9je": 4216,
      "4lb": 4217,
      "1sl": 4218,
      "2hp": 4219,
      "7dy": 4220,
      "allo": 4221,
      "bh4": 4222,
      "1nu": 4223,
      "9dh": 4224,
      "8dn": 4225,
      "8ay": 4226,
      "ram": 4227,
      "ss16": 4228,
      "dn16": 4229,
      "gren": 4230,
      "cw7": 4231,
      "3lf": 4232,
      "6jg": 4233,
      "8bl": 4234,
      "8dx": 4235,
      "218": 4236,
      "ab32": 4237,
      "dn36": 4238,
      "1jw": 4239,
      "4jh": 4240,
      "2pu": 4241,
      "8pg": 4242,
      "4dw": 4243,
      "1hy": 4244,
      "220": 4245,
      "5eb": 4246,
      "6ad": 4247,
      "7de": 4248,
      "7eh": 4249,
      "al9": 4250,
      "burnum": 4251,
      "ab41": 4252,
      "221": 4253,
      "4lg": 4254,
      "mitage": 4255,
      "212": 4256,
      "4ea": 4257,
      "8ln": 4258,
      "peck": 4259,
      "1nd": 4260,
      "2jl": 4261,
      "3jh": 4262,
      "3rb": 4263,
      "4du": 4264,
      "6hr": 4265,
      "9al": 4266,
      "umberland": 4267,
      "northumberland": 4268,
      "8jp": 4269,
      "eff": 4270,
      "ne7": 4271,
      "sl0": 4272,
      "rh20": 4273,
      "pershore": 4274,
      "9aj": 4275,
      "0jj": 4276,
      "2lb": 4277,
      "2ar": 4278,
      "4np": 4279,
      "7ay": 4280,
      "pick": 4281,
      "wa6": 4282,
      "ll18": 4283,
      "stown": 4284,
      "3jy": 4285,
      "4ja": 4286,
      "2qh": 4287,
      "godstone": 4288,
      "sheerness": 4289,
      "3hf": 4290,
      "laburnum": 4291,
      "4jt": 4292,
      "1qg": 4293,
      "2bb": 4294,
      "3nx": 4295,
      "lawrence": 4296,
      "1ep": 4297,
      "1hb": 4298,
      "3hp": 4299,
      "4ee": 4300,
      "7au": 4301,
      "5jf": 4302,
      "2bp": 4303,
      "joh": 4304,
      "0lw": 4305,
      "wantage": 4306,
      "9la": 4307,
      "de6": 4308,
      "3qa": 4309,
      "9qp": 4310,
      "6ld": 4311,
      "7nx": 4312,
      "1he": 4313,
      "3al": 4314,
      "3du": 4315,
      "7qu": 4316,
      "8hs": 4317,
      "flo": 4318,
      "ongar": 4319,
      "bru": 4320,
      "7az": 4321,
      "4bx": 4322,
      "johns": 4323,
      "0ay": 4324,
      "pil": 4325,
      "ch60": 4326,
      "back": 4327,
      "dn3": 4328,
      "hp14": 4329,
      "8ag": 4330,
      "2hf": 4331,
      "8pt": 4332,
      "6bg": 4333,
      "2nn": 4334,
      "3hs": 4335,
      "4ns": 4336,
      "beam": 4337,
      "ba3": 4338,
      "2au": 4339,
      "2nu": 4340,
      "3je": 4341,
      "3lu": 4342,
      "9qj": 4343,
      "2pd": 4344,
      "6nl": 4345,
      "wentworth": 4346,
      "2rd": 4347,
      "5dg": 4348,
      "8ea": 4349,
      "doug": 4350,
      "ss11": 4351,
      "ox17": 4352,
      "monmouth": 4353,
      "5dw": 4354,
      "spinney": 4355,
      "4nu": 4356,
      "ite": 4357,
      "ne61": 4358,
      "pe13": 4359,
      "woods": 4360,
      "ll30": 4361,
      "tr11": 4362,
      "2jh": 4363,
      "3jw": 4364,
      "2ps": 4365,
      "2dd": 4366,
      "3nw": 4367,
      "3hd": 4368,
      "4pp": 4369,
      "9nw": 4370,
      "9at": 4371,
      "ast": 4372,
      "fred": 4373,
      "me17": 4374,
      "eh5": 4375,
      "nn13": 4376,
      "7ap": 4377,
      "aberdare": 4378,
      "5ap": 4379,
      "7dt": 4380,
      "0ny": 4381,
      "6ds": 4382,
      "ct2": 4383,
      "6az": 4384,
      "3jb": 4385,
      "bonny": 4386,
      "somerset": 4387,
      "3en": 4388,
      "3ex": 4389,
      "4ra": 4390,
      "4la": 4391,
      "4pa": 4392,
      "chin": 4393,
      "8az": 4394,
      "3jd": 4395,
      "waterside": 4396,
      "4qa": 4397,
      "8qa": 4398,
      "first": 4399,
      "shirley": 4400,
      "4ay": 4401,
      "5hr": 4402,
      "6le": 4403,
      "9hb": 4404,
      "10a": 4405,
      "newland": 4406,
      "1bp": 4407,
      "5au": 4408,
      "3qf": 4409,
      "3dx": 4410,
      "lord": 4411,
      "6ne": 4412,
      "8hx": 4413,
      "boun": 4414,
      "gu24": 4415,
      "dn31": 4416,
      "link": 4417,
      "2nl": 4418,
      "2hh": 4419,
      "2bq": 4420,
      "0ah": 4421,
      "9xt": 4422,
      "douglas": 4423,
      "1ds": 4424,
      "1ph": 4425,
      "ol3": 4426,
      "ab39": 4427,
      "9jt": 4428,
      "2pj": 4429,
      "2pn": 4430,
      "9bq": 4431,
      "6pn": 4432,
      "4nt": 4433,
      "liverpool": 4434,
      "4hs": 4435,
      "8en": 4436,
      "upton": 4437,
      "1as": 4438,
      "8bx": 4439,
      "ravens": 4440,
      "3er": 4441,
      "3dd": 4442,
      "stoneh": 4443,
      "ss5": 4444,
      "gu33": 4445,
      "1az": 4446,
      "8jd": 4447,
      "9ld": 4448,
      "7hg": 4449,
      "8le": 4450,
      "9de": 4451,
      "chol": 4452,
      "1au": 4453,
      "2pq": 4454,
      "8bg": 4455,
      "fk10": 4456,
      "5lb": 4457,
      "9dl": 4458,
      "1ej": 4459,
      "4hr": 4460,
      "6hf": 4461,
      "7ex": 4462,
      "lombard": 4463,
      "sussex": 4464,
      "5bj": 4465,
      "8bw": 4466,
      "shefford": 4467,
      "dalkeith": 4468,
      "1by": 4469,
      "1bn": 4470,
      "4hj": 4471,
      "6dg": 4472,
      "7la": 4473,
      "8al": 4474,
      "8bu": 4475,
      "scott": 4476,
      "yst": 4477,
      "me3": 4478,
      "ts19": 4479,
      "1bx": 4480,
      "holborn": 4481,
      "bells": 4482,
      "6qq": 4483,
      "4bg": 4484,
      "9bs": 4485,
      "0lq": 4486,
      "southwark": 4487,
      "216": 4488,
      "4hd": 4489,
      "6ed": 4490,
      "7es": 4491,
      "1nz": 4492,
      "8jh": 4493,
      "5aw": 4494,
      "belle": 4495,
      "1lg": 4496,
      "giles": 4497,
      "9pe": 4498,
      "208": 4499,
      "4bp": 4500,
      "4lt": 4501,
      "8lg": 4502,
      "7rb": 4503,
      "3ee": 4504,
      "4bh": 4505,
      "5ll": 4506,
      "bn27": 4507,
      "butter": 4508,
      "marga": 4509,
      "2jt": 4510,
      "4jj": 4511,
      "alloa": 4512,
      "215": 4513,
      "4ar": 4514,
      "5hh": 4515,
      "9nn": 4516,
      "blane": 4517,
      "parkside": 4518,
      "sp5": 4519,
      "3bj": 4520,
      "5bs": 4521,
      "0au": 4522,
      "falgar": 4523,
      "trafalgar": 4524,
      "0ab": 4525,
      "1hu": 4526,
      "3np": 4527,
      "mille": 4528,
      "peace": 4529,
      "bn22": 4530,
      "4au": 4531,
      "3lb": 4532,
      "4nl": 4533,
      "6la": 4534,
      "9he": 4535,
      "gat": 4536,
      "de73": 4537,
      "ba21": 4538,
      "ec4y": 4539,
      "rutland": 4540,
      "2nf": 4541,
      "2dw": 4542,
      "7lr": 4543,
      "munster": 4544,
      "5ey": 4545,
      "9hq": 4546,
      "borne": 4547,
      "ls20": 4548,
      "4je": 4549,
      "7ql": 4550,
      "dunblane": 4551,
      "1qu": 4552,
      "2eh": 4553,
      "2ln": 4554,
      "po3": 4555,
      "so17": 4556,
      "pa3": 4557,
      "3jn": 4558,
      "4pg": 4559,
      "3dj": 4560,
      "6dq": 4561,
      "8ey": 4562,
      "ne24": 4563,
      "hp7": 4564,
      "3jx": 4565,
      "5jy": 4566,
      "toot": 4567,
      "2bw": 4568,
      "9qh": 4569,
      "wilson": 4570,
      "0aw": 4571,
      "circle": 4572,
      "addiscombe": 4573,
      "coppice": 4574,
      "1eu": 4575,
      "7da": 4576,
      "7hr": 4577,
      "9hn": 4578,
      "4ju": 4579,
      "hx6": 4580,
      "pontypool": 4581,
      "boundar": 4582,
      "1ay": 4583,
      "1ef": 4584,
      "217": 4585,
      "3ey": 4586,
      "4nn": 4587,
      "5na": 4588,
      "6sg": 4589,
      "7ew": 4590,
      "9ls": 4591,
      "wa12": 4592,
      "ca2": 4593,
      "2ng": 4594,
      "4ld": 4595,
      "4lf": 4596,
      "8dl": 4597,
      "radstock": 4598,
      "6an": 4599,
      "6ab": 4600,
      "9be": 4601,
      "9gd": 4602,
      "osb": 4603,
      "ank": 4604,
      "ught": 4605,
      "6ap": 4606,
      "4jf": 4607,
      "3lz": 4608,
      "ivy": 4609,
      "7lq": 4610,
      "0dj": 4611,
      "5nb": 4612,
      "1bu": 4613,
      "1sy": 4614,
      "2at": 4615,
      "3dr": 4616,
      "6at": 4617,
      "8la": 4618,
      "brick": 4619,
      "ts1": 4620,
      "tot": 4621,
      "hr1": 4622,
      "0az": 4623,
      "sheep": 4624,
      "0bd": 4625,
      "8ba": 4626,
      "tod": 4627,
      "hu16": 4628,
      "cf15": 4629,
      "hp16": 4630,
      "pl25": 4631,
      "bul": 4632,
      "dringham": 4633,
      "blackwood": 4634,
      "8bq": 4635,
      "1df": 4636,
      "7lg": 4637,
      "sandringham": 4638,
      "1le": 4639,
      "net": 4640,
      "2jj": 4641,
      "ml11": 4642,
      "2rj": 4643,
      "8es": 4644,
      "9np": 4645,
      "rother": 4646,
      "co9": 4647,
      "222": 4648,
      "cv47": 4649,
      "bh31": 4650,
      "pastu": 4651,
      "stoney": 4652,
      "wdley": 4653,
      "tr7": 4654,
      "1ql": 4655,
      "cornw": 4656,
      "6pf": 4657,
      "coldharbour": 4658,
      "3pp": 4659,
      "6lu": 4660,
      "sin": 4661,
      "me12": 4662,
      "colwyn": 4663,
      "7bg": 4664,
      "9lh": 4665,
      "0dz": 4666,
      "8hl": 4667,
      "9hw": 4668,
      "4ah": 4669,
      "5af": 4670,
      "7pg": 4671,
      "3ps": 4672,
      "9bd": 4673,
      "1rd": 4674,
      "2th": 4675,
      "219": 4676,
      "3ls": 4677,
      "4dd": 4678,
      "5pa": 4679,
      "aberg": 4680,
      "melrose": 4681,
      "4dh": 4682,
      "9db": 4683,
      "3eg": 4684,
      "7ht": 4685,
      "8ls": 4686,
      "8ll": 4687,
      "vo": 4688,
      "224": 4689,
      "1ja": 4690,
      "1dw": 4691,
      "8db": 4692,
      "4nj": 4693,
      "211": 4694,
      "bun": 4695,
      "ves": 4696,
      "briar": 4697,
      "5qf": 4698,
      "4lp": 4699,
      "4dx": 4700,
      "6lx": 4701,
      "dorset": 4702,
      "1et": 4703,
      "1nn": 4704,
      "3hb": 4705,
      "4ll": 4706,
      "5be": 4707,
      "bewdley": 4708,
      "1na": 4709,
      "np4": 4710,
      "wv16": 4711,
      "9ju": 4712,
      "1ld": 4713,
      "6bl": 4714,
      "2rl": 4715,
      "micha": 4716,
      "9nb": 4717,
      "2de": 4718,
      "4bn": 4719,
      "14a": 4720,
      "1aw": 4721,
      "5aq": 4722,
      "3ju": 4723,
      "1qh": 4724,
      "5bz": 4725,
      "0dh": 4726,
      "9nj": 4727,
      "5hn": 4728,
      "5eu": 4729,
      "7pa": 4730,
      "8ta": 4731,
      "inch": 4732,
      "hatch": 4733,
      "weir": 4734,
      "eh13": 4735,
      "bh10": 4736,
      "2nj": 4737,
      "2ez": 4738,
      "hr4": 4739,
      "4bq": 4740,
      "1pn": 4741,
      "9nl": 4742,
      "lerton": 4743,
      "1ss": 4744,
      "2ls": 4745,
      "4ly": 4746,
      "4hb": 4747,
      "vl": 4748,
      "da6": 4749,
      "newlands": 4750,
      "banchor": 4751,
      "2je": 4752,
      "6jp": 4753,
      "4ql": 4754,
      "1rz": 4755,
      "5ng": 4756,
      "banchory": 4757,
      "2an": 4758,
      "2ra": 4759,
      "2hg": 4760,
      "3bu": 4761,
      "7bh": 4762,
      "7sj": 4763,
      "8ee": 4764,
      "fla": 4765,
      "neston": 4766,
      "de75": 4767,
      "pl9": 4768,
      "tag": 4769,
      "2aw": 4770,
      "2nr": 4771,
      "2ju": 4772,
      "3lr": 4773,
      "2bj": 4774,
      "coron": 4775,
      "8qd": 4776,
      "2lh": 4777,
      "2lq": 4778,
      "7pb": 4779,
      "8dw": 4780,
      "causeway": 4781,
      "2es": 4782,
      "4at": 4783,
      "5eh": 4784,
      "5lu": 4785,
      "lland": 4786,
      "gu8": 4787,
      "lydney": 4788,
      "5jb": 4789,
      "wr10": 4790,
      "9qz": 4791,
      "8qz": 4792,
      "1px": 4793,
      "3pj": 4794,
      "0bj": 4795,
      "3nh": 4796,
      "peacehaven": 4797,
      "1hl": 4798,
      "213": 4799,
      "2he": 4800,
      "3hn": 4801,
      "4eh": 4802,
      "7pl": 4803,
      "9hd": 4804,
      "9hr": 4805,
      "wotton": 4806,
      "pem": 4807,
      "ll13": 4808,
      "5pg": 4809,
      "0qb": 4810,
      "8lb": 4811,
      "4rf": 4812,
      "bordon": 4813,
      "wright": 4814,
      "1at": 4815,
      "2hd": 4816,
      "3dy": 4817,
      "6sb": 4818,
      "8re": 4819,
      "9hu": 4820,
      "9hp": 4821,
      "leon": 4822,
      "ba12": 4823,
      "2ny": 4824,
      "9ag": 4825,
      "ec1y": 4826,
      "cw10": 4827,
      "9yq": 4828,
      "1pl": 4829,
      "3ht": 4830,
      "4tr": 4831,
      "6eg": 4832,
      "7na": 4833,
      "8du": 4834,
      "1bw": 4835,
      "1qb": 4836,
      "0ag": 4837,
      "2dl": 4838,
      "whitehall": 4839,
      "3le": 4840,
      "3ds": 4841,
      "6np": 4842,
      "9hh": 4843,
      "chamber": 4844,
      "barns": 4845,
      "2lt": 4846,
      "1pd": 4847,
      "9pb": 4848,
      "4rb": 4849,
      "nichol": 4850,
      "2bh": 4851,
      "4sg": 4852,
      "5la": 4853,
      "5ht": 4854,
      "7dg": 4855,
      "8tp": 4856,
      "pa2": 4857,
      "3az": 4858,
      "pher": 4859,
      "heathfield": 4860,
      "2qw": 4861,
      "5db": 4862,
      "9bj": 4863,
      "moral": 4864,
      "7rp": 4865,
      "balmoral": 4866,
      "1pa": 4867,
      "3ra": 4868,
      "4et": 4869,
      "6ep": 4870,
      "byron": 4871,
      "brg": 4872,
      "warlingham": 4873,
      "cb3": 4874,
      "9az": 4875,
      "8jr": 4876,
      "3dw": 4877,
      "1pj": 4878,
      "garratt": 4879,
      "estry": 4880,
      "oswestry": 4881,
      "3et": 4882,
      "bloo": 4883,
      "pu": 4884,
      "ene": 4885,
      "peare": 4886,
      "4ax": 4887,
      "1qj": 4888,
      "3bg": 4889,
      "2pw": 4890,
      "tf7": 4891,
      "9lg": 4892,
      "chatsworth": 4893,
      "5ar": 4894,
      "9dr": 4895,
      "hel": 4896,
      "1jx": 4897,
      "canal": 4898,
      "3qn": 4899,
      "6bs": 4900,
      "4bj": 4901,
      "5nj": 4902,
      "227": 4903,
      "bn10": 4904,
      "bute": 4905,
      "bery": 4906,
      "1js": 4907,
      "6aj": 4908,
      "8jx": 4909,
      "3bs": 4910,
      "8qb": 4911,
      "2dz": 4912,
      "7dj": 4913,
      "essle": 4914,
      "223": 4915,
      "5ns": 4916,
      "7bn": 4917,
      "7nd": 4918,
      "cm19": 4919,
      "6je": 4920,
      "3qd": 4921,
      "2ey": 4922,
      "pier": 4923,
      "4le": 4924,
      "9by": 4925,
      "bn13": 4926,
      "sower": 4927,
      "cf38": 4928,
      "2py": 4929,
      "4lr": 4930,
      "3nt": 4931,
      "2pa": 4932,
      "3tz": 4933,
      "9ln": 4934,
      "juni": 4935,
      "225": 4936,
      "rh5": 4937,
      "2jn": 4938,
      "conna": 4939,
      "3db": 4940,
      "tf10": 4941,
      "4bs": 4942,
      "1dt": 4943,
      "6dx": 4944,
      "connaught": 4945,
      "0al": 4946,
      "4de": 4947,
      "4ds": 4948,
      "6ly": 4949,
      "8eh": 4950,
      "beth": 4951,
      "lie": 4952,
      "sg7": 4953,
      "6ja": 4954,
      "4ng": 4955,
      "totnes": 4956,
      "1ed": 4957,
      "3bh": 4958,
      "nia": 4959,
      "twe": 4960,
      "fitz": 4961,
      "4jn": 4962,
      "2hb": 4963,
      "7df": 4964,
      "knights": 4965,
      "juniper": 4966,
      "5pp": 4967,
      "6ln": 4968,
      "7ee": 4969,
      "edale": 4970,
      "ox12": 4971,
      "hd5": 4972,
      "9qa": 4973,
      "6qa": 4974,
      "5lt": 4975,
      "6lr": 4976,
      "kenley": 4977,
      "charlton": 4978,
      "sherwood": 4979,
      "turn": 4980,
      "4sa": 4981,
      "6bu": 4982,
      "yew": 4983,
      "swi": 4984,
      "avenny": 4985,
      "dn20": 4986,
      "1nt": 4987,
      "1bl": 4988,
      "sydenham": 4989,
      "9jr": 4990,
      "5bg": 4991,
      "2lw": 4992,
      "fk15": 4993,
      "8rj": 4994,
      "4sl": 4995,
      "4ph": 4996,
      "5at": 4997,
      "5pr": 4998,
      "5tn": 4999,
      "brock": 5000,
      "grand": 5001,
      "cb10": 5002,
      "4jw": 5003,
      "2lf": 5004,
      "1dj": 5005,
      "9bg": 5006,
      "5lf": 5007,
      "9dp": 5008,
      "osborne": 5009,
      "1ry": 5010,
      "waverley": 5011,
      "rail": 5012,
      "po30": 5013,
      "sg17": 5014,
      "5jj": 5015,
      "5jt": 5016,
      "bracken": 5017,
      "7qh": 5018,
      "0ax": 5019,
      "5lr": 5020,
      "2dg": 5021,
      "4pe": 5022,
      "5en": 5023,
      "6er": 5024,
      "6ar": 5025,
      "jack": 5026,
      "ec3n": 5027,
      "9jf": 5028,
      "2hy": 5029,
      "1lw": 5030,
      "8dh": 5031,
      "kespeare": 5032,
      "shakespeare": 5033,
      "henry": 5034,
      "abergavenny": 5035,
      "0ne": 5036,
      "1hs": 5037,
      "9hx": 5038,
      "bdge": 5039,
      "cairn": 5040,
      "ab31": 5041,
      "gl15": 5042,
      "2js": 5043,
      "0lr": 5044,
      "johnstone": 5045,
      "tooting": 5046,
      "4rh": 5047,
      "elly": 5048,
      "9qe": 5049,
      "0lh": 5050,
      "coronation": 5051,
      "1dr": 5052,
      "2tw": 5053,
      "5es": 5054,
      "7ns": 5055,
      "9eh": 5056,
      "ss3": 5057,
      "2qt": 5058,
      "seymour": 5059,
      "9px": 5060,
      "9bt": 5061,
      "6lf": 5062,
      "hunters": 5063,
      "0hd": 5064,
      "231": 5065,
      "bn16": 5066,
      "perry": 5067,
      "4jr": 5068,
      "8bt": 5069,
      "sowerby": 5070,
      "8hz": 5071,
      "gu35": 5072,
      "1qa": 5073,
      "5bl": 5074,
      "2dq": 5075,
      "5df": 5076,
      "2rg": 5077,
      "dursley": 5078,
      "normanton": 5079,
      "3hy": 5080,
      "7hd": 5081,
      "9an": 5082,
      "9ay": 5083,
      "pat": 5084,
      "strand": 5085,
      "2jx": 5086,
      "wareham": 5087,
      "8qq": 5088,
      "7qb": 5089,
      "7qt": 5090,
      "6dr": 5091,
      "tenn": 5092,
      "da3": 5093,
      "pe14": 5094,
      "241": 5095,
      "westminster": 5096,
      "bh2": 5097,
      "tay": 5098,
      "8je": 5099,
      "9dw": 5100,
      "2tb": 5101,
      "3hz": 5102,
      "4ex": 5103,
      "8w": 5104,
      "8hf": 5105,
      "gte": 5106,
      "rasen": 5107,
      "229": 5108,
      "5ql": 5109,
      "2eu": 5110,
      "5dp": 5111,
      "5pn": 5112,
      "3sy": 5113,
      "3ph": 5114,
      "7et": 5115,
      "7hb": 5116,
      "8ej": 5117,
      "hessle": 5118,
      "nett": 5119,
      "ch49": 5120,
      "lotte": 5121,
      "higher": 5122,
      "ct19": 5123,
      "scar": 5124,
      "2nh": 5125,
      "6jx": 5126,
      "7bw": 5127,
      "6bw": 5128,
      "0ba": 5129,
      "0dg": 5130,
      "0nd": 5131,
      "1hf": 5132,
      "5dn": 5133,
      "5ua": 5134,
      "6eb": 5135,
      "9ny": 5136,
      "westbourne": 5137,
      "mk44": 5138,
      "sgow": 5139,
      "8jj": 5140,
      "5jg": 5141,
      "3qr": 5142,
      "4bb": 5143,
      "8rb": 5144,
      "tic": 5145,
      "veland": 5146,
      "glasgow": 5147,
      "0eg": 5148,
      "0hf": 5149,
      "ina": 5150,
      "wf9": 5151,
      "berwick": 5152,
      "8jn": 5153,
      "7jd": 5154,
      "2lr": 5155,
      "pond": 5156,
      "0dl": 5157,
      "charlotte": 5158,
      "lauder": 5159,
      "5hq": 5160,
      "6be": 5161,
      "6ej": 5162,
      "7dd": 5163,
      "9sp": 5164,
      "9hl": 5165,
      "cad": 5166,
      "wyth": 5167,
      "isborough": 5168,
      "berts": 5169,
      "5jh": 5170,
      "5qq": 5171,
      "2pt": 5172,
      "8bp": 5173,
      "4lz": 5174,
      "6pq": 5175,
      "8rx": 5176,
      "copper": 5177,
      "3pe": 5178,
      "5hy": 5179,
      "8dr": 5180,
      "8hq": 5181,
      "kend": 5182,
      "cr6": 5183,
      "hp18": 5184,
      "2nq": 5185,
      "1qr": 5186,
      "5jq": 5187,
      "hermitage": 5188,
      "3ng": 5189,
      "montgo": 5190,
      "cottingham": 5191,
      "3rs": 5192,
      "ta2": 5193,
      "1nr": 5194,
      "1qn": 5195,
      "9qq": 5196,
      "7bz": 5197,
      "stanton": 5198,
      "tq3": 5199,
      "drum": 5200,
      "boundary": 5201,
      "9lu": 5202,
      "pe26": 5203,
      "4jd": 5204,
      "5lw": 5205,
      "6lh": 5206,
      "8lh": 5207,
      "5nq": 5208,
      "david": 5209,
      "4dr": 5210,
      "5nr": 5211,
      "7by": 5212,
      "9sb": 5213,
      "flower": 5214,
      "16a": 5215,
      "oldfield": 5216,
      "5jl": 5217,
      "3lt": 5218,
      "3qe": 5219,
      "4lj": 5220,
      "9bz": 5221,
      "6dl": 5222,
      "0qe": 5223,
      "8lq": 5224,
      "sawbridge": 5225,
      "7pp": 5226,
      "9eu": 5227,
      "smere": 5228,
      "carter": 5229,
      "5pj": 5230,
      "chalfont": 5231,
      "5er": 5232,
      "ag": 5233,
      "dermere": 5234,
      "cf32": 5235,
      "westwood": 5236,
      "2ns": 5237,
      "9jy": 5238,
      "2bz": 5239,
      "oaklands": 5240,
      "1lf": 5241,
      "5lh": 5242,
      "sawbridgeworth": 5243,
      "rell": 5244,
      "6jz": 5245,
      "3qw": 5246,
      "3qx": 5247,
      "0ae": 5248,
      "9lq": 5249,
      "9pt": 5250,
      "1sp": 5251,
      "4el": 5252,
      "9pp": 5253,
      "hei": 5254,
      "harry": 5255,
      "pa16": 5256,
      "hg4": 5257,
      "tf9": 5258,
      "0ry": 5259,
      "3ew": 5260,
      "6nu": 5261,
      "9en": 5262,
      "9ea": 5263,
      "glan": 5264,
      "why": 5265,
      "gl6": 5266,
      "8jl": 5267,
      "5dz": 5268,
      "9rg": 5269,
      "glaston": 5270,
      "0at": 5271,
      "0hw": 5272,
      "fry": 5273,
      "vington": 5274,
      "237": 5275,
      "ox33": 5276,
      "cf44": 5277,
      "2nz": 5278,
      "9jh": 5279,
      "2bl": 5280,
      "0dp": 5281,
      "1dn": 5282,
      "5ra": 5283,
      "5hs": 5284,
      "9ex": 5285,
      "esse": 5286,
      "15a": 5287,
      "de3": 5288,
      "cm18": 5289,
      "6jt": 5290,
      "7pf": 5291,
      "5rf": 5292,
      "eastern": 5293,
      "ludlow": 5294,
      "3eb": 5295,
      "7ey": 5296,
      "8np": 5297,
      "8hh": 5298,
      "eter": 5299,
      "lewis": 5300,
      "dn2": 5301,
      "rh17": 5302,
      "windermere": 5303,
      "4qs": 5304,
      "6lb": 5305,
      "4nr": 5306,
      "4ny": 5307,
      "6he": 5308,
      "6eh": 5309,
      "9nr": 5310,
      "light": 5311,
      "ct16": 5312,
      "6jj": 5313,
      "4lx": 5314,
      "sheen": 5315,
      "0nx": 5316,
      "drake": 5317,
      "railway": 5318,
      "3rd": 5319,
      "5et": 5320,
      "6bh": 5321,
      "9ds": 5322,
      "oth": 5323,
      "brixton": 5324,
      "6bx": 5325,
      "4bw": 5326,
      "6lj": 5327,
      "6lq": 5328,
      "3hh": 5329,
      "5hp": 5330,
      "5ex": 5331,
      "8hn": 5332,
      "9hf": 5333,
      "shurst": 5334,
      "dn37": 5335,
      "tq14": 5336,
      "6qb": 5337,
      "5dq": 5338,
      "1dz": 5339,
      "9dx": 5340,
      "0db": 5341,
      "arthur": 5342,
      "heaton": 5343,
      "0ha": 5344,
      "2nw": 5345,
      "6ey": 5346,
      "7ed": 5347,
      "chea": 5348,
      "cf63": 5349,
      "mk11": 5350,
      "wc1a": 5351,
      "np7": 5352,
      "9ax": 5353,
      "3bb": 5354,
      "7qw": 5355,
      "4bl": 5356,
      "6dj": 5357,
      "ystwyth": 5358,
      "3rh": 5359,
      "swa": 5360,
      "stol": 5361,
      "228": 5362,
      "wys": 5363,
      "cm0": 5364,
      "tq4": 5365,
      "mpson": 5366,
      "gow": 5367,
      "0rn": 5368,
      "glastonbury": 5369,
      "3ny": 5370,
      "5he": 5371,
      "6hl": 5372,
      "7pe": 5373,
      "9le": 5374,
      "bworth": 5375,
      "cromar": 5376,
      "1np": 5377,
      "aberystwyth": 5378,
      "7jb": 5379,
      "3bx": 5380,
      "6df": 5381,
      "7lz": 5382,
      "3ez": 5383,
      "4dn": 5384,
      "5ez": 5385,
      "6hs": 5386,
      "9ef": 5387,
      "ca1": 5388,
      "233": 5389,
      "7as": 5390,
      "6jy": 5391,
      "5qg": 5392,
      "0jt": 5393,
      "7dh": 5394,
      "8dj": 5395,
      "8ld": 5396,
      "avondale": 5397,
      "holmes": 5398,
      "brdg": 5399,
      "montgomery": 5400,
      "0eh": 5401,
      "0eb": 5402,
      "3hw": 5403,
      "7nu": 5404,
      "8et": 5405,
      "8pe": 5406,
      "mul": 5407,
      "pol": 5408,
      "wey": 5409,
      "230": 5410,
      "232": 5411,
      "1ny": 5412,
      "5az": 5413,
      "6qe": 5414,
      "9lr": 5415,
      "4nq": 5416,
      "4pl": 5417,
      "5ga": 5418,
      "8ht": 5419,
      "8eq": 5420,
      "chad": 5421,
      "bh13": 5422,
      "np16": 5423,
      "9aw": 5424,
      "9jg": 5425,
      "5qh": 5426,
      "6qg": 5427,
      "2df": 5428,
      "3rg": 5429,
      "liversedge": 5430,
      "todmorden": 5431,
      "0dr": 5432,
      "0ns": 5433,
      "3ly": 5434,
      "6nr": 5435,
      "250": 5436,
      "7jj": 5437,
      "5qp": 5438,
      "6db": 5439,
      "1su": 5440,
      "7hu": 5441,
      "7bu": 5442,
      "7lu": 5443,
      "cil": 5444,
      "walnut": 5445,
      "dul": 5446,
      "sy23": 5447,
      "2qn": 5448,
      "3rf": 5449,
      "0bt": 5450,
      "4nb": 5451,
      "ingatestone": 5452,
      "1sw": 5453,
      "3re": 5454,
      "3eu": 5455,
      "4hg": 5456,
      "6hp": 5457,
      "7hy": 5458,
      "7hw": 5459,
      "burns": 5460,
      "mk15": 5461,
      "gl11": 5462,
      "1ax": 5463,
      "2jz": 5464,
      "1qx": 5465,
      "8qr": 5466,
      "1uh": 5467,
      "2ul": 5468,
      "2sf": 5469,
      "9ns": 5470,
      "ch42": 5471,
      "236": 5472,
      "251": 5473,
      "1jy": 5474,
      "4jx": 5475,
      "9lb": 5476,
      "5lp": 5477,
      "9df": 5478,
      "staple": 5479,
      "6px": 5480,
      "8ng": 5481,
      "2ly": 5482,
      "2du": 5483,
      "6et": 5484,
      "9bu": 5485,
      "dick": 5486,
      "imer": 5487,
      "lil": 5488,
      "4js": 5489,
      "2hx": 5490,
      "6jr": 5491,
      "3qp": 5492,
      "0pd": 5493,
      "2pr": 5494,
      "5bu": 5495,
      "os": 5496,
      "ne16": 5497,
      "bristol": 5498,
      "243": 5499,
      "9qn": 5500,
      "banks": 5501,
      "4nf": 5502,
      "margaret": 5503,
      "0pr": 5504,
      "2re": 5505,
      "4nw": 5506,
      "4hp": 5507,
      "9dd": 5508,
      "9sa": 5509,
      "hou": 5510,
      "une": 5511,
      "ch47": 5512,
      "8aw": 5513,
      "3bl": 5514,
      "0jr": 5515,
      "0as": 5516,
      "1rr": 5517,
      "6ay": 5518,
      "nis": 5519,
      "bn23": 5520,
      "eagle": 5521,
      "steyn": 5522,
      "7bl": 5523,
      "7bq": 5524,
      "5bt": 5525,
      "6lw": 5526,
      "4ew": 5527,
      "aca": 5528,
      "235": 5529,
      "sp4": 5530,
      "2jq": 5531,
      "3jg": 5532,
      "0jw": 5533,
      "4df": 5534,
      "8dq": 5535,
      "0hz": 5536,
      "6ef": 5537,
      "cin": 5538,
      "kt23": 5539,
      "ttingham": 5540,
      "8qx": 5541,
      "7nh": 5542,
      "mortimer": 5543,
      "8rr": 5544,
      "9bn": 5545,
      "ts6": 5546,
      "bigh": 5547,
      "coniston": 5548,
      "2hw": 5549,
      "mains": 5550,
      "7lt": 5551,
      "6pb": 5552,
      "francis": 5553,
      "acacia": 5554,
      "1ht": 5555,
      "1tl": 5556,
      "3ns": 5557,
      "9qu": 5558,
      "ip": 5559,
      "18a": 5560,
      "ss17": 5561,
      "denbigh": 5562,
      "np12": 5563,
      "wv12": 5564,
      "5jn": 5565,
      "9qs": 5566,
      "1rw": 5567,
      "6pt": 5568,
      "8lz": 5569,
      "1te": 5570,
      "1un": 5571,
      "7sa": 5572,
      "8hj": 5573,
      "wg": 5574,
      "wad": 5575,
      "illi": 5576,
      "guisborough": 5577,
      "ffol": 5578,
      "foot": 5579,
      "larch": 5580,
      "2ta": 5581,
      "7rs": 5582,
      "8he": 5583,
      "8sn": 5584,
      "9ht": 5585,
      "hu6": 5586,
      "mbank": 5587,
      "7je": 5588,
      "2hz": 5589,
      "8qe": 5590,
      "8qj": 5591,
      "horton": 5592,
      "4dt": 5593,
      "clayton": 5594,
      "1ts": 5595,
      "1hz": 5596,
      "7he": 5597,
      "elland": 5598,
      "cather": 5599,
      "17a": 5600,
      "nover": 5601,
      "8qp": 5602,
      "1pf": 5603,
      "1rf": 5604,
      "3rl": 5605,
      "7nq": 5606,
      "ffordd": 5607,
      "0en": 5608,
      "2se": 5609,
      "3st": 5610,
      "3ne": 5611,
      "5hz": 5612,
      "9eg": 5613,
      "9eq": 5614,
      "hanover": 5615,
      "swal": 5616,
      "245": 5617,
      "ws4": 5618,
      "cm21": 5619,
      "tash": 5620,
      "6jb": 5621,
      "3qt": 5622,
      "5qt": 5623,
      "0jy": 5624,
      "9pu": 5625,
      "7lx": 5626,
      "murray": 5627,
      "2pl": 5628,
      "4er": 5629,
      "8pa": 5630,
      "kingfisher": 5631,
      "adela": 5632,
      "gu6": 5633,
      "2nb": 5634,
      "4jg": 5635,
      "suffol": 5636,
      "2hs": 5637,
      "grafton": 5638,
      "0nf": 5639,
      "kilburn": 5640,
      "heights": 5641,
      "suffolk": 5642,
      "cb11": 5643,
      "5js": 5644,
      "4px": 5645,
      "midland": 5646,
      "1lx": 5647,
      "8lj": 5648,
      "0ps": 5649,
      "hebden": 5650,
      "1td": 5651,
      "2rr": 5652,
      "5ep": 5653,
      "7er": 5654,
      "elder": 5655,
      "lesham": 5656,
      "2jw": 5657,
      "wv5": 5658,
      "7jt": 5659,
      "penz": 5660,
      "7qj": 5661,
      "4dq": 5662,
      "birmingham": 5663,
      "bolton": 5664,
      "saltburn": 5665,
      "stonehouse": 5666,
      "1st": 5667,
      "7el": 5668,
      "8se": 5669,
      "8hd": 5670,
      "9hy": 5671,
      "ginger": 5672,
      "ls23": 5673,
      "harwich": 5674,
      "crouch": 5675,
      "4jy": 5676,
      "4qr": 5677,
      "2ej": 5678,
      "lent": 5679,
      "caldi": 5680,
      "steyning": 5681,
      "0be": 5682,
      "5hl": 5683,
      "7sh": 5684,
      "9dy": 5685,
      "gwy": 5686,
      "roberts": 5687,
      "bourn": 5688,
      "5qs": 5689,
      "5pd": 5690,
      "0bs": 5691,
      "graham": 5692,
      "larkhall": 5693,
      "4by": 5694,
      "cray": 5695,
      "ne10": 5696,
      "press": 5697,
      "bathgate": 5698,
      "1lz": 5699,
      "6bp": 5700,
      "5nl": 5701,
      "1pr": 5702,
      "3sb": 5703,
      "3eq": 5704,
      "4hf": 5705,
      "5pl": 5706,
      "7nr": 5707,
      "8by": 5708,
      "8ef": 5709,
      "ada": 5710,
      "9jx": 5711,
      "6jd": 5712,
      "4bz": 5713,
      "4lq": 5714,
      "3px": 5715,
      "0bl": 5716,
      "5nh": 5717,
      "swallow": 5718,
      "tat": 5719,
      "craven": 5720,
      "21a": 5721,
      "stockwell": 5722,
      "wf15": 5723,
      "barnes": 5724,
      "7ja": 5725,
      "3lx": 5726,
      "3qg": 5727,
      "5bw": 5728,
      "5qn": 5729,
      "queenstown": 5730,
      "palmerston": 5731,
      "5nn": 5732,
      "psy": 5733,
      "avel": 5734,
      "pl2": 5735,
      "3qs": 5736,
      "9qt": 5737,
      "redruth": 5738,
      "8qt": 5739,
      "8pb": 5740,
      "cleveland": 5741,
      "9nq": 5742,
      "0rb": 5743,
      "penzance": 5744,
      "0et": 5745,
      "5pe": 5746,
      "cus": 5747,
      "ta21": 5748,
      "1nf": 5749,
      "7jr": 5750,
      "6jq": 5751,
      "2eq": 5752,
      "lingfield": 5753,
      "7pt": 5754,
      "9pf": 5755,
      "3nq": 5756,
      "porley": 5757,
      "2yl": 5758,
      "tarporley": 5759,
      "1pp": 5760,
      "3nn": 5761,
      "7hs": 5762,
      "eng": 5763,
      "alfred": 5764,
      "np18": 5765,
      "barrow": 5766,
      "9qr": 5767,
      "9lp": 5768,
      "5lz": 5769,
      "caldicot": 5770,
      "0hh": 5771,
      "4hq": 5772,
      "6ph": 5773,
      "9ep": 5774,
      "9rs": 5775,
      "tol": 5776,
      "19a": 5777,
      "leside": 5778,
      "3jt": 5779,
      "6qj": 5780,
      "1pq": 5781,
      "8nx": 5782,
      "fairway": 5783,
      "0nt": 5784,
      "dingwall": 5785,
      "michael": 5786,
      "0ee": 5787,
      "2te": 5788,
      "3ln": 5789,
      "3sj": 5790,
      "6du": 5791,
      "8th": 5792,
      "8rh": 5793,
      "ch61": 5794,
      "millbrook": 5795,
      "4jz": 5796,
      "malt": 5797,
      "4qg": 5798,
      "0aj": 5799,
      "morton": 5800,
      "0ej": 5801,
      "1ne": 5802,
      "7ep": 5803,
      "8nr": 5804,
      "9hg": 5805,
      "tbury": 5806,
      "short": 5807,
      "ll29": 5808,
      "newtown": 5809,
      "bn12": 5810,
      "sk23": 5811,
      "lind": 5812,
      "3rp": 5813,
      "0rj": 5814,
      "adelaide": 5815,
      "0de": 5816,
      "5du": 5817,
      "6hh": 5818,
      "8hr": 5819,
      "kne": 5820,
      "cath": 5821,
      "4qe": 5822,
      "6qd": 5823,
      "ky7": 5824,
      "9bb": 5825,
      "6lt": 5826,
      "6rf": 5827,
      "grasmere": 5828,
      "6nb": 5829,
      "3ru": 5830,
      "4eg": 5831,
      "6pl": 5832,
      "6na": 5833,
      "7ne": 5834,
      "7np": 5835,
      "8st": 5836,
      "ont": 5837,
      "5qe": 5838,
      "2pf": 5839,
      "3pd": 5840,
      "8rl": 5841,
      "6ru": 5842,
      "cly": 5843,
      "ca11": 5844,
      "249": 5845,
      "cm4": 5846,
      "brockley": 5847,
      "3ql": 5848,
      "4qx": 5849,
      "iv1": 5850,
      "8nj": 5851,
      "0ex": 5852,
      "5hx": 5853,
      "6hg": 5854,
      "6pp": 5855,
      "8bn": 5856,
      "crie": 5857,
      "arch": 5858,
      "cf36": 5859,
      "lyon": 5860,
      "np26": 5861,
      "holt": 5862,
      "2jf": 5863,
      "5jz": 5864,
      "9jl": 5865,
      "9qb": 5866,
      "8lf": 5867,
      "cler": 5868,
      "0dx": 5869,
      "8nh": 5870,
      "5rx": 5871,
      "0ln": 5872,
      "5rd": 5873,
      "wc2n": 5874,
      "6jh": 5875,
      "4ps": 5876,
      "tq9": 5877,
      "0je": 5878,
      "5lx": 5879,
      "6lg": 5880,
      "3su": 5881,
      "3tq": 5882,
      "3hx": 5883,
      "4tl": 5884,
      "6ls": 5885,
      "7ll": 5886,
      "8ew": 5887,
      "8ua": 5888,
      "9rr": 5889,
      "ott": 5890,
      "send": 5891,
      "ca3": 5892,
      "ec2r": 5893,
      "northfield": 5894,
      "0jp": 5895,
      "9bw": 5896,
      "8lr": 5897,
      "8nl": 5898,
      "vaux": 5899,
      "curtain": 5900,
      "laurel": 5901,
      "dolph": 5902,
      "1sr": 5903,
      "5re": 5904,
      "8dg": 5905,
      "9ra": 5906,
      "ans": 5907,
      "ba5": 5908,
      "keley": 5909,
      "wych": 5910,
      "4pj": 5911,
      "7qs": 5912,
      "8lp": 5913,
      "0dt": 5914,
      "stuart": 5915,
      "6hy": 5916,
      "7ds": 5917,
      "gou": 5918,
      "tri": 5919,
      "brixham": 5920,
      "potter": 5921,
      "ws8": 5922,
      "7aq": 5923,
      "2qf": 5924,
      "3qy": 5925,
      "9ql": 5926,
      "4pb": 5927,
      "4qh": 5928,
      "herbert": 5929,
      "0bp": 5930,
      "8rf": 5931,
      "wc1v": 5932,
      "wandsworth": 5933,
      "0lu": 5934,
      "3nu": 5935,
      "4es": 5936,
      "6ex": 5937,
      "8ez": 5938,
      "thir": 5939,
      "chap": 5940,
      "butts": 5941,
      "2qs": 5942,
      "5jr": 5943,
      "9jp": 5944,
      "9bx": 5945,
      "5ld": 5946,
      "4nh": 5947,
      "7nl": 5948,
      "campbell": 5949,
      "5ph": 5950,
      "lewi": 5951,
      "camber": 5952,
      "pe25": 5953,
      "path": 5954,
      "greenhill": 5955,
      "mstead": 5956,
      "hx7": 5957,
      "shepher": 5958,
      "2rf": 5959,
      "ferndale": 5960,
      "3pr": 5961,
      "6hd": 5962,
      "7ls": 5963,
      "nell": 5964,
      "py": 5965,
      "wing": 5966,
      "alma": 5967,
      "247": 5968,
      "bh16": 5969,
      "2qg": 5970,
      "9js": 5971,
      "6qp": 5972,
      "1pu": 5973,
      "1dq": 5974,
      "parc": 5975,
      "fairview": 5976,
      "9ed": 5977,
      "ball": 5978,
      "baker": 5979,
      "1jz": 5980,
      "3jz": 5981,
      "4pn": 5982,
      "4qt": 5983,
      "6bz": 5984,
      "saltash": 5985,
      "ssel": 5986,
      "5nx": 5987,
      "7rg": 5988,
      "grace": 5989,
      "6ng": 5990,
      "cornwall": 5991,
      "3pl": 5992,
      "8sb": 5993,
      "9ey": 5994,
      "ffield": 5995,
      "enter": 5996,
      "spit": 5997,
      "oakfield": 5998,
      "6bq": 5999,
      "1pw": 6000,
      "4rt": 6001,
      "0hu": 6002,
      "1tx": 6003,
      "3tj": 6004,
      "6td": 6005,
      "8ds": 6006,
      "roe": 6007,
      "ands": 6008,
      "nwick": 6009,
      "twr": 6010,
      "kt24": 6011,
      "lesley": 6012,
      "sp11": 6013,
      "wc2a": 6014,
      "5jd": 6015,
      "9jb": 6016,
      "9ps": 6017,
      "ebb": 6018,
      "7nb": 6019,
      "keswick": 6020,
      "hebburn": 6021,
      "camberwell": 6022,
      "0nw": 6023,
      "2sd": 6024,
      "5ue": 6025,
      "6ee": 6026,
      "8ra": 6027,
      "8rs": 6028,
      "9pl": 6029,
      "stand": 6030,
      "enna": 6031,
      "gu3": 6032,
      "8jf": 6033,
      "7jq": 6034,
      "7bf": 6035,
      "ky8": 6036,
      "3rr": 6037,
      "5ej": 6038,
      "8nu": 6039,
      "vir": 6040,
      "champ": 6041,
      "whitton": 6042,
      "2qj": 6043,
      "8bs": 6044,
      "7px": 6045,
      "5lq": 6046,
      "7lw": 6047,
      "5py": 6048,
      "surrey": 6049,
      "shelley": 6050,
      "3sa": 6051,
      "8tl": 6052,
      "emp": 6053,
      "rison": 6054,
      "234": 6055,
      "2qr": 6056,
      "9qf": 6057,
      "brookside": 6058,
      "7ld": 6059,
      "1rj": 6060,
      "7rl": 6061,
      "7nj": 6062,
      "schol": 6063,
      "bellshill": 6064,
      "vauxhall": 6065,
      "2tj": 6066,
      "6dn": 6067,
      "7re": 6068,
      "deep": 6069,
      "hexham": 6070,
      "pound": 6071,
      "eh22": 6072,
      "240": 6073,
      "4jq": 6074,
      "8qh": 6075,
      "6py": 6076,
      "stephenson": 6077,
      "1sb": 6078,
      "5nw": 6079,
      "6ra": 6080,
      "7hl": 6081,
      "thi": 6082,
      "woodhall": 6083,
      "ts22": 6084,
      "261": 6085,
      "6qw": 6086,
      "5ew": 6087,
      "8hy": 6088,
      "embank": 6089,
      "newhaven": 6090,
      "238": 6091,
      "gay": 6092,
      "2jy": 6093,
      "wv8": 6094,
      "6jl": 6095,
      "brookfield": 6096,
      "downham": 6097,
      "8rn": 6098,
      "9ng": 6099,
      "middleton": 6100,
      "embankment": 6101,
      "1hw": 6102,
      "7hx": 6103,
      "ol14": 6104,
      "bh5": 6105,
      "plu": 6106,
      "0aq": 6107,
      "0lt": 6108,
      "1tw": 6109,
      "7pr": 6110,
      "8eg": 6111,
      "9nd": 6112,
      "255": 6113,
      "258": 6114,
      "southgate": 6115,
      "1nx": 6116,
      "sydney": 6117,
      "4qf": 6118,
      "6ql": 6119,
      "8bz": 6120,
      "7lf": 6121,
      "miles": 6122,
      "3te": 6123,
      "7eu": 6124,
      "ik": 6125,
      "int": 6126,
      "239": 6127,
      "ox15": 6128,
      "ts14": 6129,
      "chau": 6130,
      "9jd": 6131,
      "6dw": 6132,
      "kingsbridge": 6133,
      "0bn": 6134,
      "6hz": 6135,
      "6hw": 6136,
      "seley": 6137,
      "8ju": 6138,
      "7js": 6139,
      "2qq": 6140,
      "fy7": 6141,
      "stanhope": 6142,
      "7qn": 6143,
      "wilbury": 6144,
      "0bq": 6145,
      "4rp": 6146,
      "8rg": 6147,
      "5rj": 6148,
      "5rp": 6149,
      "scholars": 6150,
      "5z": 6151,
      "5hu": 6152,
      "5sl": 6153,
      "5hg": 6154,
      "6eq": 6155,
      "8ns": 6156,
      "9ll": 6157,
      "9nu": 6158,
      "sco": 6159,
      "kingswood": 6160,
      "third": 6161,
      "ct3": 6162,
      "gl54": 6163,
      "pl5": 6164,
      "clark": 6165,
      "5jp": 6166,
      "3qh": 6167,
      "luke": 6168,
      "9lw": 6169,
      "7pj": 6170,
      "7pu": 6171,
      "4nx": 6172,
      "2sp": 6173,
      "3ry": 6174,
      "3qu": 6175,
      "4ry": 6176,
      "aston": 6177,
      "fu": 6178,
      "manning": 6179,
      "morris": 6180,
      "9rp": 6181,
      "beaufort": 6182,
      "0ef": 6183,
      "7le": 6184,
      "fell": 6185,
      "23a": 6186,
      "denmark": 6187,
      "9qy": 6188,
      "shan": 6189,
      "kinross": 6190,
      "chinnor": 6191,
      "4lu": 6192,
      "xwell": 6193,
      "derick": 6194,
      "dn10": 6195,
      "wf6": 6196,
      "haymarket": 6197,
      "7bp": 6198,
      "2rw": 6199,
      "mile": 6200,
      "crieff": 6201,
      "chaucer": 6202,
      "1tb": 6203,
      "1tj": 6204,
      "1uj": 6205,
      "allen": 6206,
      "ne31": 6207,
      "wye": 6208,
      "cb21": 6209,
      "hx5": 6210,
      "8py": 6211,
      "clifford": 6212,
      "4dz": 6213,
      "7lb": 6214,
      "0lx": 6215,
      "8nt": 6216,
      "whyte": 6217,
      "0by": 6218,
      "4su": 6219,
      "8hu": 6220,
      "8lu": 6221,
      "9hs": 6222,
      "tce": 6223,
      "ency": 6224,
      "ne13": 6225,
      "deer": 6226,
      "croxted": 6227,
      "solent": 6228,
      "cw6": 6229,
      "5ju": 6230,
      "0jh": 6231,
      "heron": 6232,
      "1py": 6233,
      "3pf": 6234,
      "2rq": 6235,
      "3nf": 6236,
      "regency": 6237,
      "0el": 6238,
      "0ep": 6239,
      "0hl": 6240,
      "1ta": 6241,
      "1ug": 6242,
      "1sx": 6243,
      "4hz": 6244,
      "6ll": 6245,
      "6ns": 6246,
      "7at": 6247,
      "7tb": 6248,
      "9sg": 6249,
      "bland": 6250,
      "nav": 6251,
      "22a": 6252,
      "uppr": 6253,
      "6jn": 6254,
      "3qj": 6255,
      "9qx": 6256,
      "3pu": 6257,
      "0qa": 6258,
      "8lt": 6259,
      "walker": 6260,
      "9nf": 6261,
      "cottles": 6262,
      "1ru": 6263,
      "8pr": 6264,
      "jor": 6265,
      "dno": 6266,
      "269": 6267,
      "winsley": 6268,
      "6jf": 6269,
      "4pd": 6270,
      "6pd": 6271,
      "5nf": 6272,
      "4qu": 6273,
      "4sd": 6274,
      "7ez": 6275,
      "eton": 6276,
      "morn": 6277,
      "upr": 6278,
      "day": 6279,
      "ba6": 6280,
      "pl12": 6281,
      "np11": 6282,
      "7ju": 6283,
      "stansted": 6284,
      "8pu": 6285,
      "3rq": 6286,
      "3sd": 6287,
      "6pe": 6288,
      "6hq": 6289,
      "dridge": 6290,
      "slade": 6291,
      "8lw": 6292,
      "cupar": 6293,
      "hind": 6294,
      "enterpri": 6295,
      "1ua": 6296,
      "8gb": 6297,
      "9tb": 6298,
      "dsworth": 6299,
      "aday": 6300,
      "ss13": 6301,
      "242": 6302,
      "ub9": 6303,
      "mars": 6304,
      "faraday": 6305,
      "7jh": 6306,
      "1qf": 6307,
      "7py": 6308,
      "horpe": 6309,
      "5lg": 6310,
      "0qf": 6311,
      "9rb": 6312,
      "strath": 6313,
      "0ey": 6314,
      "5rh": 6315,
      "7ln": 6316,
      "plough": 6317,
      "woburn": 6318,
      "po18": 6319,
      "hillcrest": 6320,
      "259": 6321,
      "sl8": 6322,
      "9qd": 6323,
      "8rq": 6324,
      "7rx": 6325,
      "lewisham": 6326,
      "0bh": 6327,
      "2qu": 6328,
      "4hl": 6329,
      "6en": 6330,
      "6bn": 6331,
      "6sd": 6332,
      "call": 6333,
      "iley": 6334,
      "pt": 6335,
      "etland": 6336,
      "love": 6337,
      "28a": 6338,
      "9jz": 6339,
      "moreton": 6340,
      "7qe": 6341,
      "9pw": 6342,
      "6dz": 6343,
      "9nt": 6344,
      "mussel": 6345,
      "enterprise": 6346,
      "musselburgh": 6347,
      "1ey": 6348,
      "8pp": 6349,
      "thill": 6350,
      "nworth": 6351,
      "bh20": 6352,
      "mk19": 6353,
      "1qw": 6354,
      "ml4": 6355,
      "2rn": 6356,
      "1rg": 6357,
      "6pj": 6358,
      "4rx": 6359,
      "swanage": 6360,
      "4tj": 6361,
      "8ry": 6362,
      "gu17": 6363,
      "bn8": 6364,
      "253": 6365,
      "sy11": 6366,
      "4pq": 6367,
      "oakley": 6368,
      "2rt": 6369,
      "parson": 6370,
      "broughton": 6371,
      "gipsy": 6372,
      "argyle": 6373,
      "catherine": 6374,
      "5hf": 6375,
      "6sj": 6376,
      "8ne": 6377,
      "tetbury": 6378,
      "lees": 6379,
      "alresford": 6380,
      "vere": 6381,
      "13a": 6382,
      "wike": 6383,
      "7jy": 6384,
      "5qd": 6385,
      "5qz": 6386,
      "9pq": 6387,
      "drove": 6388,
      "lightwater": 6389,
      "6sf": 6390,
      "9ry": 6391,
      "yson": 6392,
      "ree": 6393,
      "bake": 6394,
      "pr26": 6395,
      "24a": 6396,
      "7jw": 6397,
      "2qx": 6398,
      "6ps": 6399,
      "3rw": 6400,
      "7rq": 6401,
      "9rf": 6402,
      "0rd": 6403,
      "4ls": 6404,
      "stud": 6405,
      "9jn": 6406,
      "8pf": 6407,
      "3pg": 6408,
      "0pf": 6409,
      "chiltern": 6410,
      "bodmin": 6411,
      "billingshurst": 6412,
      "2lu": 6413,
      "8ph": 6414,
      "9hj": 6415,
      "pav": 6416,
      "lomond": 6417,
      "waite": 6418,
      "waye": 6419,
      "dy12": 6420,
      "1rq": 6421,
      "6nj": 6422,
      "0da": 6423,
      "0nr": 6424,
      "2st": 6425,
      "2sz": 6426,
      "7hf": 6427,
      "lonsdale": 6428,
      "dew": 6429,
      "254": 6430,
      "gresham": 6431,
      "3js": 6432,
      "0jg": 6433,
      "8lx": 6434,
      "6rj": 6435,
      "charter": 6436,
      "0ea": 6437,
      "1ex": 6438,
      "7sb": 6439,
      "8pl": 6440,
      "8sy": 6441,
      "9ly": 6442,
      "ingbridge": 6443,
      "richard": 6444,
      "244": 6445,
      "ec3a": 6446,
      "264": 6447,
      "265": 6448,
      "7qd": 6449,
      "0bb": 6450,
      "9nx": 6451,
      "tadcaster": 6452,
      "vincent": 6453,
      "2sn": 6454,
      "cecil": 6455,
      "1qp": 6456,
      "7qp": 6457,
      "0qt": 6458,
      "6rb": 6459,
      "0ed": 6460,
      "0hg": 6461,
      "0sa": 6462,
      "eh17": 6463,
      "eh47": 6464,
      "263": 6465,
      "alders": 6466,
      "brooklands": 6467,
      "evel": 6468,
      "goldhurst": 6469,
      "pembroke": 6470,
      "1th": 6471,
      "1tn": 6472,
      "7sr": 6473,
      "hod": 6474,
      "unce": 6475,
      "alls": 6476,
      "brin": 6477,
      "brox": 6478,
      "tweed": 6479,
      "0er": 6480,
      "5tb": 6481,
      "cs": 6482,
      "rant": 6483,
      "booth": 6484,
      "harris": 6485,
      "vers": 6486,
      "ts24": 6487,
      "holland": 6488,
      "8jw": 6489,
      "0jn": 6490,
      "4lw": 6491,
      "gorse": 6492,
      "2ss": 6493,
      "2tp": 6494,
      "5ud": 6495,
      "9ph": 6496,
      "cri": 6497,
      "ss12": 6498,
      "246": 6499,
      "cf71": 6500,
      "gl10": 6501,
      "ta8": 6502,
      "0jf": 6503,
      "iv3": 6504,
      "3pt": 6505,
      "9bl": 6506,
      "5pz": 6507,
      "6rt": 6508,
      "tennyson": 6509,
      "0la": 6510,
      "8ru": 6511,
      "9sd": 6512,
      "ja": 6513,
      "hag": 6514,
      "ol15": 6515,
      "forge": 6516,
      "252": 6517,
      "300": 6518,
      "0pb": 6519,
      "liphook": 6520,
      "cocker": 6521,
      "bakewell": 6522,
      "1se": 6523,
      "3sl": 6524,
      "6nw": 6525,
      "6hn": 6526,
      "9rd": 6527,
      "point": 6528,
      "hp8": 6529,
      "buckley": 6530,
      "cond": 6531,
      "0bg": 6532,
      "8nz": 6533,
      "9re": 6534,
      "second": 6535,
      "eldon": 6536,
      "ls24": 6537,
      "ab23": 6538,
      "vienna": 6539,
      "7jx": 6540,
      "melbourne": 6541,
      "shoe": 6542,
      "6qs": 6543,
      "7qr": 6544,
      "8pw": 6545,
      "goed": 6546,
      "6pg": 6547,
      "pelham": 6548,
      "frederick": 6549,
      "peckham": 6550,
      "virgin": 6551,
      "0sb": 6552,
      "2ry": 6553,
      "8tg": 6554,
      "stewar": 6555,
      "sy2": 6556,
      "8jt": 6557,
      "0ap": 6558,
      "8dz": 6559,
      "6nf": 6560,
      "0ar": 6561,
      "1sh": 6562,
      "7ny": 6563,
      "8sg": 6564,
      "britan": 6565,
      "some": 6566,
      "257": 6567,
      "wson": 6568,
      "260": 6569,
      "ruskin": 6570,
      "glade": 6571,
      "merlin": 6572,
      "barley": 6573,
      "6jw": 6574,
      "3qq": 6575,
      "4pt": 6576,
      "1pz": 6577,
      "7lj": 6578,
      "0nb": 6579,
      "kinfield": 6580,
      "thistle": 6581,
      "virginia": 6582,
      "britannia": 6583,
      "0hs": 6584,
      "7hq": 6585,
      "7tl": 6586,
      "8sa": 6587,
      "9ew": 6588,
      "jarrow": 6589,
      "udno": 6590,
      "dee": 6591,
      "266": 6592,
      "bangor": 6593,
      "wc2r": 6594,
      "dukinfield": 6595,
      "melville": 6596,
      "ky2": 6597,
      "furlong": 6598,
      "llandudno": 6599,
      "empire": 6600,
      "navig": 6601,
      "1uu": 6602,
      "5ls": 6603,
      "alnwick": 6604,
      "firs": 6605,
      "bacup": 6606,
      "gu18": 6607,
      "ryn": 6608,
      "bn44": 6609,
      "1qy": 6610,
      "worple": 6611,
      "horning": 6612,
      "0se": 6613,
      "0na": 6614,
      "2sy": 6615,
      "4eq": 6616,
      "6es": 6617,
      "6nn": 6618,
      "268": 6619,
      "5jx": 6620,
      "5qa": 6621,
      "fk5": 6622,
      "2rb": 6623,
      "8rw": 6624,
      "9rj": 6625,
      "6nq": 6626,
      "bluebell": 6627,
      "2tg": 6628,
      "fordingbridge": 6629,
      "clos": 6630,
      "gu31": 6631,
      "273": 6632,
      "7qg": 6633,
      "2lz": 6634,
      "9pj": 6635,
      "9rq": 6636,
      "0nh": 6637,
      "livingstone": 6638,
      "bagshot": 6639,
      "knebworth": 6640,
      "1ut": 6641,
      "4bu": 6642,
      "5th": 6643,
      "hanworth": 6644,
      "de74": 6645,
      "denton": 6646,
      "syl": 6647,
      "7jf": 6648,
      "penny": 6649,
      "0jl": 6650,
      "0lg": 6651,
      "0nj": 6652,
      "gala": 6653,
      "0pe": 6654,
      "1tg": 6655,
      "5qu": 6656,
      "8ss": 6657,
      "mfield": 6658,
      "lows": 6659,
      "ts16": 6660,
      "3jq": 6661,
      "5jw": 6662,
      "peni": 6663,
      "8qg": 6664,
      "0qd": 6665,
      "buckland": 6666,
      "boldon": 6667,
      "0hb": 6668,
      "4st": 6669,
      "6st": 6670,
      "dela": 6671,
      "gl12": 6672,
      "6ju": 6673,
      "4qj": 6674,
      "0qs": 6675,
      "5rl": 6676,
      "6rg": 6677,
      "cheap": 6678,
      "0ll": 6679,
      "5tw": 6680,
      "5tx": 6681,
      "6ss": 6682,
      "6su": 6683,
      "din": 6684,
      "coed": 6685,
      "ckland": 6686,
      "hu12": 6687,
      "248": 6688,
      "262": 6689,
      "greenfield": 6690,
      "6lp": 6691,
      "hawthorne": 6692,
      "3rt": 6693,
      "7rz": 6694,
      "5rw": 6695,
      "brampton": 6696,
      "horninglow": 6697,
      "2ug": 6698,
      "9pr": 6699,
      "9hz": 6700,
      "cut": 6701,
      "duns": 6702,
      "scr": 6703,
      "dove": 6704,
      "rodney": 6705,
      "eastgate": 6706,
      "8js": 6707,
      "5qw": 6708,
      "goswell": 6709,
      "0af": 6710,
      "0pg": 6711,
      "3tl": 6712,
      "4hx": 6713,
      "8hw": 6714,
      "hil": 6715,
      "pper": 6716,
      "sav": 6717,
      "whin": 6718,
      "derwent": 6719,
      "bn18": 6720,
      "ts8": 6721,
      "rm20": 6722,
      "rh14": 6723,
      "1rn": 6724,
      "helston": 6725,
      "0ds": 6726,
      "0ht": 6727,
      "1sn": 6728,
      "1fb": 6729,
      "3sn": 6730,
      "4ta": 6731,
      "8sh": 6732,
      "8qu": 6733,
      "bald": 6734,
      "rub": 6735,
      "sno": 6736,
      "ury": 6737,
      "terr": 6738,
      "bn41": 6739,
      "2qy": 6740,
      "8qs": 6741,
      "0px": 6742,
      "dane": 6743,
      "hazelwood": 6744,
      "0sr": 6745,
      "4ez": 6746,
      "5st": 6747,
      "5hw": 6748,
      "6ez": 6749,
      "7nn": 6750,
      "ira": 6751,
      "nall": 6752,
      "teg": 6753,
      "rox": 6754,
      "read": 6755,
      "cawl": 6756,
      "boyne": 6757,
      "heck": 6758,
      "so24": 6759,
      "256": 6760,
      "ln8": 6761,
      "brocken": 6762,
      "0js": 6763,
      "9pn": 6764,
      "5pq": 6765,
      "balham": 6766,
      "townsend": 6767,
      "porthcawl": 6768,
      "nicholas": 6769,
      "brockenhurst": 6770,
      "4te": 6771,
      "4sh": 6772,
      "5rr": 6773,
      "6sp": 6774,
      "7se": 6775,
      "7hz": 6776,
      "scombe": 6777,
      "terace": 6778,
      "ba20": 6779,
      "prud": 6780,
      "cf39": 6781,
      "sk16": 6782,
      "merri": 6783,
      "4qy": 6784,
      "7qq": 6785,
      "terrac": 6786,
      "9dz": 6787,
      "0bz": 6788,
      "4rn": 6789,
      "0dq": 6790,
      "royd": 6791,
      "0hr": 6792,
      "9ez": 6793,
      "4pu": 6794,
      "prudhoe": 6795,
      "6pr": 6796,
      "egl": 6797,
      "wren": 6798,
      "ch46": 6799,
      "ct4": 6800,
      "27a": 6801,
      "berkeley": 6802,
      "cockermouth": 6803,
      "navigation": 6804,
      "0ls": 6805,
      "2ud": 6806,
      "4sf": 6807,
      "8rd": 6808,
      "pe32": 6809,
      "0nz": 6810,
      "bone": 6811,
      "lambeth": 6812,
      "plumstead": 6813,
      "0bu": 6814,
      "1sf": 6815,
      "4re": 6816,
      "9ty": 6817,
      "suther": 6818,
      "tq7": 6819,
      "0lz": 6820,
      "1rt": 6821,
      "0rq": 6822,
      "dorchester": 6823,
      "fresh": 6824,
      "6te": 6825,
      "umb": 6826,
      "cook": 6827,
      "fish": 6828,
      "hu4": 6829,
      "tsse": 6830,
      "271": 6831,
      "5qj": 6832,
      "0jz": 6833,
      "exeter": 6834,
      "6nx": 6835,
      "0tq": 6836,
      "0hy": 6837,
      "0eq": 6838,
      "2sg": 6839,
      "2sq": 6840,
      "3se": 6841,
      "3sh": 6842,
      "toll": 6843,
      "sti": 6844,
      "strel": 6845,
      "sp6": 6846,
      "ashington": 6847,
      "hx4": 6848,
      "5px": 6849,
      "2rx": 6850,
      "1rx": 6851,
      "5rb": 6852,
      "vernon": 6853,
      "6rh": 6854,
      "8fh": 6855,
      "etts": 6856,
      "lakes": 6857,
      "hire": 6858,
      "mondwike": 6859,
      "8qn": 6860,
      "frinton": 6861,
      "thurlow": 6862,
      "heckmondwike": 6863,
      "6se": 6864,
      "8ud": 6865,
      "bh11": 6866,
      "274": 6867,
      "277": 6868,
      "9jw": 6869,
      "4qw": 6870,
      "0lp": 6871,
      "ec4v": 6872,
      "1ub": 6873,
      "1tf": 6874,
      "1tu": 6875,
      "4sx": 6876,
      "8sd": 6877,
      "sloan": 6878,
      "sthorpe": 6879,
      "rid": 6880,
      "ne27": 6881,
      "box": 6882,
      "ughton": 6883,
      "att": 6884,
      "dn18": 6885,
      "ec4n": 6886,
      "4qb": 6887,
      "7qy": 6888,
      "3pw": 6889,
      "3nl": 6890,
      "ughan": 6891,
      "0es": 6892,
      "0nu": 6893,
      "ne37": 6894,
      "gu32": 6895,
      "275": 6896,
      "trun": 6897,
      "nottingham": 6898,
      "8qf": 6899,
      "ivybridge": 6900,
      "3pq": 6901,
      "6pw": 6902,
      "5rg": 6903,
      "9sh": 6904,
      "9ss": 6905,
      "air": 6906,
      "chey": 6907,
      "bott": 6908,
      "bower": 6909,
      "bec": 6910,
      "moat": 6911,
      "280": 6912,
      "pa15": 6913,
      "sg3": 6914,
      "columb": 6915,
      "8pq": 6916,
      "0lj": 6917,
      "ditch": 6918,
      "larbert": 6919,
      "2tf": 6920,
      "8td": 6921,
      "8uh": 6922,
      "9ub": 6923,
      "bson": 6924,
      "gun": 6925,
      "jes": 6926,
      "want": 6927,
      "chen": 6928,
      "hu2": 6929,
      "272": 6930,
      "monks": 6931,
      "tq5": 6932,
      "0py": 6933,
      "7nf": 6934,
      "ne32": 6935,
      "peel": 6936,
      "20a": 6937,
      "cf48": 6938,
      "288": 6939,
      "278": 6940,
      "0jq": 6941,
      "7ps": 6942,
      "4rl": 6943,
      "strat": 6944,
      "voir": 6945,
      "0ew": 6946,
      "0rr": 6947,
      "0dd": 6948,
      "3ts": 6949,
      "8sp": 6950,
      "ol13": 6951,
      "0jd": 6952,
      "ky16": 6953,
      "kingsmead": 6954,
      "manningtree": 6955,
      "ang": 6956,
      "ts12": 6957,
      "267": 6958,
      "cm5": 6959,
      "winter": 6960,
      "farr": 6961,
      "6lz": 6962,
      "0pq": 6963,
      "9nz": 6964,
      "6nz": 6965,
      "barnsley": 6966,
      "parsonage": 6967,
      "0nn": 6968,
      "6sx": 6969,
      "ise": 6970,
      "sme": 6971,
      "tro": 6972,
      "wade": 6973,
      "stings": 6974,
      "ky6": 6975,
      "3rz": 6976,
      "9rt": 6977,
      "1tr": 6978,
      "4pr": 6979,
      "5ny": 6980,
      "5tj": 6981,
      "7tr": 6982,
      "ges": 6983,
      "eh32": 6984,
      "29a": 6985,
      "phil": 6986,
      "7qf": 6987,
      "3pz": 6988,
      "pasture": 6989,
      "0dn": 6990,
      "3td": 6991,
      "7su": 6992,
      "idge": 6993,
      "jen": 6994,
      "aves": 6995,
      "270": 6996,
      "hr2": 6997,
      "9lx": 6998,
      "welsh": 6999,
      "4rj": 7000,
      "6rw": 7001,
      "wantz": 7002,
      "1sj": 7003,
      "4ru": 7004,
      "7ga": 7005,
      "pde": 7006,
      "ong": 7007,
      "wain": 7008,
      "mag": 7009,
      "291": 7010,
      "297": 7011,
      "5pw": 7012,
      "5rz": 7013,
      "kendal": 7014,
      "carterton": 7015,
      "9uy": 7016,
      "ells": 7017,
      "co13": 7018,
      "cale": 7019,
      "ca13": 7020,
      "9rn": 7021,
      "6nh": 7022,
      "sutherland": 7023,
      "sloane": 7024,
      "4tp": 7025,
      "5sa": 7026,
      "6ew": 7027,
      "6rs": 7028,
      "wc1r": 7029,
      "ddington": 7030,
      "1ps": 7031,
      "0qh": 7032,
      "0bw": 7033,
      "dleys": 7034,
      "8rz": 7035,
      "hinton": 7036,
      "vaughan": 7037,
      "llo": 7038,
      "sw1a": 7039,
      "da4": 7040,
      "sy4": 7041,
      "5qb": 7042,
      "brecon": 7043,
      "longley": 7044,
      "morgan": 7045,
      "sunning": 7046,
      "lynton": 7047,
      "wyndham": 7048,
      "rotherhithe": 7049,
      "0ph": 7050,
      "0eu": 7051,
      "2sb": 7052,
      "4tu": 7053,
      "4hw": 7054,
      "5ry": 7055,
      "8ny": 7056,
      "dog": 7057,
      "ledbury": 7058,
      "shen": 7059,
      "2qz": 7060,
      "8ql": 7061,
      "8pz": 7062,
      "priest": 7063,
      "harewood": 7064,
      "badgers": 7065,
      "1ra": 7066,
      "2sj": 7067,
      "4sj": 7068,
      "5sq": 7069,
      "ct18": 7070,
      "carluke": 7071,
      "1qz": 7072,
      "bramble": 7073,
      "0bx": 7074,
      "8rt": 7075,
      "5rq": 7076,
      "llant": 7077,
      "1ez": 7078,
      "3uh": 7079,
      "4td": 7080,
      "7sp": 7081,
      "pie": 7082,
      "ride": 7083,
      "kew": 7084,
      "0ja": 7085,
      "gerton": 7086,
      "0pu": 7087,
      "7rj": 7088,
      "maryport": 7089,
      "shepherds": 7090,
      "0ra": 7091,
      "5sb": 7092,
      "7fd": 7093,
      "bab": 7094,
      "prd": 7095,
      "hather": 7096,
      "ne42": 7097,
      "ol7": 7098,
      "co12": 7099,
      "ba16": 7100,
      "wordsworth": 7101,
      "4pz": 7102,
      "1xa": 7103,
      "0pj": 7104,
      "littleborough": 7105,
      "wallace": 7106,
      "campion": 7107,
      "trundleys": 7108,
      "2ub": 7109,
      "2td": 7110,
      "2sr": 7111,
      "amb": 7112,
      "arden": 7113,
      "woodhouse": 7114,
      "woodcote": 7115,
      "meter": 7116,
      "lesden": 7117,
      "32a": 7118,
      "ml9": 7119,
      "terrasse": 7120,
      "7pd": 7121,
      "0xz": 7122,
      "florence": 7123,
      "5fd": 7124,
      "8te": 7125,
      "bens": 7126,
      "ab16": 7127,
      "282": 7128,
      "307": 7129,
      "monk": 7130,
      "pl21": 7131,
      "6qf": 7132,
      "clive": 7133,
      "fk9": 7134,
      "langdale": 7135,
      "immingham": 7136,
      "desbury": 7137,
      "brondesbury": 7138,
      "0ly": 7139,
      "2tu": 7140,
      "7ss": 7141,
      "9rh": 7142,
      "vis": 7143,
      "ne21": 7144,
      "co16": 7145,
      "gu30": 7146,
      "276": 7147,
      "0jb": 7148,
      "0jx": 7149,
      "3pn": 7150,
      "windlesham": 7151,
      "cinder": 7152,
      "0dy": 7153,
      "4sn": 7154,
      "6th": 7155,
      "6hu": 7156,
      "6qu": 7157,
      "6sr": 7158,
      "cun": 7159,
      "hamble": 7160,
      "swe": 7161,
      "ts20": 7162,
      "percy": 7163,
      "sy13": 7164,
      "6qt": 7165,
      "thornhill": 7166,
      "silbury": 7167,
      "shank": 7168,
      "0re": 7169,
      "1tt": 7170,
      "6rr": 7171,
      "clover": 7172,
      "ox13": 7173,
      "dn34": 7174,
      "conway": 7175,
      "6pu": 7176,
      "4rq": 7177,
      "8rp": 7178,
      "8nq": 7179,
      "0sq": 7180,
      "3sx": 7181,
      "4ga": 7182,
      "6ny": 7183,
      "287": 7184,
      "31a": 7185,
      "midsummer": 7186,
      "6qx": 7187,
      "pinewood": 7188,
      "franklin": 7189,
      "spital": 7190,
      "4rs": 7191,
      "6hx": 7192,
      "tha": 7193,
      "highland": 7194,
      "maxwell": 7195,
      "25a": 7196,
      "dg1": 7197,
      "crab": 7198,
      "frog": 7199,
      "ates": 7200,
      "cedars": 7201,
      "eglinton": 7202,
      "7tt": 7203,
      "bunt": 7204,
      "rol": 7205,
      "swold": 7206,
      "crook": 7207,
      "dn40": 7208,
      "ensington": 7209,
      "rowlands": 7210,
      "30a": 7211,
      "wf16": 7212,
      "np25": 7213,
      "5qr": 7214,
      "auch": 7215,
      "taylor": 7216,
      "0le": 7217,
      "5gy": 7218,
      "7st": 7219,
      "8sf": 7220,
      "vell": 7221,
      "lett": 7222,
      "rig": 7223,
      "skine": 7224,
      "quad": 7225,
      "ml8": 7226,
      "3rx": 7227,
      "7ng": 7228,
      "horseshoe": 7229,
      "fountainbridge": 7230,
      "evelyn": 7231,
      "4ss": 7232,
      "4sz": 7233,
      "flin": 7234,
      "coul": 7235,
      "atyn": 7236,
      "montag": 7237,
      "pl19": 7238,
      "6rx": 7239,
      "prestatyn": 7240,
      "montague": 7241,
      "2ts": 7242,
      "hand": 7243,
      "beresford": 7244,
      "hu14": 7245,
      "ts9": 7246,
      "26a": 7247,
      "283": 7248,
      "305": 7249,
      "stockbridge": 7250,
      "2bf": 7251,
      "5pu": 7252,
      "3nz": 7253,
      "0nl": 7254,
      "4yu": 7255,
      "minehead": 7256,
      "blandford": 7257,
      "7rr": 7258,
      "chart": 7259,
      "hedge": 7260,
      "kers": 7261,
      "lewood": 7262,
      "burford": 7263,
      "prde": 7264,
      "dn12": 7265,
      "dn33": 7266,
      "cf34": 7267,
      "sy8": 7268,
      "carn": 7269,
      "blaydon": 7270,
      "dding": 7271,
      "5qx": 7272,
      "0ng": 7273,
      "grangemouth": 7274,
      "birchwood": 7275,
      "0tw": 7276,
      "rows": 7277,
      "erskine": 7278,
      "286": 7279,
      "hoy": 7280,
      "bermond": 7281,
      "holden": 7282,
      "barra": 7283,
      "8qw": 7284,
      "part": 7285,
      "4rw": 7286,
      "front": 7287,
      "augu": 7288,
      "bermondsey": 7289,
      "0he": 7290,
      "4sp": 7291,
      "5te": 7292,
      "9ga": 7293,
      "ic": 7294,
      "cover": 7295,
      "hem": 7296,
      "northcote": 7297,
      "0qr": 7298,
      "7nz": 7299,
      "8sl": 7300,
      "hither": 7301,
      "289": 7302,
      "dukes": 7303,
      "6js": 7304,
      "cotswold": 7305,
      "6rl": 7306,
      "foxglo": 7307,
      "fourth": 7308,
      "0hn": 7309,
      "0tl": 7310,
      "3tg": 7311,
      "7rd": 7312,
      "8sj": 7313,
      "doll": 7314,
      "admir": 7315,
      "thing": 7316,
      "derson": 7317,
      "cemeter": 7318,
      "chestergate": 7319,
      "tock": 7320,
      "4qz": 7321,
      "4nz": 7322,
      "leafe": 7323,
      "undry": 7324,
      "admiral": 7325,
      "cemetery": 7326,
      "3th": 7327,
      "5td": 7328,
      "9fd": 7329,
      "pot": 7330,
      "rosebery": 7331,
      "andrew": 7332,
      "knighton": 7333,
      "essex": 7334,
      "1uf": 7335,
      "3sg": 7336,
      "3ta": 7337,
      "3tn": 7338,
      "4tg": 7339,
      "kensington": 7340,
      "havel": 7341,
      "thick": 7342,
      "co11": 7343,
      "atlan": 7344,
      "parkfield": 7345,
      "sk22": 7346,
      "ubb": 7347,
      "308": 7348,
      "greencroft": 7349,
      "mart": 7350,
      "circus": 7351,
      "7nt": 7352,
      "draycott": 7353,
      "havelock": 7354,
      "stur": 7355,
      "cox": 7356,
      "279": 7357,
      "303": 7358,
      "tran": 7359,
      "0qp": 7360,
      "5rt": 7361,
      "shipston": 7362,
      "hindhead": 7363,
      "310": 7364,
      "6sl": 7365,
      "7tp": 7366,
      "gwyn": 7367,
      "rope": 7368,
      "leo": 7369,
      "ne46": 7370,
      "edral": 7371,
      "rydal": 7372,
      "cv13": 7373,
      "chatte": 7374,
      "5bf": 7375,
      "joel": 7376,
      "7rw": 7377,
      "bondway": 7378,
      "effra": 7379,
      "mulberry": 7380,
      "cathedral": 7381,
      "ebbw": 7382,
      "5tu": 7383,
      "5sf": 7384,
      "6sh": 7385,
      "9tr": 7386,
      "fren": 7387,
      "wj": 7388,
      "almond": 7389,
      "dn7": 7390,
      "blackheath": 7391,
      "fk3": 7392,
      "2rz": 7393,
      "6pz": 7394,
      "0rt": 7395,
      "6nt": 7396,
      "gatwick": 7397,
      "bloomfield": 7398,
      "2ue": 7399,
      "6uj": 7400,
      "bwy": 7401,
      "egerton": 7402,
      "ore": 7403,
      "rin": 7404,
      "tul": 7405,
      "cker": 7406,
      "ct17": 7407,
      "302": 7408,
      "eastfield": 7409,
      "stephen": 7410,
      "4sb": 7411,
      "bd": 7412,
      "ight": 7413,
      "harcourt": 7414,
      "ventnor": 7415,
      "wf7": 7416,
      "ky4": 7417,
      "ky15": 7418,
      "0ql": 7419,
      "0lb": 7420,
      "0dw": 7421,
      "5rn": 7422,
      "elmwood": 7423,
      "silverdale": 7424,
      "whyteleafe": 7425,
      "3sp": 7426,
      "6tg": 7427,
      "lamb": 7428,
      "hive": 7429,
      "hp17": 7430,
      "bh3": 7431,
      "baring": 7432,
      "shepton": 7433,
      "pinfold": 7434,
      "lansdown": 7435,
      "0hx": 7436,
      "0sd": 7437,
      "oon": 7438,
      "halesfield": 7439,
      "cho": 7440,
      "burlington": 7441,
      "da13": 7442,
      "ll19": 7443,
      "powys": 7444,
      "299": 7445,
      "hollow": 7446,
      "0pz": 7447,
      "9rz": 7448,
      "chantry": 7449,
      "7sf": 7450,
      "ju": 7451,
      "shar": 7452,
      "wallis": 7453,
      "284": 7454,
      "tr15": 7455,
      "holyhead": 7456,
      "birchin": 7457,
      "birchington": 7458,
      "stewart": 7459,
      "bunting": 7460,
      "chatteris": 7461,
      "4uh": 7462,
      "6sn": 7463,
      "cae": 7464,
      "ls4": 7465,
      "newark": 7466,
      "southfield": 7467,
      "8qy": 7468,
      "6qz": 7469,
      "glendale": 7470,
      "foxglove": 7471,
      "0pl": 7472,
      "3sr": 7473,
      "5sp": 7474,
      "7sd": 7475,
      "8tb": 7476,
      "eal": 7477,
      "sty": 7478,
      "ne63": 7479,
      "camborne": 7480,
      "293": 7481,
      "colm": 7482,
      "ta20": 7483,
      "ambleside": 7484,
      "4rd": 7485,
      "5se": 7486,
      "6ur": 7487,
      "7rh": 7488,
      "ellis": 7489,
      "burley": 7490,
      "clough": 7491,
      "bn9": 7492,
      "304": 7493,
      "mallet": 7494,
      "kenwell": 7495,
      "cowper": 7496,
      "coleford": 7497,
      "loanhead": 7498,
      "clerkenwell": 7499,
      "flint": 7500,
      "5ru": 7501,
      "6tj": 7502,
      "7ry": 7503,
      "8tr": 7504,
      "8sx": 7505,
      "9td": 7506,
      "ele": 7507,
      "ba22": 7508,
      "crss": 7509,
      "prt": 7510,
      "cm24": 7511,
      "dunoon": 7512,
      "0rp": 7513,
      "baddow": 7514,
      "haverstock": 7515,
      "0ty": 7516,
      "1ud": 7517,
      "5sd": 7518,
      "7sn": 7519,
      "8nw": 7520,
      "9ru": 7521,
      "9tl": 7522,
      "highfields": 7523,
      "301": 7524,
      "295": 7525,
      "ashleigh": 7526,
      "ashmead": 7527,
      "7rf": 7528,
      "2xb": 7529,
      "owen": 7530,
      "1tq": 7531,
      "5sy": 7532,
      "greens": 7533,
      "shott": 7534,
      "9qw": 7535,
      "midhurst": 7536,
      "0qj": 7537,
      "wesley": 7538,
      "caernar": 7539,
      "coleridge": 7540,
      "bensham": 7541,
      "0sh": 7542,
      "0tg": 7543,
      "329": 7544,
      "9ta": 7545,
      "cav": 7546,
      "vy": 7547,
      "hams": 7548,
      "po32": 7549,
      "kestrel": 7550,
      "cw4": 7551,
      "4qq": 7552,
      "shifn": 7553,
      "shiels": 7554,
      "knoll": 7555,
      "shifnal": 7556,
      "2tl": 7557,
      "4se": 7558,
      "6tu": 7559,
      "9sj": 7560,
      "mab": 7561,
      "eh20": 7562,
      "colin": 7563,
      "34a": 7564,
      "35a": 7565,
      "blair": 7566,
      "nairn": 7567,
      "euston": 7568,
      "rosemary": 7569,
      "bottom": 7570,
      "leominster": 7571,
      "320": 7572,
      "fea": 7573,
      "iton": 7574,
      "tony": 7575,
      "coates": 7576,
      "ct12": 7577,
      "tam": 7578,
      "tq13": 7579,
      "moorland": 7580,
      "9rl": 7581,
      "9rx": 7582,
      "2fe": 7583,
      "0nq": 7584,
      "radford": 7585,
      "galashiels": 7586,
      "farringdon": 7587,
      "shanklin": 7588,
      "0rs": 7589,
      "2su": 7590,
      "stor": 7591,
      "donald": 7592,
      "gu19": 7593,
      "norbury": 7594,
      "6qn": 7595,
      "gravel": 7596,
      "mdws": 7597,
      "1ue": 7598,
      "hed": 7599,
      "chy": 7600,
      "hutton": 7601,
      "southdown": 7602,
      "kingsbury": 7603,
      "beehive": 7604,
      "desborough": 7605,
      "kimberley": 7606,
      "0ez": 7607,
      "4tw": 7608,
      "4rr": 7609,
      "ardley": 7610,
      "highbridge": 7611,
      "ll14": 7612,
      "post": 7613,
      "285": 7614,
      "pas": 7615,
      "comm": 7616,
      "6rp": 7617,
      "rosslyn": 7618,
      "selkirk": 7619,
      "wigton": 7620,
      "0ru": 7621,
      "326": 7622,
      "9sl": 7623,
      "gen": 7624,
      "star": 7625,
      "ec2y": 7626,
      "manse": 7627,
      "7qx": 7628,
      "meadway": 7629,
      "auckland": 7630,
      "rells": 7631,
      "bentley": 7632,
      "1gu": 7633,
      "2sw": 7634,
      "jun": 7635,
      "seven": 7636,
      "aby": 7637,
      "tworth": 7638,
      "gl8": 7639,
      "henley": 7640,
      "0te": 7641,
      "2tn": 7642,
      "rod": 7643,
      "lenn": 7644,
      "ox39": 7645,
      "281": 7646,
      "dy7": 7647,
      "ky13": 7648,
      "7rn": 7649,
      "johnson": 7650,
      "5ub": 7651,
      "6fd": 7652,
      "7sy": 7653,
      "prom": 7654,
      "zon": 7655,
      "sp7": 7656,
      "thornbury": 7657,
      "foundry": 7658,
      "morland": 7659,
      "turner": 7660,
      "hardy": 7661,
      "partridge": 7662,
      "ek": 7663,
      "wales": 7664,
      "olton": 7665,
      "shetland": 7666,
      "so52": 7667,
      "294": 7668,
      "mson": 7669,
      "tr18": 7670,
      "372": 7671,
      "np23": 7672,
      "8jz": 7673,
      "blackfriars": 7674,
      "darwin": 7675,
      "strathaven": 7676,
      "317": 7677,
      "3ug": 7678,
      "7td": 7679,
      "9se": 7680,
      "aud": 7681,
      "leton": 7682,
      "caxton": 7683,
      "highgate": 7684,
      "rayners": 7685,
      "ament": 7686,
      "6qr": 7687,
      "5pf": 7688,
      "thompson": 7689,
      "onslow": 7690,
      "0ug": 7691,
      "7nw": 7692,
      "8sq": 7693,
      "9th": 7694,
      "9uz": 7695,
      "longh": 7696,
      "raleigh": 7697,
      "ats": 7698,
      "cf35": 7699,
      "pa5": 7700,
      "309": 7701,
      "290": 7702,
      "292": 7703,
      "0rf": 7704,
      "huntly": 7705,
      "cuik": 7706,
      "penicuik": 7707,
      "atlantic": 7708,
      "3sz": 7709,
      "bark": 7710,
      "anchor": 7711,
      "306": 7712,
      "ashfield": 7713,
      "hr6": 7714,
      "tf11": 7715,
      "0qy": 7716,
      "9rw": 7717,
      "fld": 7718,
      "leonard": 7719,
      "33a": 7720,
      "3tp": 7721,
      "4sq": 7722,
      "6sy": 7723,
      "8ue": 7724,
      "pend": 7725,
      "gu25": 7726,
      "iron": 7727,
      "bern": 7728,
      "broadwater": 7729,
      "hr8": 7730,
      "heri": 7731,
      "1xe": 7732,
      "brandon": 7733,
      "marshall": 7734,
      "1ty": 7735,
      "2uj": 7736,
      "4uq": 7737,
      "5ur": 7738,
      "7ru": 7739,
      "7sg": 7740,
      "kir": 7741,
      "stones": 7742,
      "po36": 7743,
      "gu26": 7744,
      "296": 7745,
      "trede": 7746,
      "miner": 7747,
      "0qq": 7748,
      "hardwick": 7749,
      "woolwich": 7750,
      "bdwy": 7751,
      "tamworth": 7752,
      "311": 7753,
      "5uu": 7754,
      "7th": 7755,
      "7ta": 7756,
      "8tu": 7757,
      "rn": 7758,
      "tem": 7759,
      "peven": 7760,
      "ba4": 7761,
      "bh19": 7762,
      "seafield": 7763,
      "td15": 7764,
      "sandwich": 7765,
      "bowling": 7766,
      "llantwit": 7767,
      "tredegar": 7768,
      "pevensey": 7769,
      "5tg": 7770,
      "6ts": 7771,
      "6sa": 7772,
      "angle": 7773,
      "eh30": 7774,
      "298": 7775,
      "37a": 7776,
      "3qz": 7777,
      "7qz": 7778,
      "7pz": 7779,
      "0qg": 7780,
      "0rl": 7781,
      "0rw": 7782,
      "hartington": 7783,
      "barnfield": 7784,
      "rookery": 7785,
      "piece": 7786,
      "0td": 7787,
      "2tt": 7788,
      "327": 7789,
      "5tf": 7790,
      "7tf": 7791,
      "8ug": 7792,
      "9tj": 7793,
      "sar": 7794,
      "sbury": 7795,
      "esk": 7796,
      "ca15": 7797,
      "woodville": 7798,
      "meth": 7799,
      "chas": 7800,
      "ta24": 7801,
      "350": 7802,
      "hayle": 7803,
      "leighton": 7804,
      "millbank": 7805,
      "canon": 7806,
      "duncan": 7807,
      "ebles": 7808,
      "chequ": 7809,
      "tenter": 7810,
      "hampstead": 7811,
      "0tt": 7812,
      "0tn": 7813,
      "2un": 7814,
      "3fq": 7815,
      "5tt": 7816,
      "6un": 7817,
      "8tn": 7818,
      "myr": 7819,
      "cass": 7820,
      "peebles": 7821,
      "gu5": 7822,
      "eh39": 7823,
      "lowther": 7824,
      "greenbank": 7825,
      "trev": 7826,
      "2pz": 7827,
      "quayside": 7828,
      "ttingley": 7829,
      "kinson": 7830,
      "pandy": 7831,
      "grenville": 7832,
      "334": 7833,
      "9sw": 7834,
      "wither": 7835,
      "gu20": 7836,
      "aylestone": 7837,
      "redwood": 7838,
      "hr9": 7839,
      "5nz": 7840,
      "wc1e": 7841,
      "know": 7842,
      "dryden": 7843,
      "quadrant": 7844,
      "3sw": 7845,
      "7uu": 7846,
      "9ug": 7847,
      "pingham": 7848,
      "rockingham": 7849,
      "arlington": 7850,
      "raw": 7851,
      "rh7": 7852,
      "ruther": 7853,
      "chand": 7854,
      "markfield": 7855,
      "7pw": 7856,
      "bishopsgate": 7857,
      "bonnyrigg": 7858,
      "shenley": 7859,
      "4gd": 7860,
      "6tb": 7861,
      "7te": 7862,
      "8ts": 7863,
      "yan": 7864,
      "liament": 7865,
      "ffe": 7866,
      "rh18": 7867,
      "rowland": 7868,
      "hood": 7869,
      "0ju": 7870,
      "burnside": 7871,
      "parliament": 7872,
      "6rn": 7873,
      "liske": 7874,
      "beeches": 7875,
      "bramley": 7876,
      "paddocks": 7877,
      "millers": 7878,
      "sweet": 7879,
      "feather": 7880,
      "4tq": 7881,
      "4tf": 7882,
      "5sn": 7883,
      "oat": 7884,
      "tun": 7885,
      "elton": 7886,
      "stretton": 7887,
      "ne66": 7888,
      "bradley": 7889,
      "furze": 7890,
      "ealing": 7891,
      "2uh": 7892,
      "eh26": 7893,
      "leigham": 7894,
      "viot": 7895,
      "blake": 7896,
      "6qy": 7897,
      "td1": 7898,
      "sands": 7899,
      "atherton": 7900,
      "gilbert": 7901,
      "3fh": 7902,
      "5fb": 7903,
      "8tj": 7904,
      "iel": 7905,
      "nan": 7906,
      "pe16": 7907,
      "limes": 7908,
      "cm22": 7909,
      "gl14": 7910,
      "sack": 7911,
      "minor": 7912,
      "sylvan": 7913,
      "liskeard": 7914,
      "0qu": 7915,
      "2sx": 7916,
      "315": 7917,
      "4ud": 7918,
      "7tj": 7919,
      "8sw": 7920,
      "8uq": 7921,
      "flor": 7922,
      "wberry": 7923,
      "ll57": 7924,
      "chesterfield": 7925,
      "352": 7926,
      "9pz": 7927,
      "1xb": 7928,
      "0pn": 7929,
      "beechcroft": 7930,
      "henfield": 7931,
      "craigs": 7932,
      "broxburn": 7933,
      "316": 7934,
      "3ut": 7935,
      "4tb": 7936,
      "4sr": 7937,
      "8ub": 7938,
      "ires": 7939,
      "ula": 7940,
      "za": 7941,
      "lith": 7942,
      "so42": 7943,
      "cv36": 7944,
      "340": 7945,
      "0pt": 7946,
      "roundhay": 7947,
      "ec4m": 7948,
      "2tx": 7949,
      "5fs": 7950,
      "7ts": 7951,
      "9sn": 7952,
      "ose": 7953,
      "pall": 7954,
      "oli": 7955,
      "llys": 7956,
      "walde": 7957,
      "pa23": 7958,
      "lins": 7959,
      "336": 7960,
      "bedlington": 7961,
      "wellesley": 7962,
      "timber": 7963,
      "2tr": 7964,
      "5tl": 7965,
      "6ty": 7966,
      "gie": 7967,
      "hugh": 7968,
      "nings": 7969,
      "vue": 7970,
      "wro": 7971,
      "leston": 7972,
      "de45": 7973,
      "pe38": 7974,
      "crof": 7975,
      "waters": 7976,
      "noch": 7977,
      "tf4": 7978,
      "state": 7979,
      "9xa": 7980,
      "knottingley": 7981,
      "cricklewood": 7982,
      "ridings": 7983,
      "0sg": 7984,
      "3ul": 7985,
      "3ua": 7986,
      "4gb": 7987,
      "6uf": 7988,
      "bold": 7989,
      "ony": 7990,
      "lehurst": 7991,
      "reed": 7992,
      "launce": 7993,
      "brig": 7994,
      "woodlea": 7995,
      "ator": 7996,
      "howe": 7997,
      "7rt": 7998,
      "henderson": 7999,
      "lynwood": 8000,
      "milford": 8001,
      "maesteg": 8002,
      "1tp": 8003,
      "2tq": 8004,
      "4th": 8005,
      "5ta": 8006,
      "5tp": 8007,
      "8ty": 8008,
      "estate": 8009,
      "nwood": 8010,
      "hawick": 8011,
      "thro": 8012,
      "nest": 8013,
      "cr9": 8014,
      "clair": 8015,
      "6bf": 8016,
      "cooper": 8017,
      "312": 8018,
      "4fd": 8019,
      "5ss": 8020,
      "alby": 8021,
      "coe": 8022,
      "coun": 8023,
      "pa8": 8024,
      "greenwood": 8025,
      "333": 8026,
      "4rz": 8027,
      "maltings": 8028,
      "lloyd": 8029,
      "330": 8030,
      "6ut": 8031,
      "7sx": 8032,
      "lly": 8033,
      "ts4": 8034,
      "341": 8035,
      "eastcote": 8036,
      "gnal": 8037,
      "campden": 8038,
      "scotland": 8039,
      "pentre": 8040,
      "sunningdale": 8041,
      "launceston": 8042,
      "2ge": 8043,
      "5sg": 8044,
      "5sj": 8045,
      "9su": 8046,
      "oun": 8047,
      "off": 8048,
      "zie": 8049,
      "harwood": 8050,
      "eh41": 8051,
      "crofton": 8052,
      "lish": 8053,
      "lyd": 8054,
      "ec4r": 8055,
      "stain": 8056,
      "morley": 8057,
      "3xb": 8058,
      "celyn": 8059,
      "scrub": 8060,
      "0sf": 8061,
      "314": 8062,
      "4sy": 8063,
      "4ux": 8064,
      "plo": 8065,
      "thouse": 8066,
      "bridgewater": 8067,
      "lowes": 8068,
      "mansfield": 8069,
      "eastwood": 8070,
      "break": 8071,
      "moorside": 8072,
      "6rq": 8073,
      "mallard": 8074,
      "minerva": 8075,
      "321": 8076,
      "8tf": 8077,
      "8uw": 8078,
      "allan": 8079,
      "loss": 8080,
      "newbridge": 8081,
      "eh51": 8082,
      "gl16": 8083,
      "343": 8084,
      "tail": 8085,
      "sp8": 8086,
      "meads": 8087,
      "grass": 8088,
      "buntingford": 8089,
      "0sp": 8090,
      "1up": 8091,
      "319": 8092,
      "325": 8093,
      "6sw": 8094,
      "6tx": 8095,
      "8tt": 8096,
      "9st": 8097,
      "bway": 8098,
      "pe31": 8099,
      "beat": 8100,
      "cru": 8101,
      "ts21": 8102,
      "339": 8103,
      "courtfield": 8104,
      "wf11": 8105,
      "ml10": 8106,
      "chancer": 8107,
      "golf": 8108,
      "aldersgate": 8109,
      "chancery": 8110,
      "313": 8111,
      "9sr": 8112,
      "mbridge": 8113,
      "nam": 8114,
      "watch": 8115,
      "olds": 8116,
      "eath": 8117,
      "crai": 8118,
      "0qw": 8119,
      "straight": 8120,
      "petworth": 8121,
      "0gb": 8122,
      "3tr": 8123,
      "6tp": 8124,
      "jew": 8125,
      "mable": 8126,
      "ne22": 8127,
      "ta9": 8128,
      "buchan": 8129,
      "335": 8130,
      "tr13": 8131,
      "strong": 8132,
      "sandford": 8133,
      "0rx": 8134,
      "cuck": 8135,
      "3sf": 8136,
      "43a": 8137,
      "7tu": 8138,
      "9tn": 8139,
      "avers": 8140,
      "eh45": 8141,
      "tye": 8142,
      "rh9": 8143,
      "td9": 8144,
      "0pw": 8145,
      "pits": 8146,
      "golden": 8147,
      "bunyan": 8148,
      "dulwich": 8149,
      "318": 8150,
      "324": 8151,
      "8fg": 8152,
      "hans": 8153,
      "elle": 8154,
      "alford": 8155,
      "nn29": 8156,
      "uplands": 8157,
      "mons": 8158,
      "abercorn": 8159,
      "valen": 8160,
      "3xa": 8161,
      "milner": 8162,
      "0uj": 8163,
      "1c": 8164,
      "6fa": 8165,
      "7tg": 8166,
      "9sq": 8167,
      "archer": 8168,
      "lovel": 8169,
      "bridle": 8170,
      "harper": 8171,
      "wolsey": 8172,
      "craw": 8173,
      "hartley": 8174,
      "9xj": 8175,
      "windrush": 8176,
      "jackson": 8177,
      "1sz": 8178,
      "3ud": 8179,
      "5sr": 8180,
      "6fe": 8181,
      "7sq": 8182,
      "7uh": 8183,
      "9ue": 8184,
      "kins": 8185,
      "wingate": 8186,
      "styn": 8187,
      "le6": 8188,
      "popp": 8189,
      "derland": 8190,
      "cry": 8191,
      "eh19": 8192,
      "parkgate": 8193,
      "grant": 8194,
      "springbank": 8195,
      "4xb": 8196,
      "alexander": 8197,
      "laurence": 8198,
      "layne": 8199,
      "chamberlayne": 8200,
      "lakeside": 8201,
      "1ux": 8202,
      "328": 8203,
      "hai": 8204,
      "ets": 8205,
      "brian": 8206,
      "bridgeman": 8207,
      "mare": 8208,
      "major": 8209,
      "cf33": 8210,
      "ts3": 8211,
      "scard": 8212,
      "ph7": 8213,
      "0qn": 8214,
      "grim": 8215,
      "pitt": 8216,
      "commerce": 8217,
      "drummond": 8218,
      "tonypandy": 8219,
      "minories": 8220,
      "6ff": 8221,
      "8su": 8222,
      "mn": 8223,
      "cat": 8224,
      "dea": 8225,
      "isa": 8226,
      "36a": 8227,
      "trees": 8228,
      "0qx": 8229,
      "longford": 8230,
      "free": 8231,
      "brank": 8232,
      "rangle": 8233,
      "argyll": 8234,
      "2gg": 8235,
      "9tf": 8236,
      "var": 8237,
      "stin": 8238,
      "esplan": 8239,
      "liscard": 8240,
      "ct7": 8241,
      "ln3": 8242,
      "337": 8243,
      "wild": 8244,
      "armstrong": 8245,
      "ulah": 8246,
      "esplanade": 8247,
      "8tq": 8248,
      "9tp": 8249,
      "aboyne": 8250,
      "anerley": 8251,
      "allerton": 8252,
      "rae": 8253,
      "cado": 8254,
      "dash": 8255,
      "southern": 8256,
      "bus": 8257,
      "tr27": 8258,
      "6rz": 8259,
      "elmfield": 8260,
      "gibb": 8261,
      "charterhouse": 8262,
      "heritage": 8263,
      "4uf": 8264,
      "5ty": 8265,
      "marston": 8266,
      "38a": 8267,
      "39a": 8268,
      "montrose": 8269,
      "horncastle": 8270,
      "birchfield": 8271,
      "addison": 8272,
      "harehills": 8273,
      "saville": 8274,
      "caernarfon": 8275,
      "1ur": 8276,
      "49a": 8277,
      "8un": 8278,
      "8tw": 8279,
      "woo": 8280,
      "mostyn": 8281,
      "cf47": 8282,
      "carrington": 8283,
      "millfield": 8284,
      "nerdale": 8285,
      "golders": 8286,
      "thirl": 8287,
      "stile": 8288,
      "ranglet": 8289,
      "cadogan": 8290,
      "3up": 8291,
      "332": 8292,
      "7ue": 8293,
      "7sz": 8294,
      "sam": 8295,
      "stri": 8296,
      "lech": 8297,
      "ch6": 8298,
      "higham": 8299,
      "eh42": 8300,
      "wyke": 8301,
      "parklands": 8302,
      "sg9": 8303,
      "ground": 8304,
      "shoo": 8305,
      "moreland": 8306,
      "fairfax": 8307,
      "half": 8308,
      "knightsbridge": 8309,
      "standard": 8310,
      "wadebridge": 8311,
      "3ty": 8312,
      "3fd": 8313,
      "5sx": 8314,
      "6tl": 8315,
      "cn": 8316,
      "dir": 8317,
      "eltham": 8318,
      "arder": 8319,
      "beulah": 8320,
      "harrington": 8321,
      "pl27": 8322,
      "345": 8323,
      "penryn": 8324,
      "cottage": 8325,
      "deans": 8326,
      "kelvin": 8327,
      "botley": 8328,
      "coopers": 8329,
      "cinderford": 8330,
      "331": 8331,
      "4sw": 8332,
      "5su": 8333,
      "9sx": 8334,
      "hend": 8335,
      "ridg": 8336,
      "neville": 8337,
      "keth": 8338,
      "dn8": 8339,
      "gret": 8340,
      "greenwich": 8341,
      "but": 8342,
      "iv12": 8343,
      "mortlake": 8344,
      "brdway": 8345,
      "7tq": 8346,
      "7uw": 8347,
      "9sf": 8348,
      "bit": 8349,
      "bins": 8350,
      "gelly": 8351,
      "nen": 8352,
      "avo": 8353,
      "hu11": 8354,
      "sper": 8355,
      "breach": 8356,
      "beechfield": 8357,
      "ckenzie": 8358,
      "2sl": 8359,
      "44a": 8360,
      "chet": 8361,
      "lati": 8362,
      "pea": 8363,
      "lswater": 8364,
      "mott": 8365,
      "ta7": 8366,
      "stev": 8367,
      "tr14": 8368,
      "bright": 8369,
      "bramb": 8370,
      "langport": 8371,
      "4tz": 8372,
      "6tq": 8373,
      "7sw": 8374,
      "avie": 8375,
      "pe34": 8376,
      "eh55": 8377,
      "cf40": 8378,
      "cf46": 8379,
      "pl14": 8380,
      "build": 8381,
      "338": 8382,
      "gore": 8383,
      "strawberry": 8384,
      "frognal": 8385,
      "dinas": 8386,
      "magdale": 8387,
      "auchter": 8388,
      "shooters": 8389,
      "latimer": 8390,
      "3gs": 8391,
      "6br": 8392,
      "addington": 8393,
      "enade": 8394,
      "ert": 8395,
      "ox44": 8396,
      "cf61": 8397,
      "375": 8398,
      "356": 8399,
      "earlsfield": 8400,
      "promenade": 8401,
      "3ga": 8402,
      "3uw": 8403,
      "5gj": 8404,
      "6ua": 8405,
      "bk": 8406,
      "glas": 8407,
      "og": 8408,
      "ne39": 8409,
      "ll28": 8410,
      "eh53": 8411,
      "parkstone": 8412,
      "napier": 8413,
      "bankside": 8414,
      "birches": 8415,
      "dalton": 8416,
      "medway": 8417,
      "myrtle": 8418,
      "2uw": 8419,
      "9sz": 8420,
      "dark": 8421,
      "ennerdale": 8422,
      "sefton": 8423,
      "stream": 8424,
      "fare": 8425,
      "cotes": 8426,
      "3xd": 8427,
      "lionel": 8428,
      "pavil": 8429,
      "1uq": 8430,
      "4ul": 8431,
      "4ua": 8432,
      "4tn": 8433,
      "4uj": 8434,
      "6sq": 8435,
      "7fp": 8436,
      "8ut": 8437,
      "9te": 8438,
      "mou": 8439,
      "wp": 8440,
      "hedon": 8441,
      "baw": 8442,
      "plum": 8443,
      "ullswater": 8444,
      "redcliffe": 8445,
      "1xs": 8446,
      "sprn": 8447,
      "8xr": 8448,
      "hopewell": 8449,
      "lawns": 8450,
      "robinson": 8451,
      "jewry": 8452,
      "auchterarder": 8453,
      "pavilion": 8454,
      "2up": 8455,
      "2gf": 8456,
      "portway": 8457,
      "mills": 8458,
      "somerton": 8459,
      "hunter": 8460,
      "overton": 8461,
      "swift": 8462,
      "junct": 8463,
      "audley": 8464,
      "9ud": 8465,
      "9tz": 8466,
      "9tx": 8467,
      "aspen": 8468,
      "hes": 8469,
      "ib": 8470,
      "oban": 8471,
      "vly": 8472,
      "lebone": 8473,
      "rib": 8474,
      "burne": 8475,
      "wimble": 8476,
      "walsworth": 8477,
      "holbrook": 8478,
      "neys": 8479,
      "marylebone": 8480,
      "beauchamp": 8481,
      "polegate": 8482,
      "snow": 8483,
      "6tt": 8484,
      "6tn": 8485,
      "6fb": 8486,
      "iry": 8487,
      "da18": 8488,
      "denny": 8489,
      "3bf": 8490,
      "constan": 8491,
      "not": 8492,
      "lings": 8493,
      "cornhill": 8494,
      "cranes": 8495,
      "radnor": 8496,
      "borrow": 8497,
      "crabtree": 8498,
      "barrack": 8499,
      "0fd": 8500,
      "41a": 8501,
      "7tw": 8502,
      "cps": 8503,
      "nene": 8504,
      "savi": 8505,
      "ne65": 8506,
      "bailey": 8507,
      "sop": 8508,
      "parker": 8509,
      "monds": 8510,
      "gower": 8511,
      "selby": 8512,
      "lochgelly": 8513,
      "annan": 8514,
      "cheapside": 8515,
      "mabgate": 8516,
      "lithgow": 8517,
      "mablethorpe": 8518,
      "0tj": 8519,
      "1ga": 8520,
      "42a": 8521,
      "9tt": 8522,
      "amberley": 8523,
      "butt": 8524,
      "366": 8525,
      "grdn": 8526,
      "cotte": 8527,
      "sunderland": 8528,
      "dashwood": 8529,
      "boy": 8530,
      "ox20": 8531,
      "lumley": 8532,
      "fairways": 8533,
      "battle": 8534,
      "nield": 8535,
      "colliery": 8536,
      "323": 8537,
      "oa": 8538,
      "oley": 8539,
      "magn": 8540,
      "chesterton": 8541,
      "ts2": 8542,
      "378": 8543,
      "seaton": 8544,
      "369": 8545,
      "45a": 8546,
      "tile": 8547,
      "august": 8548,
      "thirlmere": 8549,
      "0tz": 8550,
      "5tq": 8551,
      "8ul": 8552,
      "9gl": 8553,
      "ningham": 8554,
      "pens": 8555,
      "ella": 8556,
      "ol5": 8557,
      "forres": 8558,
      "ckers": 8559,
      "shrub": 8560,
      "harvey": 8561,
      "mack": 8562,
      "cf82": 8563,
      "homes": 8564,
      "346": 8565,
      "ph3": 8566,
      "treharris": 8567,
      "stang": 8568,
      "tq6": 8569,
      "shotts": 8570,
      "abbotts": 8571,
      "cheyne": 8572,
      "waldegrave": 8573,
      "0sw": 8574,
      "0tb": 8575,
      "3tu": 8576,
      "5ul": 8577,
      "bes": 8578,
      "lill": 8579,
      "own": 8580,
      "chbrook": 8581,
      "linlithgow": 8582,
      "tachbrook": 8583,
      "strn": 8584,
      "351": 8585,
      "sworthy": 8586,
      "1xf": 8587,
      "kentish": 8588,
      "8wx": 8589,
      "illiers": 8590,
      "322": 8591,
      "3tt": 8592,
      "6ug": 8593,
      "villiers": 8594,
      "tess": 8595,
      "hastings": 8596,
      "three": 8597,
      "forre": 8598,
      "gu23": 8599,
      "tta": 8600,
      "46a": 8601,
      "gled": 8602,
      "glene": 8603,
      "insbury": 8604,
      "frey": 8605,
      "7xt": 8606,
      "4xd": 8607,
      "tollgate": 8608,
      "scroft": 8609,
      "sadd": 8610,
      "reyn": 8611,
      "rier": 8612,
      "beath": 8613,
      "maston": 8614,
      "upland": 8615,
      "mk1": 8616,
      "wns": 8617,
      "ashmore": 8618,
      "stanstead": 8619,
      "brewer": 8620,
      "longridge": 8621,
      "0xa": 8622,
      "ld3": 8623,
      "pennine": 8624,
      "plant": 8625,
      "2ux": 8626,
      "9up": 8627,
      "coast": 8628,
      "bampton": 8629,
      "ox25": 8630,
      "ts11": 8631,
      "347": 8632,
      "busin": 8633,
      "marle": 8634,
      "400": 8635,
      "4bf": 8636,
      "fosse": 8637,
      "garstang": 8638,
      "willia": 8639,
      "bramhall": 8640,
      "oatlands": 8641,
      "sprng": 8642,
      "business": 8643,
      "0ub": 8644,
      "7ua": 8645,
      "9tu": 8646,
      "9fl": 8647,
      "xter": 8648,
      "stit": 8649,
      "hack": 8650,
      "rake": 8651,
      "ckton": 8652,
      "lain": 8653,
      "pe33": 8654,
      "highway": 8655,
      "harrison": 8656,
      "hillview": 8657,
      "tspur": 8658,
      "stocks": 8659,
      "banff": 8660,
      "stoneleigh": 8661,
      "353": 8662,
      "whitworth": 8663,
      "parsons": 8664,
      "6xb": 8665,
      "morning": 8666,
      "buildings": 8667,
      "0su": 8668,
      "0sj": 8669,
      "8up": 8670,
      "ded": 8671,
      "dod": 8672,
      "pepper": 8673,
      "tson": 8674,
      "348": 8675,
      "spg": 8676,
      "smithy": 8677,
      "gourock": 8678,
      "cunningham": 8679,
      "tulse": 8680,
      "chandlers": 8681,
      "0sn": 8682,
      "6ub": 8683,
      "6fn": 8684,
      "9tq": 8685,
      "ica": 8686,
      "enhall": 8687,
      "chworth": 8688,
      "bn26": 8689,
      "headstone": 8690,
      "367": 8691,
      "dsay": 8692,
      "oakdene": 8693,
      "kirkstall": 8694,
      "1xj": 8695,
      "whitehouse": 8696,
      "2fd": 8697,
      "torpoint": 8698,
      "queensferry": 8699,
      "kerne": 8700,
      "kelow": 8701,
      "junction": 8702,
      "0th": 8703,
      "0ga": 8704,
      "1uy": 8705,
      "8uj": 8706,
      "9sy": 8707,
      "ewell": 8708,
      "wq": 8709,
      "lsham": 8710,
      "westo": 8711,
      "crew": 8712,
      "lindsay": 8713,
      "gores": 8714,
      "mickle": 8715,
      "knowe": 8716,
      "peartree": 8717,
      "gretna": 8718,
      "1ul": 8719,
      "4un": 8720,
      "4ut": 8721,
      "finsbury": 8722,
      "rold": 8723,
      "liffe": 8724,
      "spian": 8725,
      "amy": 8726,
      "malpas": 8727,
      "sunnyside": 8728,
      "3gb": 8729,
      "8tx": 8730,
      "9ua": 8731,
      "fds": 8732,
      "rand": 8733,
      "olm": 8734,
      "oliver": 8735,
      "out": 8736,
      "shu": 8737,
      "ehill": 8738,
      "maker": 8739,
      "ffham": 8740,
      "ct13": 8741,
      "377": 8742,
      "355": 8743,
      "40a": 8744,
      "moorfield": 8745,
      "tlington": 8746,
      "snod": 8747,
      "bennett": 8748,
      "shal": 8749,
      "mede": 8750,
      "gowrie": 8751,
      "2ga": 8752,
      "4tt": 8753,
      "7tn": 8754,
      "9ut": 8755,
      "rup": 8756,
      "sway": 8757,
      "lead": 8758,
      "caspian": 8759,
      "349": 8760,
      "368": 8761,
      "hs1": 8762,
      "batten": 8763,
      "1yd": 8764,
      "cypress": 8765,
      "kimb": 8766,
      "pastures": 8767,
      "gwydir": 8768,
      "allenby": 8769,
      "crawford": 8770,
      "0ta": 8771,
      "47a": 8772,
      "7ty": 8773,
      "9uu": 8774,
      "usk": 8775,
      "whf": 8776,
      "hammond": 8777,
      "latch": 8778,
      "vest": 8779,
      "pe20": 8780,
      "hoole": 8781,
      "ct15": 8782,
      "camer": 8783,
      "399": 8784,
      "foster": 8785,
      "ution": 8786,
      "willis": 8787,
      "tintern": 8788,
      "swaffham": 8789,
      "2tz": 8790,
      "4ub": 8791,
      "ax": 8792,
      "ab34": 8793,
      "pl31": 8794,
      "barclay": 8795,
      "cw3": 8796,
      "ky5": 8797,
      "breck": 8798,
      "icknield": 8799,
      "orkney": 8800,
      "7xd": 8801,
      "kimbolton": 8802,
      "0st": 8803,
      "0sl": 8804,
      "3z": 8805,
      "7tx": 8806,
      "9tg": 8807,
      "hilton": 8808,
      "heli": 8809,
      "aly": 8810,
      "rat": 8811,
      "five": 8812,
      "lowfield": 8813,
      "ln12": 8814,
      "342": 8815,
      "ta10": 8816,
      "364": 8817,
      "toft": 8818,
      "penman": 8819,
      "fk6": 8820,
      "cotton": 8821,
      "6xa": 8822,
      "dickens": 8823,
      "smeeth": 8824,
      "dollar": 8825,
      "2ut": 8826,
      "5ts": 8827,
      "5uh": 8828,
      "6ga": 8829,
      "6ul": 8830,
      "8uu": 8831,
      "yel": 8832,
      "olia": 8833,
      "mew": 8834,
      "eh33": 8835,
      "344": 8836,
      "383": 8837,
      "blackthorn": 8838,
      "broadhurst": 8839,
      "braid": 8840,
      "meadowbank": 8841,
      "radcliffe": 8842,
      "crowther": 8843,
      "thurso": 8844,
      "elliott": 8845,
      "honeypot": 8846,
      "hough": 8847,
      "bawtry": 8848,
      "magnolia": 8849,
      "6tw": 8850,
      "8sz": 8851,
      "arlesey": 8852,
      "eland": 8853,
      "watlington": 8854,
      "coch": 8855,
      "caul": 8856,
      "wee": 8857,
      "401": 8858,
      "barrington": 8859,
      "blakelow": 8860,
      "willesden": 8861,
      "porters": 8862,
      "springwood": 8863,
      "cheriton": 8864,
      "6xn": 8865,
      "8xg": 8866,
      "cum": 8867,
      "homefield": 8868,
      "coppermill": 8869,
      "crystal": 8870,
      "snodland": 8871,
      "donnington": 8872,
      "need": 8873,
      "coach": 8874,
      "cap": 8875,
      "dep": 8876,
      "po38": 8877,
      "gu29": 8878,
      "bn24": 8879,
      "parkwood": 8880,
      "waltham": 8881,
      "pa14": 8882,
      "pa19": 8883,
      "1bf": 8884,
      "bartho": 8885,
      "ml7": 8886,
      "0qz": 8887,
      "whitehorse": 8888,
      "hengoed": 8889,
      "boughton": 8890,
      "danes": 8891,
      "hampden": 8892,
      "sackville": 8893,
      "raeburn": 8894,
      "bartholo": 8895,
      "3tf": 8896,
      "5uf": 8897,
      "8gx": 8898,
      "9uh": 8899,
      "fan": 8900,
      "vlly": 8901,
      "dos": 8902,
      "loway": 8903,
      "oly": 8904,
      "ls3": 8905,
      "guard": 8906,
      "vermont": 8907,
      "ta4": 8908,
      "374": 8909,
      "354": 8910,
      "403": 8911,
      "allington": 8912,
      "stanwell": 8913,
      "cleator": 8914,
      "1xg": 8915,
      "2fh": 8916,
      "foregate": 8917,
      "4xl": 8918,
      "barnet": 8919,
      "tten": 8920,
      "vedale": 8921,
      "buckie": 8922,
      "braemar": 8923,
      "pump": 8924,
      "chequers": 8925,
      "poppy": 8926,
      "cameron": 8927,
      "4ts": 8928,
      "8fb": 8929,
      "9wa": 8930,
      "bdy": 8931,
      "dwns": 8932,
      "io": 8933,
      "anne": 8934,
      "sell": 8935,
      "caro": 8936,
      "bn5": 8937,
      "oxgate": 8938,
      "southchurch": 8939,
      "duff": 8940,
      "fk4": 8941,
      "beckett": 8942,
      "cheviot": 8943,
      "whitby": 8944,
      "charl": 8945,
      "browning": 8946,
      "ruthin": 8947,
      "freshwater": 8948,
      "wimbledon": 8949,
      "1gb": 8950,
      "2gy": 8951,
      "4gh": 8952,
      "8gr": 8953,
      "9ul": 8954,
      "acorn": 8955,
      "bess": 8956,
      "myn": 8957,
      "two": 8958,
      "wx": 8959,
      "anson": 8960,
      "riff": 8961,
      "hogarth": 8962,
      "southlands": 8963,
      "pass": 8964,
      "tr26": 8965,
      "illery": 8966,
      "caris": 8967,
      "burnley": 8968,
      "clement": 8969,
      "culver": 8970,
      "curzon": 8971,
      "fenchurch": 8972,
      "laurencekirk": 8973,
      "plantation": 8974,
      "3ue": 8975,
      "4fb": 8976,
      "5gb": 8977,
      "igan": 8978,
      "ervoir": 8979,
      "hoghton": 8980,
      "pack": 8981,
      "mers": 8982,
      "loughby": 8983,
      "361": 8984,
      "willoughby": 8985,
      "leaze": 8986,
      "reservoir": 8987,
      "henlow": 8988,
      "ranela": 8989,
      "davidson": 8990,
      "deacon": 8991,
      "ranelagh": 8992,
      "0sy": 8993,
      "9un": 8994,
      "ebury": 8995,
      "lade": 8996,
      "mad": 8997,
      "stad": 8998,
      "twy": 8999,
      "ashburnham": 9000,
      "ival": 9001,
      "7xr": 9002,
      "reign": 9003,
      "empress": 9004,
      "pilgrims": 9005,
      "miller": 9006,
      "airco": 9007,
      "stitution": 9008,
      "vill": 9009,
      "comb": 9010,
      "vereign": 9011,
      "sovereign": 9012,
      "cv33": 9013,
      "nook": 9014,
      "1xd": 9015,
      "grantham": 9016,
      "evington": 9017,
      "kilma": 9018,
      "padk": 9019,
      "scrubs": 9020,
      "savile": 9021,
      "0up": 9022,
      "2ty": 9023,
      "2uf": 9024,
      "7ux": 9025,
      "8tz": 9026,
      "nine": 9027,
      "ermine": 9028,
      "rivington": 9029,
      "shorth": 9030,
      "woodham": 9031,
      "mot": 9032,
      "bancroft": 9033,
      "monckton": 9034,
      "359": 9035,
      "ashdown": 9036,
      "cord": 9037,
      "iv36": 9038,
      "victory": 9039,
      "1xp": 9040,
      "lynmouth": 9041,
      "4xu": 9042,
      "ravensbourne": 9043,
      "kirby": 9044,
      "knowle": 9045,
      "crewkerne": 9046,
      "1fw": 9047,
      "3ub": 9048,
      "5sw": 9049,
      "57a": 9050,
      "7up": 9051,
      "7ud": 9052,
      "8gu": 9053,
      "9fb": 9054,
      "gln": 9055,
      "goulton": 9056,
      "kingshill": 9057,
      "ara": 9058,
      "hamlet": 9059,
      "woodford": 9060,
      "newgate": 9061,
      "moff": 9062,
      "mountain": 9063,
      "brunt": 9064,
      "hospital": 9065,
      "monta": 9066,
      "ashwood": 9067,
      "50a": 9068,
      "ademy": 9069,
      "sandgate": 9070,
      "bradshaw": 9071,
      "6xu": 9072,
      "7xb": 9073,
      "1ya": 9074,
      "chandos": 9075,
      "academy": 9076,
      "bruce": 9077,
      "blairgowrie": 9078,
      "morningside": 9079,
      "0gh": 9080,
      "3sq": 9081,
      "3fw": 9082,
      "420": 9083,
      "8fe": 9084,
      "ium": 9085,
      "sat": 9086,
      "albe": 9087,
      "ab45": 9088,
      "bear": 9089,
      "bates": 9090,
      "pl15": 9091,
      "luton": 9092,
      "folly": 9093,
      "anderson": 9094,
      "reading": 9095,
      "jesmond": 9096,
      "plover": 9097,
      "albemarle": 9098,
      "1gg": 9099,
      "1uw": 9100,
      "6sz": 9101,
      "7ge": 9102,
      "9fe": 9103,
      "inal": 9104,
      "anst": 9105,
      "laur": 9106,
      "dawes": 9107,
      "verstone": 9108,
      "keats": 9109,
      "so20": 9110,
      "cf45": 9111,
      "spil": 9112,
      "390": 9113,
      "bromyard": 9114,
      "fleming": 9115,
      "2fb": 9116,
      "austin": 9117,
      "tanner": 9118,
      "2gr": 9119,
      "whr": 9120,
      "domin": 9121,
      "wid": 9122,
      "weald": 9123,
      "me6": 9124,
      "uppingham": 9125,
      "paxton": 9126,
      "msbury": 9127,
      "358": 9128,
      "363": 9129,
      "welbeck": 9130,
      "moors": 9131,
      "mayflower": 9132,
      "ze1": 9133,
      "strode": 9134,
      "ellison": 9135,
      "bartholomew": 9136,
      "whrf": 9137,
      "2gz": 9138,
      "3wa": 9139,
      "3wh": 9140,
      "5ux": 9141,
      "5fe": 9142,
      "7ub": 9143,
      "ples": 9144,
      "tilli": 9145,
      "wens": 9146,
      "thwaite": 9147,
      "lanes": 9148,
      "drift": 9149,
      "ll55": 9150,
      "bassett": 9151,
      "ec3r": 9152,
      "ta18": 9153,
      "360": 9154,
      "whitt": 9155,
      "peters": 9156,
      "constitution": 9157,
      "0bf": 9158,
      "rosewell": 9159,
      "hornbeam": 9160,
      "balfour": 9161,
      "georges": 9162,
      "9xg": 9163,
      "6xs": 9164,
      "wheel": 9165,
      "coultry": 9166,
      "buchanan": 9167,
      "shortheath": 9168,
      "spilsby": 9169,
      "tillicoultry": 9170,
      "6gq": 9171,
      "7tz": 9172,
      "7gd": 9173,
      "pw": 9174,
      "one": 9175,
      "lonnen": 9176,
      "ribb": 9177,
      "ne36": 9178,
      "ca12": 9179,
      "ardale": 9180,
      "bean": 9181,
      "me18": 9182,
      "isy": 9183,
      "376": 9184,
      "379": 9185,
      "sim": 9186,
      "courtlands": 9187,
      "sud": 9188,
      "hawley": 9189,
      "locks": 9190,
      "kw14": 9191,
      "jersey": 9192,
      "eskdale": 9193,
      "aviemore": 9194,
      "olymp": 9195,
      "0uf": 9196,
      "6uu": 9197,
      "9fr": 9198,
      "cen": 9199,
      "mington": 9200,
      "nt": 9201,
      "vul": 9202,
      "cey": 9203,
      "greville": 9204,
      "ffin": 9205,
      "walworth": 9206,
      "walpole": 9207,
      "linson": 9208,
      "370": 9209,
      "357": 9210,
      "380": 9211,
      "381": 9212,
      "386": 9213,
      "bie": 9214,
      "rosewood": 9215,
      "1xl": 9216,
      "1xr": 9217,
      "charnwood": 9218,
      "corner": 9219,
      "8xa": 9220,
      "8xj": 9221,
      "hatherley": 9222,
      "vulcan": 9223,
      "48a": 9224,
      "52a": 9225,
      "55a": 9226,
      "8uf": 9227,
      "8fx": 9228,
      "get": 9229,
      "dore": 9230,
      "adam": 9231,
      "chley": 9232,
      "rian": 9233,
      "rice": 9234,
      "woodrow": 9235,
      "harvest": 9236,
      "derness": 9237,
      "moore": 9238,
      "tacre": 9239,
      "clf": 9240,
      "dud": 9241,
      "goose": 9242,
      "thorney": 9243,
      "horne": 9244,
      "kirkdale": 9245,
      "springvale": 9246,
      "4xh": 9247,
      "tenay": 9248,
      "broomhill": 9249,
      "knowl": 9250,
      "oswald": 9251,
      "betchworth": 9252,
      "bagley": 9253,
      "slater": 9254,
      "1ye": 9255,
      "2ff": 9256,
      "5uj": 9257,
      "6ud": 9258,
      "6ye": 9259,
      "7gb": 9260,
      "7fg": 9261,
      "stubb": 9262,
      "selsdon": 9263,
      "12b": 9264,
      "hick": 9265,
      "daisy": 9266,
      "highgrove": 9267,
      "westrn": 9268,
      "rhod": 9269,
      "pl26": 9270,
      "387": 9271,
      "berton": 9272,
      "gers": 9273,
      "moorgate": 9274,
      "kenmore": 9275,
      "1xq": 9276,
      "7xp": 9277,
      "elmers": 9278,
      "burntisland": 9279,
      "bonnybridge": 9280,
      "carisbrooke": 9281,
      "0wr": 9282,
      "0ud": 9283,
      "3fe": 9284,
      "kit": 9285,
      "alan": 9286,
      "ab30": 9287,
      "ehurst": 9288,
      "hu18": 9289,
      "theo": 9290,
      "dens": 9291,
      "southminster": 9292,
      "greenways": 9293,
      "vian": 9294,
      "wins": 9295,
      "384": 9296,
      "veney": 9297,
      "cart": 9298,
      "salmon": 9299,
      "sidney": 9300,
      "1xx": 9301,
      "regal": 9302,
      "tanners": 9303,
      "mornington": 9304,
      "delamere": 9305,
      "0ue": 9306,
      "4tx": 9307,
      "6tf": 9308,
      "asa": 9309,
      "mend": 9310,
      "indu": 9311,
      "arms": 9312,
      "gele": 9313,
      "meade": 9314,
      "hob": 9315,
      "pa34": 9316,
      "362": 9317,
      "chelsea": 9318,
      "ulk": 9319,
      "wv9": 9320,
      "wv15": 9321,
      "fk13": 9322,
      "5xs": 9323,
      "erebus": 9324,
      "spey": 9325,
      "chapman": 9326,
      "wootton": 9327,
      "deptford": 9328,
      "0tx": 9329,
      "3un": 9330,
      "8ur": 9331,
      "8fd": 9332,
      "gdn": 9333,
      "met": 9334,
      "ab54": 9335,
      "ll22": 9336,
      "masons": 9337,
      "dym": 9338,
      "ln9": 9339,
      "sg16": 9340,
      "courtenay": 9341,
      "courtland": 9342,
      "barlow": 9343,
      "oakhill": 9344,
      "8bf": 9345,
      "langham": 9346,
      "9xb": 9347,
      "5xt": 9348,
      "holmesdale": 9349,
      "chadwick": 9350,
      "holdenhurst": 9351,
      "4fw": 9352,
      "5tr": 9353,
      "6up": 9354,
      "7ug": 9355,
      "7uf": 9356,
      "9fs": 9357,
      "daw": 9358,
      "pe22": 9359,
      "pe37": 9360,
      "highcroft": 9361,
      "llwyn": 9362,
      "po37": 9363,
      "lowlands": 9364,
      "rh3": 9365,
      "warley": 9366,
      "373": 9367,
      "drury": 9368,
      "heathway": 9369,
      "longlands": 9370,
      "rosedale": 9371,
      "sandwash": 9372,
      "tithe": 9373,
      "swanscombe": 9374,
      "wenlock": 9375,
      "knight": 9376,
      "roundwood": 9377,
      "jermyn": 9378,
      "bloomsbury": 9379,
      "frogmore": 9380,
      "peacock": 9381,
      "2c": 9382,
      "3gd": 9383,
      "59a": 9384,
      "8ga": 9385,
      "benson": 9386,
      "fole": 9387,
      "ssey": 9388,
      "wray": 9389,
      "rove": 9390,
      "elands": 9391,
      "nevern": 9392,
      "ables": 9393,
      "westow": 9394,
      "ryton": 9395,
      "southwood": 9396,
      "greenacres": 9397,
      "tr10": 9398,
      "382": 9399,
      "stane": 9400,
      "crossways": 9401,
      "fk14": 9402,
      "salcombe": 9403,
      "parad": 9404,
      "morrison": 9405,
      "0rz": 9406,
      "2yh": 9407,
      "cowden": 9408,
      "prestbury": 9409,
      "robertson": 9410,
      "magdalen": 9411,
      "ribble": 9412,
      "cotterells": 9413,
      "brewery": 9414,
      "foleshill": 9415,
      "1tz": 9416,
      "412": 9417,
      "4ty": 9418,
      "4fg": 9419,
      "5ff": 9420,
      "63a": 9421,
      "6uh": 9422,
      "6uy": 9423,
      "7ul": 9424,
      "9ts": 9425,
      "ai": 9426,
      "gelder": 9427,
      "leham": 9428,
      "alva": 9429,
      "olme": 9430,
      "newington": 9431,
      "sg15": 9432,
      "365": 9433,
      "abergele": 9434,
      "farthing": 9435,
      "braeside": 9436,
      "drov": 9437,
      "boul": 9438,
      "harding": 9439,
      "lilac": 9440,
      "clarke": 9441,
      "welshpool": 9442,
      "ibstock": 9443,
      "kilmacolm": 9444,
      "paradise": 9445,
      "56a": 9446,
      "7br": 9447,
      "9tw": 9448,
      "9ux": 9449,
      "xford": 9450,
      "10b": 9451,
      "edith": 9452,
      "daws": 9453,
      "lesdale": 9454,
      "merry": 9455,
      "388": 9456,
      "392": 9457,
      "ky3": 9458,
      "shelton": 9459,
      "kw1": 9460,
      "hesketh": 9461,
      "ribblesdale": 9462,
      "51a": 9463,
      "9uj": 9464,
      "dre": 9465,
      "dia": 9466,
      "glyn": 9467,
      "hold": 9468,
      "nash": 9469,
      "led": 9470,
      "dales": 9471,
      "cf81": 9472,
      "hound": 9473,
      "platt": 9474,
      "tains": 9475,
      "371": 9476,
      "mpian": 9477,
      "foun": 9478,
      "hawks": 9479,
      "pink": 9480,
      "9xe": 9481,
      "hendon": 9482,
      "8xd": 9483,
      "4xa": 9484,
      "offi": 9485,
      "hawkins": 9486,
      "wheatley": 9487,
      "ckleton": 9488,
      "moffat": 9489,
      "0gd": 9490,
      "0uw": 9491,
      "4gg": 9492,
      "4fl": 9493,
      "ifield": 9494,
      "mc": 9495,
      "ory": 9496,
      "ab14": 9497,
      "tshire": 9498,
      "southbourne": 9499,
      "wellfield": 9500,
      "408": 9501,
      "bigg": 9502,
      "wiltshire": 9503,
      "9bf": 9504,
      "squires": 9505,
      "garston": 9506,
      "1xu": 9507,
      "frimley": 9508,
      "hartfield": 9509,
      "grampian": 9510,
      "cranford": 9511,
      "randolph": 9512,
      "aview": 9513,
      "bryant": 9514,
      "crowswood": 9515,
      "appleby": 9516,
      "lowesmoor": 9517,
      "2uq": 9518,
      "9uq": 9519,
      "bill": 9520,
      "made": 9521,
      "yle": 9522,
      "albury": 9523,
      "caw": 9524,
      "ab13": 9525,
      "baxter": 9526,
      "boroughgate": 9527,
      "brand": 9528,
      "northdown": 9529,
      "page": 9530,
      "endell": 9531,
      "travel": 9532,
      "dson": 9533,
      "duck": 9534,
      "suckle": 9535,
      "welford": 9536,
      "kenne": 9537,
      "chip": 9538,
      "kidbrooke": 9539,
      "inglewood": 9540,
      "healey": 9541,
      "honeysuckle": 9542,
      "wandle": 9543,
      "ditchling": 9544,
      "trout": 9545,
      "travellers": 9546,
      "2uu": 9547,
      "410": 9548,
      "7ur": 9549,
      "lever": 9550,
      "cash": 9551,
      "westmorland": 9552,
      "cardinal": 9553,
      "greenhaven": 9554,
      "sten": 9555,
      "sparrow": 9556,
      "wilkinson": 9557,
      "asden": 9558,
      "balcombe": 9559,
      "9xh": 9560,
      "2xa": 9561,
      "mull": 9562,
      "0xb": 9563,
      "piper": 9564,
      "trowley": 9565,
      "kw15": 9566,
      "picker": 9567,
      "philbeach": 9568,
      "strial": 9569,
      "industrial": 9570,
      "0tr": 9571,
      "1z": 9572,
      "2ur": 9573,
      "2gd": 9574,
      "3tw": 9575,
      "5uq": 9576,
      "8z": 9577,
      "bett": 9578,
      "dis": 9579,
      "tit": 9580,
      "seaview": 9581,
      "ch8": 9582,
      "alle": 9583,
      "ab56": 9584,
      "hole": 9585,
      "pa11": 9586,
      "pa13": 9587,
      "ta11": 9588,
      "viole": 9589,
      "405": 9590,
      "389": 9591,
      "ddings": 9592,
      "oakleigh": 9593,
      "ivan": 9594,
      "bishopton": 9595,
      "biggar": 9596,
      "brindley": 9597,
      "mottram": 9598,
      "moulsham": 9599,
      "constantine": 9600,
      "reynolds": 9601,
      "pwll": 9602,
      "office": 9603,
      "3gl": 9604,
      "4ur": 9605,
      "4ff": 9606,
      "58a": 9607,
      "6ue": 9608,
      "6tr": 9609,
      "6tz": 9610,
      "7gh": 9611,
      "9wh": 9612,
      "ake": 9613,
      "wha": 9614,
      "reid": 9615,
      "sefield": 9616,
      "ilminster": 9617,
      "edison": 9618,
      "highdown": 9619,
      "parkhill": 9620,
      "skel": 9621,
      "ts27": 9622,
      "cmmn": 9623,
      "maris": 9624,
      "385": 9625,
      "np22": 9626,
      "sy21": 9627,
      "wolverton": 9628,
      "gerald": 9629,
      "appr": 9630,
      "swich": 9631,
      "ipswich": 9632,
      "lovelace": 9633,
      "branksome": 9634,
      "violet": 9635,
      "431": 9636,
      "8uy": 9637,
      "bilton": 9638,
      "dovedale": 9639,
      "leop": 9640,
      "web": 9641,
      "weaver": 9642,
      "ll32": 9643,
      "harley": 9644,
      "macau": 9645,
      "tyler": 9646,
      "cardigan": 9647,
      "391": 9648,
      "394": 9649,
      "398": 9650,
      "sy16": 9651,
      "corran": 9652,
      "1xw": 9653,
      "falk": 9654,
      "frith": 9655,
      "langton": 9656,
      "davenport": 9657,
      "padstow": 9658,
      "wendover": 9659,
      "coomb": 9660,
      "pentland": 9661,
      "narborough": 9662,
      "goresbrook": 9663,
      "yelverton": 9664,
      "4fe": 9665,
      "54a": 9666,
      "5sz": 9667,
      "9uw": 9668,
      "fly": 9669,
      "wod": 9670,
      "lewell": 9671,
      "orion": 9672,
      "ellerton": 9673,
      "laby": 9674,
      "ca7": 9675,
      "illion": 9676,
      "beale": 9677,
      "bain": 9678,
      "bn42": 9679,
      "vivian": 9680,
      "quy": 9681,
      "seaforth": 9682,
      "fast": 9683,
      "395": 9684,
      "cwr": 9685,
      "6xe": 9686,
      "apch": 9687,
      "colliers": 9688,
      "lennox": 9689,
      "bernard": 9690,
      "cowdenbeath": 9691,
      "0ul": 9692,
      "2fy": 9693,
      "3ur": 9694,
      "oce": 9695,
      "rave": 9696,
      "sadle": 9697,
      "yar": 9698,
      "anth": 9699,
      "tonbridge": 9700,
      "neasden": 9701,
      "fieldfare": 9702,
      "gregor": 9703,
      "gl56": 9704,
      "linnet": 9705,
      "martock": 9706,
      "402": 9707,
      "aberton": 9708,
      "syth": 9709,
      "bargoed": 9710,
      "norsey": 9711,
      "malthouse": 9712,
      "tcher": 9713,
      "6xd": 9714,
      "collier": 9715,
      "caledon": 9716,
      "ocean": 9717,
      "0sx": 9718,
      "414": 9719,
      "5un": 9720,
      "6gb": 9721,
      "6uw": 9722,
      "7un": 9723,
      "7yd": 9724,
      "9fg": 9725,
      "blo": 9726,
      "lt": 9727,
      "mell": 9728,
      "ne40": 9729,
      "newbury": 9730,
      "denby": 9731,
      "eccle": 9732,
      "factory": 9733,
      "iv15": 9734,
      "pont": 9735,
      "cleuch": 9736,
      "hornsea": 9737,
      "2fg": 9738,
      "charle": 9739,
      "2xq": 9740,
      "riversdale": 9741,
      "5xj": 9742,
      "priors": 9743,
      "hunstanton": 9744,
      "goodman": 9745,
      "templ": 9746,
      "asaph": 9747,
      "1gd": 9748,
      "4gr": 9749,
      "7z": 9750,
      "9ur": 9751,
      "9gb": 9752,
      "nley": 9753,
      "wedg": 9754,
      "ingram": 9755,
      "halford": 9756,
      "thel": 9757,
      "raglan": 9758,
      "coles": 9759,
      "ll15": 9760,
      "pow": 9761,
      "kemp": 9762,
      "hillfield": 9763,
      "hilltop": 9764,
      "westmoreland": 9765,
      "holli": 9766,
      "wstn": 9767,
      "torbay": 9768,
      "6xh": 9769,
      "kelty": 9770,
      "fenton": 9771,
      "williams": 9772,
      "dominion": 9773,
      "0tf": 9774,
      "2gu": 9775,
      "4z": 9776,
      "6gj": 9777,
      "ffi": 9778,
      "jas": 9779,
      "kingsfield": 9780,
      "ros": 9781,
      "cows": 9782,
      "hir": 9783,
      "stein": 9784,
      "404": 9785,
      "chelford": 9786,
      "blackburn": 9787,
      "broadgate": 9788,
      "oakcroft": 9789,
      "4xe": 9790,
      "yorkshire": 9791,
      "flds": 9792,
      "macaulay": 9793,
      "eccleston": 9794,
      "3ff": 9795,
      "3tx": 9796,
      "3uj": 9797,
      "4uw": 9798,
      "616": 9799,
      "65a": 9800,
      "6gd": 9801,
      "bid": 9802,
      "egre": 9803,
      "hens": 9804,
      "poll": 9805,
      "yon": 9806,
      "ne35": 9807,
      "ava": 9808,
      "laleham": 9809,
[...]
